<unk>	0
<s>	0
</s>	0
<0x00>	0
<0x01>	0
<0x02>	0
<0x03>	0
<0x04>	0
<0x05>	0
<0x06>	0
<0x07>	0
<0x08>	0
<0x09>	0
<0x0A>	0
<0x0B>	0
<0x0C>	0
<0x0D>	0
<0x0E>	0
<0x0F>	0
<0x10>	0
<0x11>	0
<0x12>	0
<0x13>	0
<0x14>	0
<0x15>	0
<0x16>	0
<0x17>	0
<0x18>	0
<0x19>	0
<0x1A>	0
<0x1B>	0
<0x1C>	0
<0x1D>	0
<0x1E>	0
<0x1F>	0
<0x20>	0
<0x21>	0
<0x22>	0
<0x23>	0
<0x24>	0
<0x25>	0
<0x26>	0
<0x27>	0
<0x28>	0
<0x29>	0
<0x2A>	0
<0x2B>	0
<0x2C>	0
<0x2D>	0
<0x2E>	0
<0x2F>	0
<0x30>	0
<0x31>	0
<0x32>	0
<0x33>	0
<0x34>	0
<0x35>	0
<0x36>	0
<0x37>	0
<0x38>	0
<0x39>	0
<0x3A>	0
<0x3B>	0
<0x3C>	0
<0x3D>	0
<0x3E>	0
<0x3F>	0
<0x40>	0
<0x41>	0
<0x42>	0
<0x43>	0
<0x44>	0
<0x45>	0
<0x46>	0
<0x47>	0
<0x48>	0
<0x49>	0
<0x4A>	0
<0x4B>	0
<0x4C>	0
<0x4D>	0
<0x4E>	0
<0x4F>	0
<0x50>	0
<0x51>	0
<0x52>	0
<0x53>	0
<0x54>	0
<0x55>	0
<0x56>	0
<0x57>	0
<0x58>	0
<0x59>	0
<0x5A>	0
<0x5B>	0
<0x5C>	0
<0x5D>	0
<0x5E>	0
<0x5F>	0
<0x60>	0
<0x61>	0
<0x62>	0
<0x63>	0
<0x64>	0
<0x65>	0
<0x66>	0
<0x67>	0
<0x68>	0
<0x69>	0
<0x6A>	0
<0x6B>	0
<0x6C>	0
<0x6D>	0
<0x6E>	0
<0x6F>	0
<0x70>	0
<0x71>	0
<0x72>	0
<0x73>	0
<0x74>	0
<0x75>	0
<0x76>	0
<0x77>	0
<0x78>	0
<0x79>	0
<0x7A>	0
<0x7B>	0
<0x7C>	0
<0x7D>	0
<0x7E>	0
<0x7F>	0
<0x80>	0
<0x81>	0
<0x82>	0
<0x83>	0
<0x84>	0
<0x85>	0
<0x86>	0
<0x87>	0
<0x88>	0
<0x89>	0
<0x8A>	0
<0x8B>	0
<0x8C>	0
<0x8D>	0
<0x8E>	0
<0x8F>	0
<0x90>	0
<0x91>	0
<0x92>	0
<0x93>	0
<0x94>	0
<0x95>	0
<0x96>	0
<0x97>	0
<0x98>	0
<0x99>	0
<0x9A>	0
<0x9B>	0
<0x9C>	0
<0x9D>	0
<0x9E>	0
<0x9F>	0
<0xA0>	0
<0xA1>	0
<0xA2>	0
<0xA3>	0
<0xA4>	0
<0xA5>	0
<0xA6>	0
<0xA7>	0
<0xA8>	0
<0xA9>	0
<0xAA>	0
<0xAB>	0
<0xAC>	0
<0xAD>	0
<0xAE>	0
<0xAF>	0
<0xB0>	0
<0xB1>	0
<0xB2>	0
<0xB3>	0
<0xB4>	0
<0xB5>	0
<0xB6>	0
<0xB7>	0
<0xB8>	0
<0xB9>	0
<0xBA>	0
<0xBB>	0
<0xBC>	0
<0xBD>	0
<0xBE>	0
<0xBF>	0
<0xC0>	0
<0xC1>	0
<0xC2>	0
<0xC3>	0
<0xC4>	0
<0xC5>	0
<0xC6>	0
<0xC7>	0
<0xC8>	0
<0xC9>	0
<0xCA>	0
<0xCB>	0
<0xCC>	0
<0xCD>	0
<0xCE>	0
<0xCF>	0
<0xD0>	0
<0xD1>	0
<0xD2>	0
<0xD3>	0
<0xD4>	0
<0xD5>	0
<0xD6>	0
<0xD7>	0
<0xD8>	0
<0xD9>	0
<0xDA>	0
<0xDB>	0
<0xDC>	0
<0xDD>	0
<0xDE>	0
<0xDF>	0
<0xE0>	0
<0xE1>	0
<0xE2>	0
<0xE3>	0
<0xE4>	0
<0xE5>	0
<0xE6>	0
<0xE7>	0
<0xE8>	0
<0xE9>	0
<0xEA>	0
<0xEB>	0
<0xEC>	0
<0xED>	0
<0xEE>	0
<0xEF>	0
<0xF0>	0
<0xF1>	0
<0xF2>	0
<0xF3>	0
<0xF4>	0
<0xF5>	0
<0xF6>	0
<0xF7>	0
<0xF8>	0
<0xF9>	0
<0xFA>	0
<0xFB>	0
<0xFC>	0
<0xFD>	0
<0xFE>	0
<0xFF>	0
்க	-0
ம்	-1
்த	-2
ல்	-3
▁ப	-4
ன்	-5
▁க	-6
▁வ	-7
க்க	-8
▁த	-9
▁ம	-10
ர்	-11
்ட	-12
ும்	-13
▁ச	-14
▁அ	-15
ிய	-16
த்த	-17
ப்	-18
▁ந	-19
ரு	-20
ப்ப	-21
ந்த	-22
▁இ	-23
ில்	-24
ள்	-25
ட்ட	-26
ைய	-27
து	-28
▁எ	-29
க்கு	-30
▁உ	-31
்ச	-32
ிர	-33
ிற	-34
ாக	-35
டி	-36
ங்க	-37
▁வி	-38
ின்	-39
தி	-40
ற்	-41
டு	-42
ண்ட	-43
று	-44
▁ஆ	-45
லை	-46
▁செ	-47
ார	-48
▁மு	-49
வி	-50
ல்ல	-51
ாத	-52
..	-53
ற்ற	-54
வு	-55
க்	-56
ான	-57
ய்	-58
ர்க	-59
ால்	-60
ார்	-61
த்து	-62
▁ர	-63
ச்ச	-64
▁போ	-65
ப்பு	-66
ண்	-67
ந்து	-68
ரி	-69
மை	-70
▁கு	-71
▁-	-72
▁கா	-73
னை	-74
ளை	-75
ட்	-76
▁கொ	-77
ஸ்	-78
▁ஒ	-79
ன்ற	-80
▁பெ	-81
த்	-82
வர்	-83
ாம	-84
ிக	-85
றி	-86
ால	-87
▁பு	-88
ில	-89
ன்ன	-90
ான்	-91
டிய	-92
ள்ள	-93
ட்டு	-94
ின	-95
▁வே	-96
்கு	-97
ிரு	-98
▁வா	-99
▁பே	-100
ிழ	-101
ன்ப	-102
ுக்கு	-103
த்தில்	-104
வர	-105
ிக்க	-106
▁இரு	-107
▁வெ	-108
▁மா	-109
டை	-110
ச்	-111
▁செய	-112
ன்று	-113
ம்ப	-114
ாவ	-115
ர்கள்	-116
டைய	-117
ரா	-118
▁நா	-119
டும்	-120
▁து	-121
▁நீ	-122
க்கும்	-123
▁கோ	-124
▁அர	-125
லி	-126
▁மீ	-127
▁பிர	-128
▁பொ	-129
▁பா	-130
ையில்	-131
மா	-132
▁ஏ	-133
ண்ண	-134
ுக	-135
▁உய	-136
▁வீ	-137
▁கே	-138
▁ஒரு	-139
▁“	-140
ழு	-141
▁அவ	-142
▁ஜ	-143
▁செய்	-144
றை	-145
த்தை	-146
ாமல்	-147
▁அறி	-148
▁சொ	-149
▁அரச	-150
மைய	-151
▁தே	-152
தல்	-153
▁தொ	-154
வே	-155
வை	-156
னி	-157
▁தீ	-158
▁தம	-159
▁ட	-160
திய	-161
ாள	-162
▁நி	-163
▁வேண்ட	-164
ஸ்ட	-165
பு	-166
வத	-167
▁சிற	-168
ட்ச	-169
்த்த	-170
▁கூ	-171
பி	-172
▁வழ	-173
ற்க	-174
▁இந்த	-175
ஞ்ச	-176
ணி	-177
▁தா	-178
டன்	-179
கள்	-180
ளி	-181
▁தமிழ	-182
▁பய	-183
▁அதி	-184
ரிய	-185
மான	-186
ரை	-187
னு	-188
▁ய	-189
கை	-190
்கள்	-191
லா	-192
ண்டு	-193
▁செய்ய	-194
▁சி	-195
பா	-196
ளுக்கு	-197
கு	-198
ையும்	-199
ரும்	-200
டம்	-201
வில்	-202
வா	-203
▁வாழ	-204
▁விர	-205
வன்	-206
▁சு	-207
▁இல்ல	-208
வர்க	-209
▁திரு	-210
▁செய்த	-211
மு	-212
சி	-213
▁பிற	-214
ட்டம்	-215
ாது	-216
ட்டி	-217
க்கம்	-218
▁:	-219
ாகும்	-220
ற்று	-221
டுத்த	-222
போ	-223
வது	-224
▁அத	-225
மைச்ச	-226
▁தி	-227
▁மே	-228
...	-229
ியில்	-230
மன்ற	-231
▁கை	-232
லக	-233
தா	-234
▁இந்திய	-235
கார	-236
▁‘	-237
▁ஊ	-238
▁தெ	-239
▁மோ	-240
ல்லை	-241
ாய	-242
ணை	-243
▁ஓ	-244
ிற்கு	-245
▁என்ன	-246
ழி	-247
▁ஹ	-248
▁சே	-249
ணம்	-250
▁நட	-251
ங்கள்	-252
திமன்ற	-253
▁வை	-254
ளில்	-255
▁பொரு	-256
▁வரு	-257
▁நடி	-258
கா	-259
▁அற	-260
▁நெ	-261
ும்ப	-262
▁காத	-263
▁என	-264
ஷ்	-265
ல்க	-266
▁கரு	-267
▁வேண்டும்	-268
வன	-269
்க்க	-270
▁நிற	-271
த்திய	-272
▁ல	-273
ருக்கு	-274
▁தமிழக	-275
ழை	-276
▁தோ	-277
ின்ற	-278
▁தொட	-279
▁விவ	-280
ையை	-281
க்கை	-282
தை	-283
▁கெ	-284
▁விள	-285
▁உயிர	-286
க்கி	-287
▁புக	-288
▁அரசு	-289
ாலும்	-290
ன்னை	-291
ியை	-292
நீ	-293
ற்றி	-294
மைச்சர்	-295
▁நோ	-296
ாம்	-297
மாக	-298
▁போல	-299
▁துன்ப	-300
ப்பா	-301
▁இய	-302
ிகள்	-303
வுக்கு	-304
▁என்று	-305
ிறது	-306
வர்கள்	-307
▁கட	-308
▁இல்லை	-309
▁முதல்	-310
▁பார	-311
க்கள்	-312
▁மக	-313
▁தலை	-314
ப்பட்ட	-315
▁உள்ள	-316
▁பி	-317
▁ரா	-318
மி	-319
கர்	-320
ியல்	-321
ளு	-322
தல	-323
ெய	-324
▁ஐ	-325
▁மீது	-326
மே	-327
ழ்	-328
நா	-329
▁டி	-330
▁'	-331
▁நில	-332
▁முடிய	-333
சு	-334
▁ரூ	-335
ப்போ	-336
தம	-337
▁ஸ்ட	-338
▁கார	-339
▁உயர்	-340
களை	-341
ளின்	-342
திமன்றம்	-343
னம்	-344
▁வீர	-345
▁இன்று	-346
திர	-347
ர்த	-348
ளிய	-349
▁சா	-350
வார	-351
ரில்	-352
▁பேர்	-353
▁சொல்ல	-354
ெட்	-355
▁உலக	-356
▁உடைய	-357
வரை	-358
▁கைது	-359
முக	-360
ேன்	-361
ங்	-362
ர்ச்ச	-363
▁தவ	-364
▁இல்லாத	-365
▁டெ	-366
ண்டும்	-367
▁வழக்கு	-368
▁கண	-369
▁எண்ண	-370
▁பட	-371
த்திற்கு	-372
▁போரா	-373
▁நே	-374
ீர்	-375
▁மாண	-376
▁கி	-377
வ்	-378
விய	-379
ரம்	-380
▁நல்ல	-381
தே	-382
▁காவ	-383
▁பால	-384
ந்தி	-385
்சி	-386
▁ஆக	-387
▁’	-388
ங்கு	-389
ிறார்	-390
ண்ப	-391
லம்	-392
▁அம	-393
▁முடி	-394
ற்கு	-395
▁காதல	-396
▁பிரதம	-397
▁உட	-398
ையா	-399
▁எதிர	-400
▁கொண்ட	-401
▁எம்	-402
▁விஜ	-403
ரோ	-404
சார	-405
தம்	-406
ரவு	-407
▁மூ	-408
லும்	-409
▁தூ	-410
▁குற்ற	-411
டுக	-412
ப்பி	-413
ங்கி	-414
▁என்	-415
ல்வ	-416
வும்	-417
ஜின	-418
ழந்த	-419
லில்	-420
சை	-421
ாவில்	-422
▁பெரு	-423
்த்து	-424
▁மத்திய	-425
▁எல்ல	-426
ிலும்	-427
எல்	-428
▁உண	-429
▁அனு	-430
ற்ப	-431
▁பத	-432
▁பழ	-433
விட்ட	-434
▁வெளிய	-435
▁சோ	-436
▁கொள்ள	-437
ட்க	-438
ாக்	-439
▁மரு	-440
▁முதல	-441
றிய	-442
கம்	-443
▁தக	-444
▁வந்த	-445
சிக	-446
▁மன	-447
ப்படும்	-448
ாலின்	-449
ணைய	-450
▁இர	-451
▁சீ	-452
லு	-453
▁பல	-454
கே	-455
ட்ப	-456
ஸ்த	-457
ங்கிய	-458
▁இருக்க	-459
ீஸ்	-460
யில்	-461
▁இருப்ப	-462
▁சூ	-463
▁கிர	-464
▁தன்	-465
ட்டிய	-466
▁விடு	-467
▁விவகார	-468
ாளர்	-469
▁புதிய	-470
▁ட்	-471
ஜா	-472
க்கிய	-473
எஸ்	-474
தான்	-475
▁அமைச்சர்	-476
சிய	-477
▁சிறு	-478
ஜ்	-479
னா	-480
நீதிமன்றம்	-481
ைக்	-482
▁அறிவி	-483
யா	-484
ிரி	-485
ட்டும்	-486
▁பிரி	-487
▁இருந்த	-488
ரே	-489
ச்சு	-490
▁நினை	-491
▁உத்த	-492
னால்	-493
ர்ந்த	-494
▁புகார்	-495
▁மீண்டும்	-496
▁கொடு	-497
▁வர	-498
▁மனை	-499
▁அந்த	-500
▁பெண்	-501
▁உயிரிழ	-502
▁மெ	-503
▁?	-504
ாத்	-505
▁அள	-506
▁தடை	-507
▁தேர்த	-508
▁குழந்த	-509
▁ஜெய	-510
▁ரஜின	-511
ஜக	-512
ஜி	-513
ோர்	-514
▁தின	-515
▁பிரதமர்	-516
விட	-517
த்தி	-518
ியா	-519
▁என்ப	-520
▁மோடி	-521
▁விட	-522
த்தல்	-523
▁அணி	-524
▁கண்ட	-525
▁பெற்ற	-526
▁விசார	-527
த்தின்	-528
ாகு	-529
ாமி	-530
ற்கொ	-531
▁அன்ப	-532
்கும்	-533
▁என்ற	-534
▁ஆத	-535
ரின்	-536
▁தகவ	-537
ரிக்க	-538
ப்பை	-539
த்தால்	-540
மும்	-541
▁அது	-542
▁திர	-543
▁கண்ண	-544
▁பாஜக	-545
▁பாலியல்	-546
..?	-547
▁இல	-548
▁உறு	-549
▁முய	-550
▁முன்ன	-551
▁ஷ	-552
▁விரும்ப	-553
கி	-554
தும்	-555
ுடன்	-556
▁கோடி	-557
▁பின்	-558
▁அறிவு	-559
▁திரும	-560
▁ 	-561
▁திற	-562
▁வாழ்	-563
▁மக்கள்	-564
தாக	-565
▁வள	-566
போது	-567
ட்டில்	-568
▁மருத்து	-569
▁உத	-570
ட்சி	-571
▁மறு	-572
டித்த	-573
▁கால	-574
▁பகை	-575
வில்லை	-576
லாம்	-577
▁அவர்	-578
த்துக்கு	-579
▁அழ	-580
ர்வு	-581
ஸ்ட்	-582
▁இன்ப	-583
▁நாளை	-584
ந்திர	-585
வர்க்கு	-586
▁இந்தியா	-587
வரின்	-588
▁இருந்து	-589
டியோ	-590
ியின்	-591
ையே	-592
▁அஞ்ச	-593
▁விவகாரம்	-594
நி	-595
ன்க	-596
ூர்	-597
▁ஸ்	-598
▁கட்ட	-599
ரிக்கை	-600
வாக	-601
ல்ப	-602
ாள்	-603
ப்பட	-604
▁நடிகர்	-605
மதி	-606
▁ஸ்டாலின்	-607
▁ஈ	-608
▁விப	-609
▁வாய்	-610
ஸ்க	-611
ற்றம்	-612
▁போராட்டம்	-613
ோடு	-614
▁அதிகார	-615
▁உச்ச	-616
தால்	-617
▁காண	-618
▁செல்ல	-619
▁உத்தரவு	-620
ளைஞ	-621
▁அரு	-622
▁குறி	-623
▁வரும்	-624
ாரி	-625
▁அண	-626
ட்டை	-627
றும்	-628
ப்படி	-629
▁வேறு	-630
▁விளக்கம்	-631
சாய	-632
மீ	-633
பதி	-634
▁விரு	-635
▁கம	-636
▁லட்ச	-637
ர்ப்பு	-638
▁மர	-639
▁பலி	-640
▁தகவல்	-641
ட்பு	-642
▁தம்	-643
ூட	-644
▁புய	-645
▁இளைஞ	-646
▁அறிவிப்பு	-647
பெ	-648
ரன்	-649
்	-650
▁	-651
க	-652
ி	-653
ு	-654
த	-655
ம	-656
ர	-657
ா	-658
ப	-659
ட	-660
ல	-661
வ	-662
ன	-663
ை	-664
ய	-665
ச	-666
ற	-667
ந	-668
ள	-669
ண	-670
ே	-671
ெ	-672
அ	-673
.	-674
ோ	-675
இ	-676
ழ	-677
ீ	-678
எ	-679
ொ	-680
உ	-681
ங	-682
:	-683
,	-684
ூ	-685
ஆ	-686
ஸ	-687
ஜ	-688
-	-689
?	-690
ஒ	-691
0	-692
ஷ	-693
ஏ	-694
’	-695
ஞ	-696
 	-697
”	-698
1	-699
“	-700
2	-701
'	-702
ஹ	-703
ஐ	-704
‘	-705
5	-706
ஓ	-707
ஊ	-708
;	-709
3	-710
4	-711
‌	-712
ஃ	-713
6	-714
7	-715
8	-716
9	-717
ஈ	-718
)	-719
(	-720
`	-721
%	-722
"	-723
e	-724
a	-725
஧	-726
#	-727
o	-728
s	-729
ௌ	-730
/	-731
M	-732
d	-733
i	-734
t	-735
L	-736
r	-737
v	-738
p	-739
–	-740
