<unk>	0
<s>	0
</s>	0
<0x00>	0
<0x01>	0
<0x02>	0
<0x03>	0
<0x04>	0
<0x05>	0
<0x06>	0
<0x07>	0
<0x08>	0
<0x09>	0
<0x0A>	0
<0x0B>	0
<0x0C>	0
<0x0D>	0
<0x0E>	0
<0x0F>	0
<0x10>	0
<0x11>	0
<0x12>	0
<0x13>	0
<0x14>	0
<0x15>	0
<0x16>	0
<0x17>	0
<0x18>	0
<0x19>	0
<0x1A>	0
<0x1B>	0
<0x1C>	0
<0x1D>	0
<0x1E>	0
<0x1F>	0
<0x20>	0
<0x21>	0
<0x22>	0
<0x23>	0
<0x24>	0
<0x25>	0
<0x26>	0
<0x27>	0
<0x28>	0
<0x29>	0
<0x2A>	0
<0x2B>	0
<0x2C>	0
<0x2D>	0
<0x2E>	0
<0x2F>	0
<0x30>	0
<0x31>	0
<0x32>	0
<0x33>	0
<0x34>	0
<0x35>	0
<0x36>	0
<0x37>	0
<0x38>	0
<0x39>	0
<0x3A>	0
<0x3B>	0
<0x3C>	0
<0x3D>	0
<0x3E>	0
<0x3F>	0
<0x40>	0
<0x41>	0
<0x42>	0
<0x43>	0
<0x44>	0
<0x45>	0
<0x46>	0
<0x47>	0
<0x48>	0
<0x49>	0
<0x4A>	0
<0x4B>	0
<0x4C>	0
<0x4D>	0
<0x4E>	0
<0x4F>	0
<0x50>	0
<0x51>	0
<0x52>	0
<0x53>	0
<0x54>	0
<0x55>	0
<0x56>	0
<0x57>	0
<0x58>	0
<0x59>	0
<0x5A>	0
<0x5B>	0
<0x5C>	0
<0x5D>	0
<0x5E>	0
<0x5F>	0
<0x60>	0
<0x61>	0
<0x62>	0
<0x63>	0
<0x64>	0
<0x65>	0
<0x66>	0
<0x67>	0
<0x68>	0
<0x69>	0
<0x6A>	0
<0x6B>	0
<0x6C>	0
<0x6D>	0
<0x6E>	0
<0x6F>	0
<0x70>	0
<0x71>	0
<0x72>	0
<0x73>	0
<0x74>	0
<0x75>	0
<0x76>	0
<0x77>	0
<0x78>	0
<0x79>	0
<0x7A>	0
<0x7B>	0
<0x7C>	0
<0x7D>	0
<0x7E>	0
<0x7F>	0
<0x80>	0
<0x81>	0
<0x82>	0
<0x83>	0
<0x84>	0
<0x85>	0
<0x86>	0
<0x87>	0
<0x88>	0
<0x89>	0
<0x8A>	0
<0x8B>	0
<0x8C>	0
<0x8D>	0
<0x8E>	0
<0x8F>	0
<0x90>	0
<0x91>	0
<0x92>	0
<0x93>	0
<0x94>	0
<0x95>	0
<0x96>	0
<0x97>	0
<0x98>	0
<0x99>	0
<0x9A>	0
<0x9B>	0
<0x9C>	0
<0x9D>	0
<0x9E>	0
<0x9F>	0
<0xA0>	0
<0xA1>	0
<0xA2>	0
<0xA3>	0
<0xA4>	0
<0xA5>	0
<0xA6>	0
<0xA7>	0
<0xA8>	0
<0xA9>	0
<0xAA>	0
<0xAB>	0
<0xAC>	0
<0xAD>	0
<0xAE>	0
<0xAF>	0
<0xB0>	0
<0xB1>	0
<0xB2>	0
<0xB3>	0
<0xB4>	0
<0xB5>	0
<0xB6>	0
<0xB7>	0
<0xB8>	0
<0xB9>	0
<0xBA>	0
<0xBB>	0
<0xBC>	0
<0xBD>	0
<0xBE>	0
<0xBF>	0
<0xC0>	0
<0xC1>	0
<0xC2>	0
<0xC3>	0
<0xC4>	0
<0xC5>	0
<0xC6>	0
<0xC7>	0
<0xC8>	0
<0xC9>	0
<0xCA>	0
<0xCB>	0
<0xCC>	0
<0xCD>	0
<0xCE>	0
<0xCF>	0
<0xD0>	0
<0xD1>	0
<0xD2>	0
<0xD3>	0
<0xD4>	0
<0xD5>	0
<0xD6>	0
<0xD7>	0
<0xD8>	0
<0xD9>	0
<0xDA>	0
<0xDB>	0
<0xDC>	0
<0xDD>	0
<0xDE>	0
<0xDF>	0
<0xE0>	0
<0xE1>	0
<0xE2>	0
<0xE3>	0
<0xE4>	0
<0xE5>	0
<0xE6>	0
<0xE7>	0
<0xE8>	0
<0xE9>	0
<0xEA>	0
<0xEB>	0
<0xEC>	0
<0xED>	0
<0xEE>	0
<0xEF>	0
<0xF0>	0
<0xF1>	0
<0xF2>	0
<0xF3>	0
<0xF4>	0
<0xF5>	0
<0xF6>	0
<0xF7>	0
<0xF8>	0
<0xF9>	0
<0xFA>	0
<0xFB>	0
<0xFC>	0
<0xFD>	0
<0xFE>	0
<0xFF>	0
்க	-0
ம்	-1
்த	-2
ல்	-3
▁ப	-4
ன்	-5
▁க	-6
▁வ	-7
க்க	-8
▁த	-9
▁ம	-10
ர்	-11
்ட	-12
ும்	-13
▁ச	-14
▁அ	-15
ிய	-16
த்த	-17
ப்	-18
▁ந	-19
ரு	-20
ப்ப	-21
ந்த	-22
▁இ	-23
ில்	-24
ள்	-25
ட்ட	-26
ைய	-27
து	-28
▁எ	-29
க்கு	-30
▁உ	-31
்ச	-32
ிர	-33
ிற	-34
ாக	-35
டி	-36
ங்க	-37
▁வி	-38
ின்	-39
தி	-40
ற்	-41
டு	-42
ண்ட	-43
று	-44
▁ஆ	-45
லை	-46
▁செ	-47
ார	-48
▁மு	-49
வி	-50
ல்ல	-51
ாத	-52
..	-53
ற்ற	-54
வு	-55
க்	-56
ான	-57
ய்	-58
ர்க	-59
ால்	-60
ார்	-61
த்து	-62
▁ர	-63
ச்ச	-64
▁போ	-65
ப்பு	-66
ண்	-67
ந்து	-68
ரி	-69
மை	-70
▁கு	-71
▁-	-72
▁கா	-73
னை	-74
ளை	-75
ட்	-76
▁கொ	-77
ஸ்	-78
▁ஒ	-79
ன்ற	-80
▁பெ	-81
த்	-82
வர்	-83
ாம	-84
ிக	-85
றி	-86
ால	-87
▁பு	-88
ில	-89
ன்ன	-90
ான்	-91
டிய	-92
ள்ள	-93
ட்டு	-94
ின	-95
▁வே	-96
்கு	-97
ிரு	-98
▁வா	-99
▁பே	-100
ிழ	-101
ன்ப	-102
ுக்கு	-103
த்தில்	-104
வர	-105
ிக்க	-106
▁இரு	-107
▁வெ	-108
▁மா	-109
டை	-110
ச்	-111
▁செய	-112
ன்று	-113
ம்ப	-114
ாவ	-115
ர்கள்	-116
டைய	-117
ரா	-118
▁நா	-119
டும்	-120
▁து	-121
▁நீ	-122
க்கும்	-123
▁கோ	-124
▁அர	-125
லி	-126
▁மீ	-127
▁பிர	-128
▁பொ	-129
▁பா	-130
ையில்	-131
மா	-132
▁ஏ	-133
ண்ண	-134
ுக	-135
▁உய	-136
▁வீ	-137
▁கே	-138
▁ஒரு	-139
▁“	-140
ழு	-141
▁அவ	-142
▁ஜ	-143
▁செய்	-144
றை	-145
த்தை	-146
ாமல்	-147
▁அறி	-148
▁சொ	-149
▁அரச	-150
மைய	-151
▁தே	-152
தல்	-153
▁தொ	-154
வே	-155
வை	-156
னி	-157
▁தீ	-158
▁தம	-159
▁ட	-160
திய	-161
ாள	-162
▁நி	-163
▁வேண்ட	-164
ஸ்ட	-165
பு	-166
வத	-167
▁சிற	-168
ட்ச	-169
்த்த	-170
▁கூ	-171
பி	-172
▁வழ	-173
ற்க	-174
▁இந்த	-175
ஞ்ச	-176
ணி	-177
▁தா	-178
டன்	-179
கள்	-180
ளி	-181
▁தமிழ	-182
▁பய	-183
▁அதி	-184
ரிய	-185
மான	-186
ரை	-187
னு	-188
▁ய	-189
கை	-190
்கள்	-191
லா	-192
ண்டு	-193
▁செய்ய	-194
▁சி	-195
பா	-196
ளுக்கு	-197
கு	-198
ையும்	-199
ரும்	-200
டம்	-201
வில்	-202
வா	-203
▁வாழ	-204
▁விர	-205
வன்	-206
▁சு	-207
▁இல்ல	-208
வர்க	-209
▁திரு	-210
▁செய்த	-211
மு	-212
சி	-213
▁பிற	-214
ட்டம்	-215
ாது	-216
ட்டி	-217
க்கம்	-218
▁:	-219
ாகும்	-220
ற்று	-221
டுத்த	-222
போ	-223
வது	-224
▁அத	-225
மைச்ச	-226
▁தி	-227
▁மே	-228
...	-229
ியில்	-230
மன்ற	-231
▁கை	-232
லக	-233
தா	-234
▁இந்திய	-235
கார	-236
▁‘	-237
▁ஊ	-238
▁தெ	-239
▁மோ	-240
ல்லை	-241
ாய	-242
ணை	-243
▁ஓ	-244
ிற்கு	-245
▁என்ன	-246
ழி	-247
▁ஹ	-248
▁சே	-249
ணம்	-250
▁நட	-251
ங்கள்	-252
திமன்ற	-253
▁வை	-254
ளில்	-255
▁பொரு	-256
▁வரு	-257
▁நடி	-258
கா	-259
▁அற	-260
▁நெ	-261
ும்ப	-262
▁காத	-263
▁என	-264
ஷ்	-265
ல்க	-266
▁கரு	-267
▁வேண்டும்	-268
வன	-269
்க்க	-270
▁நிற	-271
த்திய	-272
▁ல	-273
ருக்கு	-274
▁தமிழக	-275
ழை	-276
▁தோ	-277
ின்ற	-278
▁தொட	-279
▁விவ	-280
ையை	-281
க்கை	-282
தை	-283
▁கெ	-284
▁விள	-285
▁உயிர	-286
க்கி	-287
▁புக	-288
▁அரசு	-289
ாலும்	-290
ன்னை	-291
ியை	-292
நீ	-293
ற்றி	-294
மைச்சர்	-295
▁நோ	-296
ாம்	-297
மாக	-298
▁போல	-299
▁துன்ப	-300
ப்பா	-301
▁இய	-302
ிகள்	-303
வுக்கு	-304
▁என்று	-305
ிறது	-306
வர்கள்	-307
▁கட	-308
▁இல்லை	-309
▁முதல்	-310
▁பார	-311
க்கள்	-312
▁மக	-313
▁தலை	-314
ப்பட்ட	-315
▁உள்ள	-316
▁பி	-317
▁ரா	-318
மி	-319
கர்	-320
ியல்	-321
ளு	-322
தல	-323
ெய	-324
▁ஐ	-325
▁மீது	-326
மே	-327
ழ்	-328
நா	-329
▁டி	-330
▁'	-331
▁நில	-332
▁முடிய	-333
சு	-334
▁ரூ	-335
ப்போ	-336
தம	-337
▁ஸ்ட	-338
▁கார	-339
▁உயர்	-340
களை	-341
ளின்	-342
திமன்றம்	-343
னம்	-344
▁வீர	-345
▁இன்று	-346
திர	-347
ர்த	-348
ளிய	-349
▁சா	-350
வார	-351
ரில்	-352
▁பேர்	-353
▁சொல்ல	-354
ெட்	-355
▁உலக	-356
▁உடைய	-357
வரை	-358
▁கைது	-359
முக	-360
ேன்	-361
ங்	-362
ர்ச்ச	-363
▁தவ	-364
▁இல்லாத	-365
▁டெ	-366
ண்டும்	-367
▁வழக்கு	-368
▁கண	-369
▁எண்ண	-370
▁பட	-371
த்திற்கு	-372
▁போரா	-373
▁நே	-374
ீர்	-375
▁மாண	-376
▁கி	-377
வ்	-378
விய	-379
ரம்	-380
▁நல்ல	-381
தே	-382
▁காவ	-383
▁பால	-384
ந்தி	-385
்சி	-386
▁ஆக	-387
▁’	-388
ங்கு	-389
ிறார்	-390
ண்ப	-391
லம்	-392
▁அம	-393
▁முடி	-394
ற்கு	-395
▁காதல	-396
▁பிரதம	-397
▁உட	-398
ையா	-399
▁எதிர	-400
▁கொண்ட	-401
▁எம்	-402
▁விஜ	-403
ரோ	-404
சார	-405
தம்	-406
ரவு	-407
▁மூ	-408
லும்	-409
▁தூ	-410
▁குற்ற	-411
டுக	-412
ப்பி	-413
ங்கி	-414
▁என்	-415
ல்வ	-416
வும்	-417
ஜின	-418
ழந்த	-419
லில்	-420
சை	-421
ாவில்	-422
▁பெரு	-423
்த்து	-424
▁மத்திய	-425
▁எல்ல	-426
ிலும்	-427
எல்	-428
▁உண	-429
▁அனு	-430
ற்ப	-431
▁பத	-432
▁பழ	-433
விட்ட	-434
▁வெளிய	-435
▁சோ	-436
▁கொள்ள	-437
ட்க	-438
ாக்	-439
▁மரு	-440
▁முதல	-441
றிய	-442
கம்	-443
▁தக	-444
▁வந்த	-445
சிக	-446
▁மன	-447
ப்படும்	-448
ாலின்	-449
ணைய	-450
▁இர	-451
▁சீ	-452
லு	-453
▁பல	-454
கே	-455
ட்ப	-456
ஸ்த	-457
ங்கிய	-458
▁இருக்க	-459
ீஸ்	-460
யில்	-461
▁இருப்ப	-462
▁சூ	-463
▁கிர	-464
▁தன்	-465
ட்டிய	-466
▁விடு	-467
▁விவகார	-468
ாளர்	-469
▁புதிய	-470
▁ட்	-471
ஜா	-472
க்கிய	-473
எஸ்	-474
தான்	-475
▁அமைச்சர்	-476
சிய	-477
▁சிறு	-478
ஜ்	-479
னா	-480
நீதிமன்றம்	-481
ைக்	-482
▁அறிவி	-483
யா	-484
ிரி	-485
ட்டும்	-486
▁பிரி	-487
▁இருந்த	-488
ரே	-489
ச்சு	-490
▁நினை	-491
▁உத்த	-492
னால்	-493
ர்ந்த	-494
▁புகார்	-495
▁மீண்டும்	-496
▁கொடு	-497
▁வர	-498
▁மனை	-499
▁அந்த	-500
▁பெண்	-501
▁உயிரிழ	-502
▁மெ	-503
▁?	-504
ாத்	-505
▁அள	-506
▁தடை	-507
▁தேர்த	-508
▁குழந்த	-509
▁ஜெய	-510
▁ரஜின	-511
ஜக	-512
ஜி	-513
ோர்	-514
▁தின	-515
▁பிரதமர்	-516
விட	-517
த்தி	-518
ியா	-519
▁என்ப	-520
▁மோடி	-521
▁விட	-522
த்தல்	-523
▁அணி	-524
▁கண்ட	-525
▁பெற்ற	-526
▁விசார	-527
த்தின்	-528
ாகு	-529
ாமி	-530
ற்கொ	-531
▁அன்ப	-532
்கும்	-533
▁என்ற	-534
▁ஆத	-535
ரின்	-536
▁தகவ	-537
ரிக்க	-538
ப்பை	-539
த்தால்	-540
மும்	-541
▁அது	-542
▁திர	-543
▁கண்ண	-544
▁பாஜக	-545
▁பாலியல்	-546
..?	-547
▁இல	-548
▁உறு	-549
▁முய	-550
▁முன்ன	-551
▁ஷ	-552
▁விரும்ப	-553
கி	-554
தும்	-555
ுடன்	-556
▁கோடி	-557
▁பின்	-558
▁அறிவு	-559
▁திரும	-560
▁ 	-561
▁திற	-562
▁வாழ்	-563
▁மக்கள்	-564
தாக	-565
▁வள	-566
போது	-567
ட்டில்	-568
▁மருத்து	-569
▁உத	-570
ட்சி	-571
▁மறு	-572
டித்த	-573
▁கால	-574
▁பகை	-575
வில்லை	-576
லாம்	-577
▁அவர்	-578
த்துக்கு	-579
▁அழ	-580
ர்வு	-581
ஸ்ட்	-582
▁இன்ப	-583
▁நாளை	-584
ந்திர	-585
வர்க்கு	-586
▁இந்தியா	-587
வரின்	-588
▁இருந்து	-589
டியோ	-590
ியின்	-591
ையே	-592
▁அஞ்ச	-593
▁விவகாரம்	-594
நி	-595
ன்க	-596
ூர்	-597
▁ஸ்	-598
▁கட்ட	-599
ரிக்கை	-600
வாக	-601
ல்ப	-602
ாள்	-603
ப்பட	-604
▁நடிகர்	-605
மதி	-606
▁ஸ்டாலின்	-607
▁ஈ	-608
▁விப	-609
▁வாய்	-610
ஸ்க	-611
ற்றம்	-612
▁போராட்டம்	-613
ோடு	-614
▁அதிகார	-615
▁உச்ச	-616
தால்	-617
▁காண	-618
▁செல்ல	-619
▁உத்தரவு	-620
ளைஞ	-621
▁அரு	-622
▁குறி	-623
▁வரும்	-624
ாரி	-625
▁அண	-626
ட்டை	-627
றும்	-628
ப்படி	-629
▁வேறு	-630
▁விளக்கம்	-631
சாய	-632
மீ	-633
பதி	-634
▁விரு	-635
▁கம	-636
▁லட்ச	-637
ர்ப்பு	-638
▁மர	-639
▁பலி	-640
▁தகவல்	-641
ட்பு	-642
▁தம்	-643
ூட	-644
▁புய	-645
▁இளைஞ	-646
▁அறிவிப்பு	-647
பெ	-648
ரன்	-649
▁ஆய	-650
▁வெற்றி	-651
ணா	-652
▁குழந்தை	-653
▁உயிரிழப்பு	-654
▁முதலமைச்சர்	-655
ரள	-656
ங்கள	-657
மையை	-658
ள்வி	-659
▁பாது	-660
டுத்து	-661
▁நடிகை	-662
▁இட	-663
▁ஏன்	-664
ீடு	-665
ொரு	-666
ோம்	-667
▁அமை	-668
ங்கும்	-669
ிருந்து	-670
▁பாதுகா	-671
றைய	-672
▁நான்	-673
வற்ற	-674
ில்லை	-675
▁மகிழ	-676
▁கன	-677
▁கொ	-678
ெரிக்க	-679
▁செல்வ	-680
▁நெஞ்ச	-681
▁விவசாய	-682
▁(	-683
▁எதி	-684
▁பரி	-685
▁அல்ல	-686
▁கொள்	-687
▁விமான	-688
ங்கை	-689
ங்களை	-690
▁மற்ற	-691
▁தேர்தல்	-692
▁அமெரிக்க	-693
▁தய	-694
▁பண	-695
ப்பது	-696
டக	-697
ேய	-698
▁நிலை	-699
▁கேள்வி	-700
▁ஆய்	-701
▁நீதி	-702
▁பர	-703
▁சாத	-704
க்காக	-705
மையான	-706
▁போன்ற	-707
மார்	-708
▁மிக	-709
டும்ப	-710
▁போல்	-711
▁உற	-712
ாவின்	-713
▁பாதி	-714
ர்ச்சி	-715
ர்ந்து	-716
▁விஜய்	-717
▁வீடியோ	-718
▁கர்	-719
▁மருத்துவ	-720
லிய	-721
▁அக	-722
▁ஆர்	-723
▁மறை	-724
▁கமல்	-725
▁குறை	-726
▁கொண்டு	-727
ாவை	-728
▁பூ	-729
க்கொ	-730
▁அறிய	-731
▁கேரள	-732
ர்க்கு	-733
▁தற்கொ	-734
வீ	-735
னர்	-736
ராக	-737
▁அதிர	-738
▁உண்ட	-739
▁பள்ள	-740
▁பெரிய	-741
செ	-742
ிக்	-743
▁விசாரணை	-744
நில	-745
பர்	-746
முறை	-747
ந்தது	-748
▁நிறு	-749
த்துக்	-750
▁கொலை	-751
▁கிரிக்க	-752
ாய்	-753
ிற்	-754
▁மற	-755
வின்	-756
ாட்டு	-757
ாச	-758
னிய	-759
▁தர	-760
▁அடி	-761
▁ஆரா	-762
த்தம்	-763
ிக்கும்	-764
▁தாக்கு	-765
▁வாழ்க்க	-766
?:	-767
கோ	-768
வரி	-769
▁கல	-770
ளும்	-771
டைத்த	-772
ட்சிய	-773
▁சிக்க	-774
▁செய்து	-775
ாகி	-776
▁இது	-777
▁கூட	-778
▁ஒருவன்	-779
▁நூ	-780
▁பக	-781
▁ஏற்ப	-782
▁மக்க	-783
லுக்கு	-784
வடி	-785
▁வய	-786
▁நன்	-787
▁விஜய	-788
ரீ	-789
வான	-790
சாமி	-791
▁தொழ	-792
▁பதி	-793
▁குடி	-794
▁சந்த	-795
▁ரசிக	-796
▁சென்னை	-797
▁இற	-798
▁கடி	-799
டுக்க	-800
ப்படு	-801
▁காரண	-802
▁லட்சம்	-803
ர்ம	-804
்ச்ச	-805
▁பெண	-806
▁கோலி	-807
▁புது	-808
▁போலீஸ்	-809
சம்	-810
▁தான்	-811
▁முதல்வர்	-812
ரிம	-813
▁மல	-814
டிவி	-815
▁தற்கொலை	-816
ார்க	-817
▁மழை	-818
ங்களில்	-819
நர்	-820
குதி	-821
▁தங்க	-822
▁முயற	-823
▁அன்பு	-824
▁விட்டு	-825
வம்	-826
ிர்	-827
ினால்	-828
▁எச்ச	-829
▁காவல	-830
▁என்னை	-831
தான	-832
▁இனி	-833
▁ராஜ	-834
▁அனுமதி	-835
▁கொடுத்த	-836
ன்றி	-837
▁யார்	-838
▁சிறந்த	-839
ணு	-840
பே	-841
▁சென்ன	-842
▁தரும்	-843
லோ	-844
டல்	-845
யம்	-846
ண்மை	-847
ம்பு	-848
ிரம்	-849
▁வைர	-850
மாட்ட	-851
்ச்சி	-852
ிருந்த	-853
▁துன்பம்	-854
▁விபத்து	-855
▁மனு	-856
▁ஆற்ற	-857
▁தினக	-858
▁திமுக	-859
▁போட்ட	-860
தனை	-861
ாரு	-862
ன்னி	-863
பாய்	-864
ல்களை	-865
▁அதிக	-866
னுக்கு	-867
▁சென்ற	-868
▁முடிவு	-869
▁சிறப்பு	-870
▁ஊழ	-871
ந்த்	-872
பரிம	-873
▁உயர்நீதிமன்றம்	-874
பர	-875
▁இள	-876
வார்	-877
ில்ல	-878
▁உரு	-879
்தான்	-880
▁ஆண்ட	-881
ார்கள்	-882
▁புயல்	-883
▁குடும்ப	-884
ாரா	-885
ிகா	-886
▁சின	-887
▁மிர	-888
▁டெல்ல	-889
▁பேச்சு	-890
லலி	-891
ைப்	-892
▁கடை	-893
ினும்	-894
▁அதிமுக	-895
▁அதிரடி	-896
வள	-897
▁விழ	-898
டிக்க	-899
▁பேரு	-900
▁நடவடி	-901
▁பொருள்	-902
▁கிரிக்கெட்	-903
▁ஆணைய	-904
▁நிறை	-905
▁வாக்கு	-906
ப்ட	-907
ர்களை	-908
▁சந்தி	-909
▁ஃ	-910
▁நிலைய	-911
▁அறிந்து	-912
மூ	-913
”-	-914
கன்	-915
▁மது	-916
▁நடவடிக்கை	-917
வெ	-918
▁முக	-919
▁சம்ப	-920
▁நம்ப	-921
தாகும்	-922
▁இருக்கும்	-923
்து	-924
▁மனி	-925
▁விரை	-926
ய்ந்து	-927
▁கூட்ட	-928
ீச	-929
▁அழி	-930
கைய	-931
ட்டா	-932
ிரிய	-933
ற்றிய	-934
▁ரஜினி	-935
▁வீரர்	-936
▁செய்யும்	-937
▁முடியாது	-938
ள்க	-939
வராக	-940
வான்	-941
▁எழு	-942
ர்த்த	-943
▁வாய்ப்பு	-944
▁நீதிமன்றம்	-945
கும்	-946
▁ஆளு	-947
த்திர	-948
னுடைய	-949
▁ரயில்	-950
▁வைத்த	-951
▁எச்சரிக்கை	-952
▁பெற	-953
▁பேச	-954
▁மதி	-955
▁மீன	-956
▁இன்ன	-957
▁போது	-958
▁கண்டு	-959
வதே	-960
ாமை	-961
▁கள	-962
ல்வி	-963
▁தீய	-964
ர்களுக்கு	-965
▁அதிர்ச்சி	-966
▁உச்சநீதிமன்றம்	-967
▁அச	-968
ங்கே	-969
▁நாட	-970
▁மாத	-971
▁சசிக	-972
▁ராகு	-973
▁வெளி	-974
த்தும்	-975
வதற்கு	-976
▁பயன்ப	-977
▁மாட்ட	-978
▁கருத்து	-979
ந்	-980
ிற்க	-981
▁உரி	-982
▁வழி	-983
▁உறுதி	-984
▁கருணா	-985
▁காதல்	-986
▁ஜெயலலி	-987
▁திட்டம்	-988
▁நிய	-989
களில்	-990
பிஎஸ்	-991
ினார்	-992
▁கார்	-993
▁சாதனை	-994
▁சொற்க	-995
▁மாணவி	-996
▁தேர்வு	-997
சே	-998
▁தன	-999
▁இணை	-1000
▁செல்	-1001
▁துணை	-1002
▁பொறு	-1003
▁நட்பு	-1004
▁பெண்ண	-1005
▁வந்து	-1006
▁பிறந்த	-1007
▁என்னும்	-1008
▁முயற்சி	-1009
க்கப்பட்ட	-1010
▁சென்னையில்	-1011
ளே	-1012
ர்ப	-1013
ானி	-1014
▁அட	-1015
கிறது	-1016
ங்கிர	-1017
▁கல்ல	-1018
▁தெரிய	-1019
▁சர்ச்ச	-1020
▁பேட்டி	-1021
▁எல்லாம்	-1022
▁நீதிபதி	-1023
▁தரு	-1024
ிக்கை	-1025
ையின்	-1026
▁இயக்கு	-1027
▁மட்டும்	-1028
▁தாக்குதல்	-1029
▁ஹெ	-1030
▁கற்ற	-1031
▁பண்ப	-1032
▁சபரிம	-1033
▁மனைவி	-1034
▁விளையா	-1035
த்தையும்	-1036
ப்படுத்த	-1037
▁வேண்டிய	-1038
ிலிருந்து	-1039
சூ	-1040
ளாக	-1041
ெல்ல	-1042
ைக்கு	-1043
▁பொது	-1044
▁முறை	-1045
க்கில்	-1046
லையில்	-1047
விடும்	-1048
▁பெருமை	-1049
▁விரும்	-1050
▁தினகரன்	-1051
▁இல்லாமல்	-1052
▁மருத்துவம	-1053
▁பாதுகாப்பு	-1054
கிற	-1055
வாள	-1056
▁இழ	-1057
▁திட	-1058
▁நம்	-1059
ளுடன்	-1060
▁சட்ட	-1061
ுமா	-1062
▁அடை	-1063
▁ஒரே	-1064
▁தீப	-1065
▁சொல்	-1066
ன்றும்	-1067
▁வெள்ள	-1068
▁அடுத்த	-1069
▁தலைவர்	-1070
▁காங்கிர	-1071
▁குறித்து	-1072
டா	-1073
ளா	-1074
ய்ய	-1075
வதை	-1076
▁முழு	-1077
▁எண்ணி	-1078
▁குடிய	-1079
▁பற்றி	-1080
▁அரசியல்	-1081
நோ	-1082
ாலி	-1083
வியை	-1084
▁தான	-1085
▁பெய	-1086
▁மனித	-1087
▁முன்	-1088
▁விலை	-1089
ிருக்க	-1090
▁தாக்க	-1091
களுக்கு	-1092
யில	-1093
▁ஆச	-1094
▁மண	-1095
▁மி	-1096
னும்	-1097
லால்	-1098
வுட்	-1099
▁தோனி	-1100
▁நாள்	-1101
மையும்	-1102
▁கர்நா	-1103
▁ஆட்சிய	-1104
மர்	-1105
ேயே	-1106
ண்ட்	-1107
ப்பெ	-1108
ிடம்	-1109
▁புற	-1110
ரிடம்	-1111
▁சிலை	-1112
னையில்	-1113
▁இலங்கை	-1114
▁கடிதம்	-1115
ஹாச	-1116
ாட்	-1117
▁தவற	-1118
▁எந்த	-1119
▁தந்த	-1120
▁விழு	-1121
▁செயல்	-1122
▁சொன்ன	-1123
▁இளைஞர்	-1124
▁கொண்டா	-1125
▁துப்பா	-1126
▁முடியாத	-1127
னே	-1128
’:	-1129
ொடு	-1130
▁ரெ	-1131
ப்பத	-1132
ிகளை	-1133
▁நாய	-1134
▁பார்	-1135
▁திடீர்	-1136
▁ஆராய்ந்து	-1137
தலை	-1138
▁பறி	-1139
▁வரி	-1140
ர்க்க	-1141
▁ஒப்ப	-1142
▁தண்ட	-1143
▁நட்ப	-1144
விட்டு	-1145
ாகிஸ்த	-1146
▁டிடிவி	-1147
▁பேருந்து	-1148
ம்பி	-1149
▁அதை	-1150
▁நோய	-1151
ங்குக	-1152
ளித்த	-1153
ியும்	-1154
▁பழனி	-1155
▁உயிர்	-1156
▁எப்படி	-1157
▁பார்க்க	-1158
▁எதிர்ப்பு	-1159
▁யான	-1160
ப்போது	-1161
▁கொல்ல	-1162
▁தொழில	-1163
▁ரூபாய்	-1164
▁பாகிஸ்த	-1165
லே	-1166
படி	-1167
த்தா	-1168
ானது	-1169
▁காம	-1170
▁வறு	-1171
ப்பதி	-1172
▁சங்க	-1173
▁மின்	-1174
ப்பில்	-1175
ாப்	-1176
னில்	-1177
ளால்	-1178
ாதம்	-1179
▁வல்ல	-1180
▁தன்னை	-1181
▁ரத்து	-1182
வோ	-1183
▁ரோ	-1184
ச்சை	-1185
ுடைய	-1186
▁ஆகிய	-1187
▁செயல	-1188
▁தள்ள	-1189
▁ஆகும்	-1190
▁வென்ற	-1191
▁அமைச்ச	-1192
▁இன்பம்	-1193
▁ரசிகர்கள்	-1194
சா	-1195
மழை	-1196
ற்பு	-1197
▁உடல்	-1198
▁கண்க	-1199
▁நீர்	-1200
▁கேட்ட	-1201
▁விட்ட	-1202
▁வீரர்கள்	-1203
வர்களுக்கு	-1204
ாமா	-1205
▁கீ	-1206
க்கோ	-1207
▁நாண	-1208
▁பயண	-1209
க்கூட	-1210
ட்டல்	-1211
▁நெரு	-1212
▁திட்ட	-1213
▁உயர்வு	-1214
▁ஒருவர்	-1215
▁போட்டி	-1216
▁பாதிப்பு	-1217
ிறு	-1218
▁மய	-1219
▁நடு	-1220
▁விஷ	-1221
▁கால்	-1222
▁நிதி	-1223
▁விதி	-1224
▁வேலை	-1225
▁நோட்டு	-1226
வனை	-1227
ீரோ	-1228
▁சம	-1229
▁ஒழு	-1230
▁தாம	-1231
▁துற	-1232
வர்களை	-1233
▁கடும்	-1234
▁காரணம்	-1235
▁திருமண	-1236
ிகளுக்கு	-1237
▁என்றால்	-1238
▁திரும்ப	-1239
▁காங்கிரஸ்	-1240
ங்கா	-1241
▁பேர	-1242
▁அவன்	-1243
▁நண்ப	-1244
▁பயன்	-1245
த்தான்	-1246
▁மரணம்	-1247
வருக்கு	-1248
▁ஆண்டுக	-1249
▁எதிராக	-1250
▁விவசாயிகள்	-1251
▁நிர	-1252
▁வரை	-1253
▁காட்ட	-1254
ப்பட்டு	-1255
வனுக்கு	-1256
வார்கள்	-1257
ிருக்கும்	-1258
ஆர்	-1259
பிஐ	-1260
ம்ம	-1261
ிலா	-1262
எல்ஏ	-1263
ச்சி	-1264
▁அழை	-1265
▁தாய்	-1266
டியில்	-1267
தியில்	-1268
த்தார்	-1269
▁ஆய்வு	-1270
▁கேட்க	-1271
▁பிறர்	-1272
▁முன்ப	-1273
▁டெஸ்ட்	-1274
▁பொருளை	-1275
▁எம்எல்ஏ	-1276
▁மறுப்பு	-1277
ரெ	-1278
வரே	-1279
▁ஜி	-1280
ப்பிய	-1281
▁அவரை	-1282
▁ஊழிய	-1283
▁சான்ற	-1284
ாளர்கள்	-1285
▁பார்த்த	-1286
▁துன்பத்தை	-1287
▁இக	-1288
ண்பு	-1289
னின்	-1290
பாடு	-1291
▁நேர	-1292
▁பணி	-1293
▁வலி	-1294
கின்ற	-1295
ண்டிய	-1296
▁புகழ	-1297
▁கட்டு	-1298
த்திலும்	-1299
▁கண்டனம்	-1300
▁செல்வம்	-1301
என்	-1302
நிதி	-1303
ன்ஸ்	-1304
வால்	-1305
ிட்ட	-1306
▁பழி	-1307
▁மணி	-1308
ருடன்	-1309
ல்கள்	-1310
ஹாசன்	-1311
▁படுக	-1312
டிப்பு	-1313
▁ஒப்பு	-1314
▁நன்மை	-1315
ெல்லாம்	-1316
▁சசிகலா	-1317
நீதிமன்ற	-1318
▁குற்றச்ச	-1319
▁திருமணம்	-1320
ஷா	-1321
ஸி	-1322
க்கா	-1323
ட்ரோ	-1324
▁அனை	-1325
▁தனி	-1326
▁நிக	-1327
க்கான	-1328
வற்றை	-1329
▁குவி	-1330
▁விலக	-1331
▁காவல்	-1332
▁தமிழ்	-1333
▁புகழ்	-1334
றுத்தல்	-1335
▁அரசின்	-1336
▁காதலர்	-1337
▁துப்பாக்கி	-1338
விர	-1339
▁உடை	-1340
மையாக	-1341
ையால்	-1342
▁தெரி	-1343
▁வயது	-1344
▁கூடிய	-1345
▁பிறகு	-1346
▁மட்டு	-1347
▁மாநில	-1348
▁ஓபிஎஸ்	-1349
▁பழனிசாமி	-1350
மோ	-1351
▁நு	-1352
க்கூ	-1353
க்கே	-1354
தில்	-1355
▁சில	-1356
▁போன	-1357
▁மாவ	-1358
ந்திய	-1359
▁இங்க	-1360
▁மனம்	-1361
▁விற்	-1362
ளையும்	-1363
▁ட்ரம்	-1364
டத்தில்	-1365
▁என்பது	-1366
▁கூடாது	-1367
▁நிறுவன	-1368
▁ஜெயலலிதா	-1369
▁தமிழகத்தில்	-1370
ணன்	-1371
லர்	-1372
ிசை	-1373
▁ஆன	-1374
▁ஆப	-1375
நாள்	-1376
மான்	-1377
வளவு	-1378
▁எது	-1379
▁கஜா	-1380
ப்பர்	-1381
்க்கு	-1382
▁மகன்	-1383
▁மேல்	-1384
▁ராணு	-1385
▁வன்க	-1386
க்குள்	-1387
▁ஆளுநர்	-1388
▁எனக்கு	-1389
▁சென்று	-1390
▁தொடரும்	-1391
▁வாழ்க்கை	-1392
டுப	-1393
▁சர	-1394
ாவது	-1395
▁ஐபி	-1396
▁டிர	-1397
▁வார	-1398
▁விமர்	-1399
ங்கியது	-1400
▁மாவட்ட	-1401
▁கோரிக்கை	-1402
▁மீனவர்கள்	-1403
பம்	-1404
வதால்	-1405
▁உண்ண	-1406
▁கூறு	-1407
▁பிரப	-1408
▁வைரல	-1409
்கின்ற	-1410
▁உடம்ப	-1411
▁சிபிஐ	-1412
்க்கும்	-1413
▁விராத்	-1414
▁பெண்கள்	-1415
▁முன்னாள்	-1416
▁வாழ்த்து	-1417
போல்	-1418
வாதி	-1419
ினர்	-1420
▁ஆசை	-1421
ானால்	-1422
ிருஷ்	-1423
▁ஏற்ற	-1424
▁ஒன்ற	-1425
▁பாக்	-1426
▁விளை	-1427
க்கெட்	-1428
த்தைக்	-1429
▁கனமழை	-1430
▁செயலை	-1431
▁தயாரி	-1432
▁சர்ச்சை	-1433
▁ட்ரம்ப்	-1434
▁தமிழிசை	-1435
▁விரைவில்	-1436
▁குற்றச்சாட்டு	-1437
ூரி	-1438
▁ஜெ	-1439
▁மை	-1440
ம்மா	-1441
▁சர்	-1442
ற்காக	-1443
▁தீமை	-1444
▁பெறு	-1445
▁ஹீரோ	-1446
▁ஐபிஎல்	-1447
▁காவிரி	-1448
▁வைத்து	-1449
▁பிறர்க்கு	-1450
▁‌	-1451
ராஜ	-1452
்தி	-1453
▁பச	-1454
நிலை	-1455
▁தொ	-1456
ளிடம்	-1457
ஸ்கர்	-1458
▁பட்ட	-1459
▁ஆதரவு	-1460
▁விடும்	-1461
▁அதிகாரி	-1462
▁கர்நாடக	-1463
▁சேர்ந்த	-1464
▁போராட்ட	-1465
ங்களுக்கு	-1466
மெ	-1467
ராத	-1468
ஞ்சி	-1469
டியை	-1470
▁எவ்	-1471
▁காய	-1472
▁பயன	-1473
▁மோச	-1474
த்தது	-1475
வதும்	-1476
▁சிங்	-1477
▁தக்க	-1478
▁வங்க	-1479
த்துறை	-1480
மானால்	-1481
வையில்	-1482
ுகின்ற	-1483
▁பள்ளி	-1484
▁ஆயிரம்	-1485
ஸ்டாலின்	-1486
▁சபரிமலை	-1487
▁சந்திக்க	-1488
சர்	-1489
ரசு	-1490
▁இன	-1491
யின்	-1492
வரும்	-1493
▁அச்ச	-1494
▁தெளி	-1495
▁மிகு	-1496
▁விழா	-1497
ந்தும்	-1498
▁மும்ப	-1499
▁செயல்ப	-1500
ிட	-1501
ுத	-1502
ொ	-1503
ியோ	-1504
ந்தா	-1505
▁படை	-1506
▁உரிய	-1507
▁கிடை	-1508
▁சேவை	-1509
▁பணம்	-1510
ந்தார்	-1511
மக்கள்	-1512
ப்பதிவு	-1513
▁கேட்டு	-1514
▁மனைவிய	-1515
▁வீட்டில்	-1516
▁மாணவர்கள்	-1517
தன	-1518
ஷன்	-1519
▁ஆலோ	-1520
▁இறு	-1521
▁இல்	-1522
▁எஸ்	-1523
▁சிக	-1524
▁பாட	-1525
வில்ல	-1526
ூரில்	-1527
▁உணவு	-1528
▁பதவி	-1529
▁நாட்க	-1530
▁பெண்க	-1531
▁இங்கிலா	-1532
''	-1533
தோ	-1534
யி	-1535
கிழ	-1536
▁தள	-1537
▁மட	-1538
திரு	-1539
லைட்	-1540
ையாக	-1541
▁கூற	-1542
▁நான	-1543
ளிக்க	-1544
▁உதவி	-1545
▁மாலை	-1546
டித்து	-1547
▁சோதனை	-1548
ர்களின்	-1549
▁வாழும்	-1550
▁வெளியே	-1551
▁இருப்பது	-1552
▁தீர்ப்பு	-1553
▁பார்த்து	-1554
▁முடியும்	-1555
?”	-1556
சனை	-1557
நாய	-1558
ீன்	-1559
▁ஜோ	-1560
ங்கோ	-1561
ப்பே	-1562
ழுது	-1563
▁கண்	-1564
▁தனு	-1565
▁யார	-1566
க்காத	-1567
ழ்த்த	-1568
வனுடைய	-1569
▁ஆனால்	-1570
▁உலகம்	-1571
▁தகுதி	-1572
▁பொரு	-1573
▁உயர்ந்த	-1574
▁மட்டுமே	-1575
▁செயல்களை	-1576
▁கமல்ஹாசன்	-1577
▁நல	-1578
▁ரே	-1579
டையே	-1580
லின்	-1581
வோம்	-1582
ாயம்	-1583
▁இவ்	-1584
▁மைய	-1585
மானது	-1586
▁குழு	-1587
▁பரபர	-1588
▁வலிய	-1589
ிருப்ப	-1590
▁காத்த	-1591
▁கொன்ற	-1592
கத்தில்	-1593
▁காப்பா	-1594
▁தனக்கு	-1595
▁மேலும்	-1596
வர்களின்	-1597
▁சொற்களை	-1598
▁தாக்கல்	-1599
▁நீக்கம்	-1600
▁வெளியீடு	-1601
ெர்	-1602
▁பற	-1603
▁ரி	-1604
....	-1605
▁அணை	-1606
▁இன்	-1607
்துறை	-1608
▁தீர்	-1609
▁பதில	-1610
▁போர்	-1611
கிறார்	-1612
ப்படுக	-1613
▁இயல்ப	-1614
▁உரிமை	-1615
▁தலைமை	-1616
த்துடன்	-1617
▁பெட்ரோ	-1618
▁ராகுல்	-1619
▁விராட்	-1620
க்கூடாது	-1621
▁சிக்கிய	-1622
கொ	-1623
▁யா	-1624
▁யோ	-1625
ராஜா	-1626
▁அவ்	-1627
▁இழி	-1628
▁சிவ	-1629
▁வில	-1630
▁வேற	-1631
தற்கு	-1632
▁நியம	-1633
▁டெல்லி	-1634
டுக்கும்	-1635
▁நீதிமன்ற	-1636
▁பிரிந்து	-1637
▁இருந்தால்	-1638
தன்	-1639
பார	-1640
வரு	-1641
▁மொ	-1642
டியாக	-1643
ன்கள்	-1644
வுடன்	-1645
▁தவறு	-1646
▁தவிர	-1647
த்தைப்	-1648
மில்லை	-1649
ழ்ந்து	-1650
▁பிரச்	-1651
▁வங்கி	-1652
▁ஆசிரிய	-1653
▁கண்கள்	-1654
விட்டால்	-1655
▁மிரட்டல்	-1656
▁விரும்பி	-1657
▁இருந்தாலும்	-1658
ம்க	-1659
▁கத	-1660
▁நய	-1661
▁யு	-1662
விடு	-1663
முதல்	-1664
▁ஸ்ரீ	-1665
▁கேப்ட	-1666
▁தீபாவ	-1667
▁பயங்க	-1668
▁மோதல்	-1669
▁வழங்க	-1670
ல்லிக்க	-1671
▁அதற்கு	-1672
▁ஆணையம்	-1673
▁சுற்று	-1674
▁தோல்வி	-1675
▁வன்கொடு	-1676
▁விருந்த	-1677
▁போட்டியில்	-1678
ஞ்	-1679
லைய	-1680
வாத	-1681
மித்	-1682
வனாக	-1683
▁அரி	-1684
▁அவர	-1685
▁எரி	-1686
மக்கு	-1687
▁தாம்	-1688
▁பயிற	-1689
▁உண்டு	-1690
▁தொடர்	-1691
▁பண்பு	-1692
▁பதில்	-1693
▁பிரபல	-1694
▁காட்டு	-1695
▁சுட்டு	-1696
▁மீட்பு	-1697
மாட்டார்	-1698
▁காரணமாக	-1699
▁குற்றம்	-1700
▁முக்கிய	-1701
▁அரசுக்கு	-1702
▁சந்திப்பு	-1703
▁வைரலாகும்	-1704
ஷி	-1705
னைய	-1706
ாளு	-1707
▁டீ	-1708
சனம்	-1709
▁மான	-1710
▁ராவ	-1711
முறைய	-1712
▁அறம்	-1713
▁சிறை	-1714
▁நிர்	-1715
▁பொன்	-1716
▁யானை	-1717
ந்தால்	-1718
ர்கார்	-1719
▁கால்ப	-1720
▁நடத்த	-1721
▁பரிதா	-1722
▁ராணுவ	-1723
த்திற்க	-1724
ப்பாளர்	-1725
ெர்லைட்	-1726
▁நிறைவே	-1727
▁விருது	-1728
வேண்டும்	-1729
▁ஜல்லிக்க	-1730
▁வேண்டாம்	-1731
▁வன்கொடுமை	-1732
▁மருத்துவமனையில்	-1733
நெ	-1734
தார	-1735
▁அஜி	-1736
▁இடை	-1737
▁கலை	-1738
ிறேன்	-1739
ிலேயே	-1740
▁அதனை	-1741
▁இனிய	-1742
▁தன்ன	-1743
▁வீடு	-1744
த்துப்	-1745
ற்றும்	-1746
▁அதிகரி	-1747
▁மேற்கொ	-1748
ட்டுக்கு	-1749
▁திறப்பு	-1750
▁மாற்றம்	-1751
▁பாராட்டு	-1752
▁கருணாநிதி	-1753
▁பயன்படுத்த	-1754
▁இங்கிலாந்து	-1755
பன்	-1756
மணி	-1757
ாலா	-1758
ிகை	-1759
ேஷ்	-1760
▁பீ	-1761
தியை	-1762
ாகக்	-1763
விக்க	-1764
ாதவர்	-1765
▁இடம்	-1766
▁காஷ்	-1767
▁தண்ண	-1768
▁தேதி	-1769
▁போய்	-1770
ப்படிய	-1771
▁ஆட்சி	-1772
▁ஒன்று	-1773
▁காக்க	-1774
▁துணைய	-1775
▁விற்ப	-1776
க்கூடிய	-1777
ட்சிகள்	-1778
ாளுமன்ற	-1779
▁மனைவியை	-1780
▁பெட்ரோல்	-1781
▁அமெரிக்கா	-1782
வின	-1783
ானா	-1784
ினி	-1785
ாக்ட	-1786
▁ஆதர	-1787
▁குண	-1788
▁நடை	-1789
▁இணைய	-1790
▁திரை	-1791
த்தக்க	-1792
▁இறந்த	-1793
▁இழந்த	-1794
▁எல்லா	-1795
▁நிவார	-1796
▁பொருள	-1797
▁போலீச	-1798
▁மகிழ்	-1799
டிக்கும்	-1800
▁உடையவர்	-1801
▁குடியரசு	-1802
▁விடுமுறை	-1803
▁டெல்லியில்	-1804
சன்	-1805
ோள்	-1806
▁மழ	-1807
க்கெ	-1808
நாடு	-1809
போர்	-1810
வனின்	-1811
▁அனுப	-1812
▁ஈடுப	-1813
▁ராஜ்	-1814
▁உண்மை	-1815
▁தந்தை	-1816
▁வெல்ல	-1817
▁அறிந்த	-1818
▁ஆற்றல்	-1819
▁ஆலோசனை	-1820
▁எடுக்க	-1821
▁எடுத்த	-1822
▁காந்தி	-1823
▁வேண்டு	-1824
▁விடுதலை	-1825
▁வழக்கில்	-1826
▁மகிழ்ச்சி	-1827
▁அதிகாரிகள்	-1828
▁காட்டிலும்	-1829
▁ஸ்டெர்லைட்	-1830
▁விவகாரத்தில்	-1831
டூ	-1832
டர்	-1833
ரின	-1834
ொல்	-1835
▁அய	-1836
▁அல	-1837
▁இவ	-1838
கித்	-1839
ண்டி	-1840
நகர்	-1841
▁ஆஸி	-1842
▁இசை	-1843
▁டீச	-1844
▁ராம	-1845
▁வாக	-1846
▁வான	-1847
செல்வ	-1848
ந்தர்	-1849
▁பேசு	-1850
▁ஹெச்	-1851
ுங்கள்	-1852
▁தம்மை	-1853
▁கல்லூரி	-1854
▁கார்த்த	-1855
வர்க்கும்	-1856
த்ய	-1857
▁நாக	-1858
▁பட்	-1859
▁சின்	-1860
▁செலு	-1861
▁நிகழ	-1862
ன்னீர்	-1863
மாகும்	-1864
▁அன்று	-1865
▁கும்ப	-1866
▁சிங்க	-1867
▁நாட்ட	-1868
▁நீங்க	-1869
▁மீதான	-1870
▁வறுமை	-1871
ார்க்கு	-1872
▁சிறுமி	-1873
▁பெரும்	-1874
க்குமார்	-1875
ர்க்கும்	-1876
▁தமிழகம்	-1877
▁தாக்கிய	-1878
▁உயிரிழந்த	-1879
▁கால்பந்து	-1880
பை	-1881
எம்	-1882
பிர	-1883
வரா	-1884
சிசி	-1885
த்தே	-1886
மாறு	-1887
ய்வு	-1888
வேன்	-1889
ியன்	-1890
▁கடு	-1891
▁கவி	-1892
க்கால	-1893
ப்பிர	-1894
▁உட்ப	-1895
▁புகை	-1896
▁மன்ன	-1897
▁வரவே	-1898
▁வெறு	-1899
வரிடம்	-1900
ில்லாத	-1901
▁கிராம	-1902
▁தேசிய	-1903
▁நிற்க	-1904
▁நெகிழ	-1905
▁சந்திர	-1906
▁நல்லது	-1907
▁பயங்கர	-1908
▁முன்னே	-1909
விக்கும்	-1910
▁எடுத்து	-1911
▁போன்றது	-1912
▁ரஜினிகா	-1913
▁வேண்டுக	-1914
ன்னீர்செல்வ	-1915
▁ஒருவனுக்கு	-1916
▁பாகிஸ்தான்	-1917
ஞர்	-1918
வலை	-1919
▁கர	-1920
▁ப்	-1921
ாகுப	-1922
▁கல்	-1923
▁சீன	-1924
▁பிழ	-1925
மானம்	-1926
▁படம்	-1927
▁ராவ்	-1928
ர்த்து	-1929
▁இறுதி	-1930
▁கடைசி	-1931
▁கொள்க	-1932
▁சொல்க	-1933
▁தமக்கு	-1934
▁கூட்டம்	-1935
▁அறிவுடைய	-1936
▁நிற்கும்	-1937
▁எதிர்த்து	-1938
▁வேண்டுகோள்	-1939
கள	-1940
சல்	-1941
ருவ	-1942
ாரை	-1943
ச்சே	-1944
நாத்	-1945
பவர்	-1946
▁மாற	-1947
▁வன்	-1948
▁வாய	-1949
டுதல்	-1950
ந்தம்	-1951
▁அவனை	-1952
▁கேடு	-1953
▁சதம்	-1954
▁தேவை	-1955
▁நாம்	-1956
▁பழைய	-1957
ிகளில்	-1958
▁அருகே	-1959
▁காலம்	-1960
▁பங்கே	-1961
▁பதிவு	-1962
▁மன்னி	-1963
▁மாற்ற	-1964
▁வலியு	-1965
▁அதனால்	-1966
▁என்பதை	-1967
▁சிறப்ப	-1968
▁முறைகே	-1969
▁அறிக்கை	-1970
▁நினைத்த	-1971
▁தூத்துக்கு	-1972
▁ஜெயக்குமார்	-1973
சர	-1974
சோ	-1975
மொ	-1976
ஃப்	-1977
ாலு	-1978
▁மத	-1979
▁ஷா	-1980
ள்ளை	-1981
▁முட	-1982
▁வடக	-1983
தியாக	-1984
▁எத்த	-1985
▁சிகி	-1986
▁ட்ரெ	-1987
▁நீட்	-1988
▁வைகோ	-1989
▁ஒத்தி	-1990
▁கொடிய	-1991
▁நடக்க	-1992
பாஸ்கர்	-1993
▁எவ்வளவு	-1994
▁தீபாவளி	-1995
▁நினைக்க	-1996
▁இளைஞர்கள்	-1997
▁காவல்துறை	-1998
▁நோட்டுகள்	-1999
வைய	-2000
ுள்	-2001
பின்	-2002
முரு	-2003
வதாக	-2004
வியே	-2005
்களை	-2006
▁அழு	-2007
▁உரை	-2008
▁எளி	-2009
▁ஒளி	-2010
▁கதை	-2011
▁கோல	-2012
▁சரி	-2013
▁ஜாம	-2014
▁மேக	-2015
க்கார	-2016
ங்கல்	-2017
▁அவள்	-2018
▁தம்ப	-2019
▁விவே	-2020
ட்டீஸ்	-2021
▁அவற்ற	-2022
▁அவுட்	-2023
▁சிறிய	-2024
▁மோசடி	-2025
▁அதிபர்	-2026
▁ரோகித்	-2027
▁நம்பிக்கை	-2028
▁இருக்கிறது	-2029
▁நாடாளுமன்ற	-2030
தள	-2031
நக	-2032
ழுக	-2033
▁ஆஜ	-2034
▁உழ	-2035
காஷ்	-2036
தைப்	-2037
ஸ்பு	-2038
ாரம்	-2039
ுள்ள	-2040
▁அபர	-2041
▁இறை	-2042
▁ஒது	-2043
▁குஜ	-2044
▁தழு	-2045
▁பாத	-2046
▁புல	-2047
க்களை	-2048
ஞ்சம்	-2049
ட்டர்	-2050
ாதிரு	-2051
ொருள்	-2052
▁அடைய	-2053
▁சார்	-2054
▁நோய்	-2055
ந்தில்	-2056
ப்பான்	-2057
மானார்	-2058
▁அரசிய	-2059
▁கருதி	-2060
▁செய்க	-2061
▁நன்றி	-2062
▁நேரம்	-2063
▁நடிக்க	-2064
▁பெற்று	-2065
▁போக்கு	-2066
ளுக்கும்	-2067
ிருஷ்ணன்	-2068
▁ட்விட்ட	-2069
▁பிரிந்த	-2070
▁செல்லும்	-2071
▁சொல்லும்	-2072
▁நிலையில்	-2073
▁காலமானார்	-2074
▁ரஜினிகாந்த்	-2075
கோத	-2076
ன்த	-2077
போல	-2078
லுவ	-2079
▁வச	-2080
▁ஹா	-2081
▁இஸ்	-2082
▁ஒலி	-2083
வித்த	-2084
ானிலை	-2085
ிக்கொ	-2086
ின்றி	-2087
▁அலுவ	-2088
▁சகோத	-2089
▁பட்ஜ	-2090
ஜினாமா	-2091
ாகுபலி	-2092
▁இயற்க	-2093
▁எனும்	-2094
▁கணவர்	-2095
▁தீவிர	-2096
▁நிதிய	-2097
▁நீக்க	-2098
▁பிரிய	-2099
▁எதிரான	-2100
▁கோயில்	-2101
▁படைத்த	-2102
▁பரிதாப	-2103
▁வானிலை	-2104
▁இன்னும்	-2105
▁இப்போது	-2106
▁ஒத்திவை	-2107
▁சிறுவன்	-2108
▁நிர்வாக	-2109
▁பிடித்த	-2110
▁பிரச்னை	-2111
▁முறைகேடு	-2112
▁ராஜினாமா	-2113
▁தொடங்கியது	-2114
▁கொண்டாட்டம்	-2115
▁மருத்துவமனை	-2116
▁உச்சநீதிமன்ற	-2117
▁வலியுறுத்தல்	-2118
ரவை	-2119
ாடி	-2120
ாளி	-2121
▁நன	-2122
▁நொ	-2123
தம்ப	-2124
ரங்க	-2125
ஸில்	-2126
▁உண்	-2127
▁கவு	-2128
▁குள	-2129
▁கோப	-2130
▁மேல	-2131
▁வசூ	-2132
னிடம்	-2133
ம்பர்	-2134
வரைப்	-2135
▁அதன்	-2136
▁அரண்	-2137
▁அற்ற	-2138
▁இண்ட	-2139
▁சிறி	-2140
▁மகள்	-2141
ப்பால்	-2142
றையில்	-2143
▁ஆதார்	-2144
▁திருந	-2145
▁நின்ற	-2146
▁மிக்க	-2147
▁மையம்	-2148
▁வேதனை	-2149
ால்தான்	-2150
▁இடைத்த	-2151
▁ஒழுக்க	-2152
▁காதலரை	-2153
▁போகும்	-2154
▁முயன்ற	-2155
▁வருமான	-2156
▁அமைப்பு	-2157
▁நியமனம்	-2158
▁வீழ்த்த	-2159
▁பரபரப்பு	-2160
▁எண்ணிக்கை	-2161
▁முதலமைச்ச	-2162
▁தயாரிப்பாளர்	-2163
டல	-2164
டே	-2165
கஜா	-2166
ஷ்க	-2167
▁ஜன	-2168
னையை	-2169
மற்ற	-2170
ம்பெ	-2171
ரம்ப	-2172
ராஜ்	-2173
ரியா	-2174
ியாக	-2175
▁அறு	-2176
▁ஓர்	-2177
▁நகை	-2178
களின்	-2179
ர்தல்	-2180
ின்று	-2181
▁அம்ப	-2182
▁அளவு	-2183
▁ஆட்ட	-2184
▁கோவி	-2185
▁பிரச	-2186
▁போலி	-2187
▁ரயில	-2188
ப்போம்	-2189
வியும்	-2190
▁சிறும	-2191
▁பட்டா	-2192
▁பயணம்	-2193
▁பரிசு	-2194
▁வெற்ற	-2195
▁அளித்த	-2196
▁நிவாரண	-2197
▁நேரில்	-2198
▁அடித்து	-2199
▁கேப்டன்	-2200
▁படத்தில்	-2201
▁மன்னிப்பு	-2202
▁ஜல்லிக்கட்டு	-2203
ர்ஜ	-2204
வதா	-2205
ாமல	-2206
்சே	-2207
▁''	-2208
▁த்	-2209
▁பை	-2210
ச்சூ	-2211
தமிழ	-2212
நீர்	-2213
ளிர்	-2214
வாறு	-2215
▁அவை	-2216
▁கைய	-2217
▁சொ	-2218
▁ஸ்க	-2219
▁சாதி	-2220
▁சினி	-2221
▁செவி	-2222
▁தானே	-2223
▁தொட	-2224
▁தேர்	-2225
▁பேதை	-2226
▁பேரா	-2227
க்குப்	-2228
க்குமா	-2229
ரியில்	-2230
▁கட்சி	-2231
▁சந்தே	-2232
▁முறைய	-2233
▁வேட்ப	-2234
▁இரண்டு	-2235
▁உலகின்	-2236
▁மும்பை	-2237
▁கடத்தல்	-2238
▁டிக்கெட்	-2239
▁நோட்டீஸ்	-2240
▁பறிமுதல்	-2241
▁இயக்குநர்	-2242
▁பாகிஸ்தான	-2243
▁கொடுக்கும்	-2244
▁விஜயபாஸ்கர்	-2245
றல்	-2246
வில	-2247
▁கய	-2248
க்ஸ்	-2249
ட்ஸ்	-2250
ண்டை	-2251
த்தொ	-2252
நோய்	-2253
ாதார	-2254
▁ஆன்	-2255
▁ஏர்	-2256
▁கழி	-2257
▁குழ	-2258
ருடைய	-2259
▁அரிய	-2260
▁ஆக்க	-2261
▁ஊக்க	-2262
▁கூறி	-2263
▁தனிய	-2264
▁தயார	-2265
▁நாடு	-2266
த்துள்	-2267
▁ஏற்று	-2268
▁தனுஷ்	-2269
▁நிர்ம	-2270
▁பெயர்	-2271
▁வெட்க	-2272
ிற்கும்	-2273
▁காட்டி	-2274
▁விஷால்	-2275
▁இடைத்தே	-2276
▁கூட்டணி	-2277
▁விழுந்த	-2278
▁கொள்ளும்	-2279
▁வருகிறது	-2280
▁நாட்களில்	-2281
▁ஒத்திவைப்பு	-2282
மண	-2283
வாழ	-2284
ாதா	-2285
ிரே	-2286
்த்	-2287
▁நக	-2288
▁ரக	-2289
ச்செ	-2290
டையை	-2291
ண்டா	-2292
ன்னா	-2293
போன்	-2294
ல்கா	-2295
▁கிள	-2296
▁பொ	-2297
ப்பம்	-2298
▁இயல்	-2299
▁கன்ன	-2300
▁கருத	-2301
▁யான்	-2302
தியின்	-2303
ப்பாடு	-2304
றிந்து	-2305
▁அஞ்சி	-2306
▁தன்மை	-2307
▁நம்மை	-2308
▁மாறிய	-2309
ாவிற்கு	-2310
ாவுக்கு	-2311
▁அப்படி	-2312
▁கெடும்	-2313
▁நெஞ்சே	-2314
▁பதவியே	-2315
▁மாற்று	-2316
▁என்னைப்	-2317
▁கட்டணம்	-2318
▁கண்டுபி	-2319
▁கொடுக்க	-2320
▁போட்டிய	-2321
▁இல்லாதவர்	-2322
▁என்றாலும்	-2323
▁முடியாமல்	-2324
▁ரஜினியின்	-2325
▁பொதுமக்கள்	-2326
ன்னீர்செல்வம்	-2327
? 	-2328
க்ட	-2329
பஸ்	-2330
மூக	-2331
ிலோ	-2332
▁ “	-2333
▁உள	-2334
▁ஊட	-2335
▁சக	-2336
▁சத	-2337
வரம்	-2338
வாய்	-2339
▁ஆறு	-2340
▁ஏமா	-2341
▁டிச	-2342
▁மலை	-2343
ம்கூட	-2344
ராஜன்	-2345
ராதாக	-2346
▁கொடூ	-2347
▁சிசி	-2348
▁சுரு	-2349
▁பலர்	-2350
▁பெரி	-2351
▁போலீ	-2352
▁மேன்	-2353
▁வாகன	-2354
த்தைத்	-2355
ப்படம்	-2356
மையில்	-2357
ஸ்தான்	-2358
▁உதவிய	-2359
▁காண்ப	-2360
▁செல்க	-2361
▁படும்	-2362
▁முத்த	-2363
▁மோகன்	-2364
சர்கார்	-2365
▁அலுவலக	-2366
▁குண்டு	-2367
▁தண்டனை	-2368
▁பெறும்	-2369
▁மாணவர்	-2370
ப்போதும்	-2371
▁எப்போது	-2372
▁சம்பவம்	-2373
▁பட்டாசு	-2374
▁ஏற்படும்	-2375
▁திருட்டு	-2376
▁நடக்கும்	-2377
▁விரும்பு	-2378
▁எனப்படும்	-2379
▁திருநங்கை	-2380
▁நேரத்தில்	-2381
▁விமர்சனம்	-2382
▁குழந்தைகள்	-2383
▁மக்களுக்கு	-2384
▁எம்எல்ஏக்கள்	-2385
▁தூத்துக்குடி	-2386
தரா	-2387
மது	-2388
ராம	-2389
ாதீ	-2390
ுடு	-2391
▁டா	-2392
டியா	-2393
த்தீ	-2394
ியம்	-2395
ுகள்	-2396
▁சோன	-2397
▁ரவி	-2398
▁ரஷ்	-2399
டைந்த	-2400
ல்கலை	-2401
ாட்சி	-2402
▁ஒற்ற	-2403
▁கடவு	-2404
▁கள்ள	-2405
▁கீழ்	-2406
▁துணி	-2407
▁தூய்	-2408
▁தேடி	-2409
▁நெடு	-2410
▁புரி	-2411
ணியில்	-2412
த்துச்	-2413
வரத்து	-2414
▁எதிர்	-2415
▁ஓட்டு	-2416
▁கடத்த	-2417
▁கண்ணோ	-2418
▁நயன்த	-2419
▁புத்த	-2420
▁வாங்க	-2421
▁வைக்க	-2422
▁எல்லார	-2423
▁சொல்லி	-2424
▁நமக்கு	-2425
▁அபராதம்	-2426
▁நிர்மலா	-2427
▁பயணிகள்	-2428
▁விற்பனை	-2429
த்திற்காக	-2430
▁இருக்கிற	-2431
▁செய்தால்	-2432
▁புதுச்சே	-2433
▁உண்டாகும்	-2434
▁செய்யாமல்	-2435
▁விளையாட்டு	-2436
ஆம்	-2437
ண்க	-2438
மன்	-2439
ீப்	-2440
▁கழ	-2441
▁டூ	-2442
வேறு	-2443
ாகவே	-2444
ாகிய	-2445
ியான	-2446
▁அக்	-2447
▁அப்	-2448
▁அழக	-2449
▁அஸ்	-2450
▁கலா	-2451
▁செல	-2452
▁ரன்	-2453
▁விய	-2454
ங்கர்	-2455
துபதி	-2456
▁அர்ஜ	-2457
▁ஆஸ்த	-2458
▁சிரி	-2459
▁தவறி	-2460
▁பசலை	-2461
▁பிடி	-2462
▁மல்ல	-2463
▁வளைய	-2464
ப்பீடு	-2465
▁அப்போ	-2466
▁பகுதி	-2467
▁வாபஸ்	-2468
ளுக்காக	-2469
▁இயல்பு	-2470
▁கட்டாய	-2471
▁காவலர்	-2472
▁கொள்ளை	-2473
▁தொடர்ப	-2474
▁பல்கலை	-2475
▁பிரிவு	-2476
▁வேண்டா	-2477
▁தண்ணீர்	-2478
▁நேர்ந்த	-2479
▁ஆட்சியர்	-2480
▁எதிர்க்க	-2481
▁இயக்குனர்	-2482
▁விசாரிக்க	-2483
▁விருந்தின	-2484
▁குடியரசுத்	-2485
▁சபரிமலையில்	-2486
▁அமெரிக்காவில்	-2487
▁வழக்குப்பதிவு	-2488
.,	-2489
ாஅ	-2490
‌‌	-2491
▁”	-2492
ழ்க	-2493
ோனே	-2494
▁ஆவ	-2495
▁சை	-2496
▁ஹே	-2497
ட்ச்	-2498
தாது	-2499
பாபு	-2500
மீது	-2501
ரால்	-2502
ாமிய	-2503
▁சூழ	-2504
▁போக	-2505
ச்செய	-2506
வனாய்	-2507
்த்தை	-2508
▁ஆட்ச	-2509
▁இளம்	-2510
▁உற்ச	-2511
▁ஊடல்	-2512
▁கட்ச	-2513
▁கெடு	-2514
▁பிழை	-2515
▁வரலா	-2516
▁வினை	-2517
ள்ளும்	-2518
ாகிறது	-2519
ிகளின்	-2520
▁அமித்	-2521
▁அவர்க	-2522
▁ஆண்டு	-2523
▁இரண்ட	-2524
▁தள்ளு	-2525
▁பந்து	-2526
▁பேசிய	-2527
▁மூலம்	-2528
▁வழக்க	-2529
▁வீட்ட	-2530
வதில்லை	-2531
விட்டது	-2532
▁அஞ்சலி	-2533
▁ஆந்திர	-2534
▁இரட்டை	-2535
▁எதிர்ப	-2536
▁காஷ்மீ	-2537
▁சான்றோ	-2538
▁செயல்க	-2539
▁சொல்லு	-2540
▁தூக்கி	-2541
▁படப்பி	-2542
ப்புக்கு	-2543
▁பாகுபலி	-2544
▁உணர்ந்து	-2545
▁குவியும்	-2546
▁வருத்தம்	-2547
▁வாக்குமூ	-2548
▁தேர்தலில்	-2549
▁பேச்சுவார	-2550
▁வெளியானது	-2551
▁இருக்கின்ற	-2552
த்திலிருந்து	-2553
ராதாகிருஷ்ணன்	-2554
யர்	-2555
ஷ்ட	-2556
ெழு	-2557
▁அஃ	-2558
ஞ்சு	-2559
மேல்	-2560
ம்போ	-2561
ுகிற	-2562
▁ஆண்	-2563
▁சிர	-2564
▁தடு	-2565
▁மரண	-2566
▁மாய	-2567
க்கல்	-2568
டப்பா	-2569
ப்பான	-2570
முடைய	-2571
வதற்க	-2572
ெட்ரோ	-2573
ென்று	-2574
▁அப்ப	-2575
▁ஆசிய	-2576
▁ஆராய	-2577
▁ஏற்க	-2578
▁கவலை	-2579
▁சச்ச	-2580
▁பொய்	-2581
▁விக்	-2582
▁வீரா	-2583
க்கொலை	-2584
டையில்	-2585
ன்னும்	-2586
ப்பிணி	-2587
ர்த்தி	-2588
ாமலும்	-2589
▁இயக்க	-2590
▁கட்டி	-2591
▁சம்பள	-2592
▁சோம்ப	-2593
▁பாடல்	-2594
▁புகார	-2595
▁ரகசிய	-2596
▁அடித்த	-2597
▁உரிமைய	-2598
▁உள்ளது	-2599
▁ஒலிம்ப	-2600
▁சிக்கி	-2601
▁சொத்து	-2602
▁நின்று	-2603
▁பகைவர்	-2604
▁மறந்து	-2605
▁காட்டம்	-2606
▁ஜெயலலித	-2607
▁பயிற்சி	-2608
▁முதலில்	-2609
▁அவனுக்கு	-2610
▁ஒப்புதல்	-2611
▁தெரியுமா	-2612
▁மாட்டார்	-2613
▁ஊழியர்கள்	-2614
▁காஷ்மீரில்	-2615
யு	-2616
்ப	-2617
தேச	-2618
னல்	-2619
ிறி	-2620
▁வட	-2621
ாதது	-2622
▁ஃபே	-2623
▁அனி	-2624
▁சவு	-2625
▁பாவ	-2626
▁பூஜ	-2627
▁வகு	-2628
ண்டன்	-2629
ண்டர்	-2630
ப்படை	-2631
வதில்	-2632
▁ஆப்க	-2633
▁துறை	-2634
▁தொகு	-2635
▁பக்த	-2636
▁மீறி	-2637
▁யோகி	-2638
க்குழு	-2639
டையாது	-2640
த்தோடு	-2641
▁அஜித்	-2642
▁கல்வி	-2643
▁காயம்	-2644
▁சினம்	-2645
▁சோகம்	-2646
▁பின்ன	-2647
▁விண்ண	-2648
▁அளிக்க	-2649
▁இழந்து	-2650
▁கொடுமை	-2651
▁கோப்பை	-2652
▁பிச்சை	-2653
▁மூன்று	-2654
▁ஆஸ்திரே	-2655
▁கூறுவர்	-2656
▁செய்வது	-2657
▁நிறைந்த	-2658
▁பட்ஜெட்	-2659
▁மிகுந்த	-2660
▁விமானம்	-2661
▁வீராங்க	-2662
▁ஆட்சியாள	-2663
▁ஒழுக்கம்	-2664
▁தள்ளுபடி	-2665
▁படுகாயம்	-2666
▁மகிழ்ச்ச	-2667
▁எப்போதும்	-2668
▁கர்ப்பிணி	-2669
▁குழந்தையை	-2670
▁தொடர்ந்து	-2671
▁மேல்முறைய	-2672
▁செயல்களைச்	-2673
▁விரும்பும்	-2674
▁வாக்குமூலம்	-2675
▁துப்பாக்கிச்சூ	-2676
வழ	-2677
னாக	-2678
▁ஹை	-2679
தாய்	-2680
பாஸ்	-2681
ராத்	-2682
ர்ஸ்	-2683
றாமை	-2684
வாள்	-2685
வோர்	-2686
ுதவி	-2687
▁ஊர்	-2688
▁பனி	-2689
▁வலை	-2690
தியான	-2691
ான்ஸ்	-2692
▁ஒத்த	-2693
▁கான்	-2694
▁கிலோ	-2695
▁நன்ற	-2696
▁வார்	-2697
நாயகர்	-2698
▁ஓய்வு	-2699
▁சொந்த	-2700
▁தள்ளி	-2701
▁பெய்ய	-2702
▁வலிமை	-2703
டப்பாடி	-2704
ாலையில்	-2705
ிருக்கு	-2706
▁அளவில்	-2707
▁இளம்பெ	-2708
▁உற்சாக	-2709
▁செங்கோ	-2710
▁தடுக்க	-2711
▁பேசும்	-2712
▁மெட்ரோ	-2713
▁வெஸ்ட்	-2714
ல்காந்தி	-2715
▁அணிக்கு	-2716
▁அறிவுரை	-2717
▁கும்பல்	-2718
▁திருப்ப	-2719
▁மருந்து	-2720
▁விடாமல்	-2721
▁களத்தில்	-2722
▁காட்டும்	-2723
▁கொடுத்து	-2724
▁சிகிச்சை	-2725
▁சிசிடிவி	-2726
▁சிறையில்	-2727
▁கனமழைக்கு	-2728
▁அதிகரிப்பு	-2729
▁செய்யப்பட்ட	-2730
▁பிரதமருக்கு	-2731
▁ஆண்டுகளுக்கு	-2732
வச	-2733
ரர்	-2734
வனே	-2735
ாதே	-2736
ொலி	-2737
ொழு	-2738
▁ஆண	-2739
▁இண	-2740
▁லு	-2741
எஸ்ட	-2742
பாத்	-2743
ப்பூ	-2744
ரைப்	-2745
ற்றா	-2746
வாழ்	-2747
ையன்	-2748
▁ஆதி	-2749
▁ஆப்	-2750
▁இம்	-2751
▁கிட	-2752
▁குர	-2753
▁மித	-2754
▁ரில	-2755
▁வலு	-2756
சர்வ்	-2757
சிசிஐ	-2758
சித்த	-2759
ணர்வு	-2760
▁உற்ற	-2761
▁என்க	-2762
▁சூடு	-2763
▁பஞ்ச	-2764
▁மோதி	-2765
ட்டால்	-2766
ப்பின்	-2767
விற்கு	-2768
▁அதுவே	-2769
▁அவலம்	-2770
▁இடையே	-2771
▁கற்று	-2772
▁சுற்ற	-2773
▁தயார்	-2774
▁நட்பை	-2775
▁வாழ்ப	-2776
▁வைரல்	-2777
க்காமல்	-2778
ந்துள்ள	-2779
▁ஜாமீன்	-2780
▁திறக்க	-2781
▁நீட்டி	-2782
▁பதிலடி	-2783
▁போட்டு	-2784
▁முன்பு	-2785
மையாகும்	-2786
▁அழைப்பு	-2787
▁பிசிசிஐ	-2788
▁வருந்து	-2789
▁அதிர்ச்ச	-2790
▁ஆண்டுகள்	-2791
▁இடத்தில்	-2792
▁கிடையாது	-2793
▁தொடக்கம்	-2794
▁வைக்கும்	-2795
▁காட்சிகள்	-2796
▁தலைவர்கள்	-2797
▁வாழ்கின்ற	-2798
▁இடைத்தேர்தல்	-2799
▁சந்திக்கிறார்	-2800
▁நீதிமன்றத்தில்	-2801
▁ற	-2802
ானே	-2803
ேட்	-2804
க்கர	-2805
நான்	-2806
நிறு	-2807
மொழி	-2808
லாக்	-2809
்சிய	-2810
▁கனி	-2811
▁தாய	-2812
▁மாள	-2813
▁மூட	-2814
▁ஹெல	-2815
ற்கால	-2816
ள்ளிர	-2817
வாளர்	-2818
▁உண்ப	-2819
▁ஓபன்	-2820
▁கடல்	-2821
▁சமூக	-2822
▁டிரை	-2823
▁தலைய	-2824
▁பேசி	-2825
▁மன்ற	-2826
▁லாரி	-2827
▁வழிய	-2828
க்கிக்	-2829
தையில்	-2830
த்தைச்	-2831
மையின்	-2832
ிக்காக	-2833
▁அருள்	-2834
▁தப்பி	-2835
▁பேச்ச	-2836
▁மீட்க	-2837
ப்பிக்க	-2838
முருகன்	-2839
மையானது	-2840
வாதிகள்	-2841
▁காதலன்	-2842
▁குமார்	-2843
▁தம்பதி	-2844
▁நள்ளிர	-2845
▁நாயுடு	-2846
▁போதும்	-2847
▁அனைத்து	-2848
▁அவர்கள்	-2849
▁குஜராத்	-2850
▁கூடுதல்	-2851
▁சிக்கல்	-2852
▁நடத்திய	-2853
▁நூல்களை	-2854
▁பொருந்த	-2855
▁வாங்கிய	-2856
▁உள்ளிட்ட	-2857
▁எடப்பாடி	-2858
▁மக்களின்	-2859
▁வெற்றியை	-2860
ப்படுத்திய	-2861
▁இருந்தும்	-2862
▁கேரளாவில்	-2863
▁போக்குவரத்து	-2864
▁மேல்முறையீடு	-2865
ஹா	-2866
ஹி	-2867
ும	-2868
பாய	-2869
வள்	-2870
ஷிய	-2871
ாவள	-2872
▁ஐய	-2873
▁டே	-2874
▁ரீ	-2875
▁வண	-2876
▁ஹி	-2877
டியூ	-2878
னாமி	-2879
மையே	-2880
ம்ஸ்	-2881
றிவு	-2882
லைக்	-2883
லைப்	-2884
வேல்	-2885
ஸ்வா	-2886
ாகரி	-2887
ாலின	-2888
▁ஆம்	-2889
▁பிள	-2890
▁மசோ	-2891
▁முர	-2892
▁யாத	-2893
களால்	-2894
களைச்	-2895
ட்கள்	-2896
ண்டது	-2897
ம்மன்	-2898
▁அவதி	-2899
▁ஊதிய	-2900
▁கிறி	-2901
▁கோரி	-2902
▁சாலை	-2903
▁டாப்	-2904
▁டிவி	-2905
▁த்ரி	-2906
▁நொறு	-2907
▁பருவ	-2908
▁மண்ண	-2909
▁விழி	-2910
▁வெடி	-2911
டியின்	-2912
டுக்கி	-2913
ட்டுப்	-2914
திலும்	-2915
தையும்	-2916
ப்போர்	-2917
விலும்	-2918
ஸ்புக்	-2919
ியுடன்	-2920
▁உயிரை	-2921
▁காரிய	-2922
▁குறைய	-2923
▁கேட்ப	-2924
▁சீதார	-2925
▁போற்ற	-2926
▁முதன்	-2927
டுகிறது	-2928
தம்பரம்	-2929
ெட்டில்	-2930
▁இயற்கை	-2931
▁உடையது	-2932
▁கடந்து	-2933
▁கர்நாட	-2934
▁சுனாமி	-2935
▁செய்தி	-2936
▁ஜிஎஸ்ட	-2937
▁துன்பு	-2938
▁தொல்லை	-2939
▁நாளில்	-2940
▁பெண்ணை	-2941
▁மகளிர்	-2942
▁மறுத்த	-2943
▁வருத்த	-2944
▁வெளிநா	-2945
▁கண்ணீர்	-2946
▁சூப்பர்	-2947
▁செயலைச்	-2948
▁செய்தது	-2949
▁துணையாக	-2950
▁தொடங்கி	-2951
▁நடந்தது	-2952
▁நெஞ்சம்	-2953
▁நெருக்க	-2954
▁புயலால்	-2955
▁மற்றும்	-2956
▁மின்சார	-2957
▁வழியில்	-2958
▁வென்றது	-2959
▁ஆசிரியர்	-2960
▁மனத்தில்	-2961
▁விரைந்து	-2962
▁முழுவதும்	-2963
▁வீராங்கனை	-2964
▁வெளியிட்ட	-2965
▁துப்பாக்கிச்	-2966
▁ராகுல்காந்தி	-2967
▁மாவட்டங்களில்	-2968
▁வாக்குப்பதிவு	-2969
சீ	-2970
தூ	-2971
னோ	-2972
பட	-2973
▁`	-2974
உம்	-2975
விழ	-2976
ிலி	-2977
▁உல	-2978
▁கப	-2979
ருதி	-2980
ளைக்	-2981
வுலக	-2982
ொல்ல	-2983
▁ஏடி	-2984
▁பசு	-2985
▁பஸ்	-2986
ணிக்க	-2987
பேட்ட	-2988
முடிய	-2989
ரியாத	-2990
ார்க்	-2991
ிருத்	-2992
▁அத்த	-2993
▁அழிய	-2994
▁காங்	-2995
▁சூதா	-2996
▁நலம்	-2997
▁நுழை	-2998
▁நேர்	-2999
▁பாலி	-3000
▁வஞ்ச	-3001
▁வருட	-3002
ணிப்பு	-3003
தற்காக	-3004
நகரில்	-3005
ப்பும்	-3006
வியில்	-3007
▁அம்மா	-3008
▁உண்டா	-3009
▁உத்தர	-3010
▁கடற்ப	-3011
▁கணவன்	-3012
▁கைப்ப	-3013
▁கோபம்	-3014
▁கோயில	-3015
▁சர்மா	-3016
▁டாக்ட	-3017
▁டீசல்	-3018
▁புகழை	-3019
▁முதிய	-3020
▁வசூல்	-3021
▁வில்ல	-3022
வாழ்க்க	-3023
ினாலும்	-3024
▁உலகில்	-3025
▁எத்தனை	-3026
▁காற்று	-3027
▁தங்கம்	-3028
▁தொகுதி	-3029
▁நோக்கி	-3030
▁பத்திர	-3031
▁முற்று	-3032
ட்டியில்	-3033
ப்படுவது	-3034
ர்களுடன்	-3035
▁உணர்ந்த	-3036
▁சச்சின்	-3037
▁பிரகாஷ்	-3038
▁பொருள்க	-3039
▁வன்முறை	-3040
▁விஜய்சே	-3041
▁உருக்கம்	-3042
▁கர்நாடகா	-3043
▁நயன்தாரா	-3044
▁போலீசார்	-3045
▁மிரட்டிய	-3046
▁ஒலிம்பிக்	-3047
▁கண்ணோட்டம்	-3048
▁நீதிபதிகள்	-3049
▁பேருந்துகள்	-3050
▁உயர்நீதிமன்ற	-3051
தொ	-3052
ளோ	-3053
கிய	-3054
ஞ்ஞ	-3055
ப்ர	-3056
ய்வ	-3057
ுமி	-3058
லங்க	-3059
வரிட	-3060
வாரா	-3061
வினை	-3062
▁ஆவண	-3063
▁இகழ	-3064
▁இழு	-3065
▁கொள	-3066
▁படி	-3067
காசம்	-3068
நிலைய	-3069
பெற்ற	-3070
முகம்	-3071
றுத்த	-3072
ளுடைய	-3073
வராஜ்	-3074
▁அபார	-3075
▁இத்த	-3076
▁ஏலம்	-3077
▁கற்க	-3078
▁டாஸ்	-3079
▁படைய	-3080
▁பவர்	-3081
▁பாஸ்	-3082
▁பும்	-3083
▁பூஜை	-3084
▁பேரை	-3085
ப்பவர்	-3086
ப்பூர்	-3087
மையைப்	-3088
ையுடன்	-3089
▁அத்து	-3090
▁ஆஜராக	-3091
▁ஆட்டோ	-3092
▁இந்து	-3093
▁சாம்ப	-3094
▁தினகர	-3095
▁தினம்	-3096
▁பொய்ய	-3097
▁மசோதா	-3098
ங்களும்	-3099
தராபாத்	-3100
▁அதிகம்	-3101
▁அரசுப்	-3102
▁அறியாத	-3103
▁இல்லைய	-3104
▁உள்ளம்	-3105
▁காணும்	-3106
▁சட்டம்	-3107
▁சிம்பு	-3108
▁டென்னி	-3109
▁தொழில்	-3110
▁த்ரிஷா	-3111
▁பெங்கள	-3112
▁முல்லை	-3113
▁விஜயகா	-3114
▁ஹாக்கி	-3115
ப்பதற்கு	-3116
▁அணியில்	-3117
▁அமையும்	-3118
▁கருணாஸ்	-3119
▁காரணமான	-3120
▁குவிந்த	-3121
▁ஜப்பான்	-3122
▁ரிசர்வ்	-3123
▁அல்லாமல்	-3124
▁ஆய்வாளர்	-3125
▁குற்றவாள	-3126
▁திருமாவள	-3127
▁திரைப்பட	-3128
▁காலத்தில்	-3129
▁தீர்மானம்	-3130
▁நிதியுதவி	-3131
▁விபத்தில்	-3132
▁விரும்பிய	-3133
ிருந்தாலும்	-3134
▁நெகிழ்ச்சி	-3135
▁அறிவுறுத்தல்	-3136
▁வீரர்களுக்கு	-3137
ஃபா	-3138
சாக	-3139
னது	-3140
ரிட	-3141
லாக	-3142
ிரா	-3143
ெல்	-3144
ைத்	-3145
ையு	-3146
்ச்	-3147
▁தட	-3148
பட்ட	-3149
ராகு	-3150
லையை	-3151
▁உயர	-3152
▁குல	-3153
▁சடல	-3154
▁சாவ	-3155
▁சுக	-3156
களைப்	-3157
டநாடு	-3158
ப்பல்	-3159
மாகக்	-3160
வினர்	-3161
ின்றன	-3162
ையைக்	-3163
ொன்று	-3164
▁அவசர	-3165
▁ஆயுத	-3166
▁ஆளுந	-3167
▁இன்ற	-3168
▁சரிய	-3169
▁சென்	-3170
▁நபர்	-3171
▁பயனை	-3172
▁புகு	-3173
▁மர்ம	-3174
▁மார்	-3175
▁முஸ்	-3176
▁மூதா	-3177
▁வாஜ்	-3178
சையில்	-3179
த்துத்	-3180
வாகும்	-3181
ிகாப்ட	-3182
▁ஆன்லை	-3183
▁இல்லா	-3184
▁எங்கே	-3185
▁ஐந்து	-3186
▁கட்டண	-3187
▁குடிம	-3188
▁சுட்ட	-3189
▁தவறான	-3190
▁தவான்	-3191
▁நிற்ப	-3192
▁மதுரை	-3193
▁மெரின	-3194
▁மெல்ல	-3195
▁மேலான	-3196
▁மைதான	-3197
வில்லாத	-3198
▁அழிக்க	-3199
▁உயிர்க	-3200
▁சங்கம்	-3201
▁தீபிகா	-3202
▁நடந்து	-3203
▁மதிக்க	-3204
▁வயதில்	-3205
ாதீர்கள்	-3206
ிருப்பது	-3207
▁அசத்தல்	-3208
▁அவகாசம்	-3209
▁அவருடைய	-3210
▁உறுப்பு	-3211
▁காய்ச்ச	-3212
▁கொள்ளைய	-3213
▁சீதாராம	-3214
▁திட்டமி	-3215
▁டிசம்பர்	-3216
▁படத்தின்	-3217
▁மோடிக்கு	-3218
▁வளர்ச்சி	-3219
▁வேலைநிறு	-3220
▁நிறுத்தம்	-3221
▁ஹெலிகாப்ட	-3222
▁பெண்ணுக்கு	-3223
▁விஜயகாந்த்	-3224
▁மாட்டார்கள்	-3225
▁தமிழகத்திற்கு	-3226
▁பாதிக்கப்பட்ட	-3227
நே	-3228
பக	-3229
யூ	-3230
ழக	-3231
புர	-3232
லாத	-3233
ென்	-3234
ேல்	-3235
▁லா	-3236
▁லீ	-3237
▁லை	-3238
திரா	-3239
மல்ல	-3240
முன்	-3241
ய்னா	-3242
லார்	-3243
ளைப்	-3244
ள்ளி	-3245
ஸ்கே	-3246
ஸ்பெ	-3247
ிகேய	-3248
▁இவை	-3249
▁ஏழை	-3250
▁கழு	-3251
▁கும	-3252
▁தீவ	-3253
▁தேவ	-3254
▁ப்ள	-3255
▁முத	-3256
▁வகை	-3257
▁வடி	-3258
ங்கம்	-3259
சிக்க	-3260
ழ்ந்த	-3261
வராய்	-3262
வரால்	-3263
விடம்	-3264
ஸ்டர்	-3265
▁அண்ண	-3266
▁அழகு	-3267
▁ஆவர்	-3268
▁எங்க	-3269
▁ஓட்ட	-3270
▁ஜோடி	-3271
▁திரி	-3272
▁தும்	-3273
▁தொலை	-3274
▁நியூ	-3275
▁நிரூ	-3276
▁பைக்	-3277
▁மாறு	-3278
▁யாரு	-3279
▁ரஷ்ய	-3280
▁லுக்	-3281
▁ஹாலி	-3282
இந்திய	-3283
க்கால்	-3284
சென்னை	-3285
தந்திர	-3286
மின்றி	-3287
ற்றால்	-3288
ேந்திர	-3289
▁இரக்க	-3290
▁கண்டி	-3291
▁கருணை	-3292
▁காமம்	-3293
▁நோக்க	-3294
▁போலவே	-3295
▁மறந்த	-3296
▁வாழ்க	-3297
▁விடிய	-3298
கார்த்த	-3299
மையுடைய	-3300
▁அனுஷ்க	-3301
▁அவரைக்	-3302
▁உறுதிய	-3303
▁எண்ணிய	-3304
▁ஒதுக்க	-3305
▁காரணமா	-3306
▁கொன்று	-3307
▁சொல்ல	-3308
▁சொல்லை	-3309
▁சோனியா	-3310
▁தப்பிய	-3311
▁துறந்த	-3312
▁நீங்கி	-3313
▁பயனற்ற	-3314
▁பார்வை	-3315
▁பெற்றோ	-3316
▁போற்றி	-3317
▁மறைந்த	-3318
▁முன்பே	-3319
▁விவேக்	-3320
▁இப்படிய	-3321
▁காட்டிய	-3322
▁கொள்ளாத	-3323
▁ஜிஎஸ்டி	-3324
▁தீவிரம்	-3325
▁தொழிலதி	-3326
▁பெரும்ப	-3327
▁வந்தால்	-3328
▁வெள்ளம்	-3329
▁அனுப்பிய	-3330
▁அளவுக்கு	-3331
▁இழப்பீடு	-3332
▁கோடிக்கு	-3333
▁சான்றோர்	-3334
▁சேர்த்து	-3335
▁டென்னிஸ்	-3336
▁மாணவிகள்	-3337
▁விக்கெட்	-3338
▁விட்டால்	-3339
▁ஹாலிவுட்	-3340
த்திற்குள்	-3341
ப்படுகிறது	-3342
▁ஏற்படுத்த	-3343
▁குடும்பம்	-3344
▁கொண்டாடிய	-3345
▁மனைவியின்	-3346
▁முத்தலாக்	-3347
▁ராஜஸ்தான்	-3348
▁கிடைக்கும்	-3349
▁இந்தியாவின்	-3350
▁கண்டுபிடிப்பு	-3351
▁விரும்புகின்ற	-3352
▁வேலைநிறுத்தம்	-3353
கூ	-3354
ஜன்	-3355
தர்	-3356
மம்	-3357
வகை	-3358
வாய	-3359
ிடு	-3360
ிறை	-3361
ெய்	-3362
▁``	-3363
குள்	-3364
ணும்	-3365
தைக்	-3366
மீர்	-3367
யும்	-3368
வதேச	-3369
வந்த	-3370
வல்ல	-3371
வைத்	-3372
ாவிர	-3373
ையான	-3374
▁ஆவே	-3375
▁சாக	-3376
▁சீர	-3377
▁தரி	-3378
▁தில	-3379
▁பதற	-3380
▁பிண	-3381
▁மம்	-3382
▁மாச	-3383
▁மார	-3384
சபரிம	-3385
டுகிற	-3386
த்தின	-3387
ய்ந்த	-3388
ள்கள்	-3389
வதைக்	-3390
ியால்	-3391
ிரைக்	-3392
ையைப்	-3393
▁எளிய	-3394
▁சூர்	-3395
▁ட்வீ	-3396
▁நட்ச	-3397
▁நற்ப	-3398
▁பணிய	-3399
▁பல்ல	-3400
▁மாறி	-3401
▁யாம்	-3402
▁வகைய	-3403
▁வடகொ	-3404
ப்படாத	-3405
மணியன்	-3406
மையால்	-3407
வியின்	-3408
ஸ்திரி	-3409
▁அப்பா	-3410
▁அரசன்	-3411
▁எண்ணு	-3412
▁ஏதும்	-3413
▁தவறாக	-3414
▁தும்ம	-3415
▁நிறம்	-3416
▁பலத்த	-3417
▁மக்கள	-3418
▁மயக்க	-3419
▁மூழ்க	-3420
▁வருகை	-3421
▁வாக்க	-3422
▁ஆட்டம்	-3423
▁இருவர்	-3424
▁கடலில்	-3425
▁ட்ரம்ப	-3426
▁தொடங்க	-3427
▁நாட்டு	-3428
▁பும்ரா	-3429
▁வந்தது	-3430
▁அழிந்து	-3431
▁அவனுடைய	-3432
▁இண்டீஸ்	-3433
▁எதிரொலி	-3434
▁கிறிஸ்த	-3435
▁சாதனையை	-3436
▁செய்யாத	-3437
▁தமிழில்	-3438
▁தொடர்பு	-3439
▁நாட்கள்	-3440
▁மல்லையா	-3441
▁முடிக்க	-3442
▁ரயில்வே	-3443
ப்படுத்து	-3444
ப்பிரிக்க	-3445
▁அவருக்கு	-3446
▁உண்ணாவிர	-3447
▁எதிர்பார	-3448
▁சட்டப்பே	-3449
▁சுதந்திர	-3450
▁சேர்ந்து	-3451
▁தொடங்கிய	-3452
▁நினைத்து	-3453
▁முடியுமா	-3454
▁முறையில்	-3455
▁விழாவில்	-3456
▁ஒப்பந்தம்	-3457
▁தமிழர்கள்	-3458
▁நிகழ்ச்சி	-3459
▁பங்கேற்பு	-3460
▁வருகிறார்	-3461
கார்த்திகேய	-3462
▁இல்வாழ்க்க	-3463
▁நீட்டிப்பு	-3464
▁பொறுத்துக்	-3465
▁மெரினாவில்	-3466
▁கேரளாவுக்கு	-3467
▁திருமாவளவன்	-3468
▁விமானத்தில்	-3469
▁வெளியாகிறது	-3470
▁வெள்ளத்தில்	-3471
▁ஜெயலலிதாவின்	-3472
தீ	-3473
ஹ்	-3474
கூட	-3475
தழ்	-3476
ூன்	-3477
்கொ	-3478
▁உர	-3479
▁லி	-3480
க்கீ	-3481
டைமை	-3482
ட்மி	-3483
பில்	-3484
ராது	-3485
லாமா	-3486
லூர்	-3487
ாலம்	-3488
ியது	-3489
▁இலை	-3490
▁ஐஸ்	-3491
▁சமா	-3492
▁தகு	-3493
▁பின	-3494
▁ரவு	-3495
▁வது	-3496
களைக்	-3497
சேகர்	-3498
புரம்	-3499
ரப்பா	-3500
ராமல்	-3501
றியது	-3502
ாரின்	-3503
ாவற்ற	-3504
ியைப்	-3505
▁அட்ட	-3506
▁அணிய	-3507
▁அமைய	-3508
▁அரசை	-3509
▁இலவச	-3510
▁உதவு	-3511
▁உறவு	-3512
▁ஊழல்	-3513
▁கனவு	-3514
▁குதி	-3515
▁சீனா	-3516
▁டிஜி	-3517
▁தர்ம	-3518
▁மணல்	-3519
▁ரன்ன	-3520
ங்கில்	-3521
ட்டிங்	-3522
முத்து	-3523
ரும்பு	-3524
றியில்	-3525
ற்றார்	-3526
வையும்	-3527
▁அரிது	-3528
▁அறியா	-3529
▁அவரது	-3530
▁கல்யா	-3531
▁நடந்த	-3532
▁நன்கு	-3533
▁நாணம்	-3534
▁நாளாக	-3535
▁முகம்	-3536
▁வெட்ட	-3537
மாற்றம்	-3538
▁இப்படி	-3539
▁ஊக்கம்	-3540
▁காத்து	-3541
▁கையெழு	-3542
▁சினிமா	-3543
▁சீமான்	-3544
▁நடத்து	-3545
▁நிறைவு	-3546
▁பட்டிய	-3547
▁புத்தா	-3548
▁மனிதர்	-3549
▁மறைக்க	-3550
▁ரன்கள்	-3551
▁வாட்ஸ்	-3552
ப்பட்டது	-3553
▁அசத்திய	-3554
▁அறிவற்ற	-3555
▁இதுதான்	-3556
▁கொண்டு	-3557
▁கொடுப்ப	-3558
▁செலுத்த	-3559
▁தங்கமணி	-3560
▁தலைமுறை	-3561
▁திருடன்	-3562
▁திருவார	-3563
▁நிறுத்த	-3564
▁என்னுடைய	-3565
▁குவிப்பு	-3566
▁சந்தித்த	-3567
▁தகவல்கள்	-3568
ண்டியராஜன்	-3569
▁காப்பாற்ற	-3570
▁சீதாராமன்	-3571
▁செங்கோட்ட	-3572
▁தவிக்கும்	-3573
▁மாணவிக்கு	-3574
▁விரும்பாத	-3575
▁பதவியேற்பு	-3576
▁புகைப்படம்	-3577
▁அமைச்சர்கள்	-3578
▁பெண்களுக்கு	-3579
▁சுட்டுக்கொலை	-3580
▁படப்பிடிப்பு	-3581
▁இந்தியாவுக்கு	-3582
▁சிவகார்த்திகேய	-3583
நூ	-3584
▁ஞ	-3585
கதா	-3586
செய	-3587
டாத	-3588
துப	-3589
பல்	-3590
மிற	-3591
ரான	-3592
ழல்	-3593
ழுத	-3594
வதி	-3595
வல்	-3596
வழி	-3597
ைச்	-3598
▁ஃப	-3599
▁இத	-3600
▁டை	-3601
ச்சா	-3602
த்தன	-3603
பந்த	-3604
பால்	-3605
புரி	-3606
விட்	-3607
ாமலே	-3608
ீர்க	-3609
▁அம்	-3610
▁அயோ	-3611
▁அலை	-3612
▁உள்	-3613
▁கவன	-3614
▁சல்	-3615
▁ஜடே	-3616
▁தோன	-3617
▁பண்	-3618
▁பல்	-3619
▁மகள	-3620
▁மன்	-3621
▁வீச	-3622
.....	-3623
களும்	-3624
க்டர்	-3625
த்தலை	-3626
ந்தன்	-3627
னுடன்	-3628
ப்பன்	-3629
மைக்க	-3630
ம்புல	-3631
ய்த்த	-3632
வரைத்	-3633
ையிறு	-3634
▁இளவர	-3635
▁இளைய	-3636
▁உடலை	-3637
▁எனக்	-3638
▁காலை	-3639
▁குரு	-3640
▁கூடி	-3641
▁நாணு	-3642
▁பண்ட	-3643
▁மலர்	-3644
▁மாசு	-3645
▁முனை	-3646
▁விரி	-3647
குமார்	-3648
க்கட்ட	-3649
சிந்து	-3650
திராஜா	-3651
ப்பேன்	-3652
ரியாதை	-3653
ற்றில்	-3654
▁கண்கா	-3655
▁கோப்ப	-3656
▁சண்டை	-3657
▁சஸ்பெ	-3658
▁தோற்ற	-3659
▁நடுவு	-3660
▁நிச்ச	-3661
▁நிலம்	-3662
▁நீண்ட	-3663
▁பற்று	-3664
▁பேரணி	-3665
க்கிறது	-3666
ருங்கள்	-3667
ற்காலிக	-3668
வற்றைச்	-3669
ஸ்வாசம்	-3670
்குமார்	-3671
▁அடைந்த	-3672
▁அந்தப்	-3673
▁இலக்கு	-3674
▁இழிவான	-3675
▁உறுப்ப	-3676
▁எழுதிய	-3677
▁கலந்து	-3678
▁காட்சி	-3679
▁டெங்கு	-3680
▁தானும்	-3681
▁நிபந்த	-3682
▁பண்புக	-3683
▁பற்றிய	-3684
▁புத்தக	-3685
▁புறக்க	-3686
▁போற்று	-3687
▁ரிலீஸ்	-3688
வாளர்கள்	-3689
▁அப்போலோ	-3690
▁அரையிறு	-3691
▁அஸ்வின்	-3692
▁இருக்கு	-3693
▁உலகக்கோ	-3694
▁எதுவும்	-3695
▁கனிமொழி	-3696
▁கருணாநி	-3697
▁கிடைத்த	-3698
▁சர்வதேச	-3699
▁சிங்கம்	-3700
▁நட்புக்	-3701
▁நிராகரி	-3702
▁நிலையான	-3703
▁புகழும்	-3704
▁போர்க்க	-3705
▁மழைக்கு	-3706
▁முறையாக	-3707
▁மேகதாது	-3708
▁வாழ்த்த	-3709
▁விளையாட	-3710
ப்படுவான்	-3711
▁கோலிக்கு	-3712
▁சுற்றுலா	-3713
▁திருச்சி	-3714
▁நாட்டின்	-3715
▁புகைப்பட	-3716
▁பெண்ணின்	-3717
▁போதிலும்	-3718
▁யாருக்கு	-3719
▁வாஜ்பாய்	-3720
▁உலகத்தில்	-3721
▁உள்ளாட்சி	-3722
▁எல்லாவற்ற	-3723
▁கவிழ்ந்து	-3724
▁பக்தர்கள்	-3725
▁ஆஸ்திரேலிய	-3726
▁கார்த்திக்	-3727
▁சந்திரபாபு	-3728
▁படத்திற்கு	-3729
▁கூட்டத்தில்	-3730
▁துன்பத்தைத்	-3731
▁பள்ளிகளுக்கு	-3732
▁வாழ்க்கையில்	-3733
டோ	-3734
ஃபி	-3735
ஐடி	-3736
ஜெய	-3737
ணர்	-3738
யன்	-3739
ய்த	-3740
றம்	-3741
ளம்	-3742
▁ஆள	-3743
▁ஹோ	-3744
காலா	-3745
க்தி	-3746
தேவி	-3747
ய்யா	-3748
ரார்	-3749
ரிக்	-3750
ெய்ட	-3751
ையாள	-3752
்கண்	-3753
▁அந்	-3754
▁களை	-3755
▁சுவ	-3756
▁திக	-3757
▁நூல	-3758
▁மின	-3759
▁ராய	-3760
▁லார	-3761
க்கடை	-3762
டாமல்	-3763
ன்களை	-3764
மாகிய	-3765
றிந்த	-3766
லாமிய	-3767
ியைக்	-3768
ுமாறு	-3769
▁அமலா	-3770
▁அறநெ	-3771
▁ஆதார	-3772
▁கடன்	-3773
▁கடமை	-3774
▁டெல்	-3775
▁தெலு	-3776
▁நிமி	-3777
▁நூதன	-3778
▁பாரா	-3779
▁மிஸ்	-3780
▁மெய்	-3781
▁மேலா	-3782
▁லாலு	-3783
▁வளம்	-3784
▁வீண்	-3785
▁ஷாக்	-3786
தில்லை	-3787
ப்படைய	-3788
ப்பெண்	-3789
மைக்கு	-3790
வர்களே	-3791
ையாளர்	-3792
▁அடக்க	-3793
▁அதைப்	-3794
▁ஆற்று	-3795
▁எம்பி	-3796
▁எல்லை	-3797
▁கடந்த	-3798
▁கண்ணீ	-3799
▁களமிற	-3800
▁கெட்ட	-3801
▁கொலை	-3802
▁சகோதர	-3803
▁சாடல்	-3804
▁சித்த	-3805
▁செய்ப	-3806
▁ஜடேஜா	-3807
▁தம்பி	-3808
▁தாங்க	-3809
▁தூங்க	-3810
▁நம்பி	-3811
▁புல்ல	-3812
▁மறக்க	-3813
▁விற்க	-3814
க்கொண்ட	-3815
ங்குவது	-3816
லத்தில்	-3817
வதற்காக	-3818
வதாகும்	-3819
வேண்டிய	-3820
ுக்குள்	-3821
ொன்றும்	-3822
▁அடையாள	-3823
▁இதுவரை	-3824
▁இரந்து	-3825
▁ஒருவனை	-3826
▁சந்தேக	-3827
▁சுரங்க	-3828
▁சோர்வு	-3829
▁தரப்பு	-3830
▁தாங்கி	-3831
▁நெஞ்சு	-3832
▁பேட்மி	-3833
▁பொறாமை	-3834
▁முயற்ச	-3835
▁மோடியை	-3836
▁ரெட்டி	-3837
க்கொண்டு	-3838
ளிக்கும்	-3839
வனாகவும்	-3840
வைக்கும்	-3841
▁அத்துமீ	-3842
▁அறியாமை	-3843
▁அவையில்	-3844
▁ஆப்கான்	-3845
▁இணையும்	-3846
▁இந்தோனே	-3847
▁என்றும்	-3848
▁ஒன்றும்	-3849
▁சொற்கள்	-3850
▁தெளிந்த	-3851
▁நினைவிட	-3852
▁மற்றவர்	-3853
▁வகுப்பு	-3854
▁வழங்கிய	-3855
▁வாழ்வது	-3856
▁வெடித்த	-3857
▁இடைக்கால	-3858
▁இருப்பதே	-3859
▁காத்துக்	-3860
▁கார்த்தி	-3861
▁காஷ்மீர்	-3862
▁சந்தேகம்	-3863
▁நம்பிக்க	-3864
▁பாலிவுட்	-3865
▁பொருளைப்	-3866
▁வரவேற்பு	-3867
▁விளையும்	-3868
▁விழுந்து	-3869
▁உயிர்க்கு	-3870
▁எல்லையில்	-3871
▁சொற்களைச்	-3872
▁நட்சத்திர	-3873
▁பாதுகாப்ப	-3874
▁பொருட்கள்	-3875
▁முதல்வராக	-3876
▁வரும்போது	-3877
▁செய்வதற்கு	-3878
▁முடிவுக்கு	-3879
▁உலகக்கோப்பை	-3880
▁கொல்லப்பட்ட	-3881
▁சந்தித்தார்	-3882
▁ட்விட்டரில்	-3883
▁பாண்டியராஜன்	-3884
பன்னீர்செல்வம்	-3885
▁பேச்சுவார்த்தை	-3886
ஃப	-3887
றா	-3888
நாள	-3889
மனை	-3890
ுகொ	-3891
ொர	-3892
▁வத	-3893
▁வன	-3894
▁ஷூ	-3895
க்கட	-3896
க்கண	-3897
சிட்	-3898
சூதன	-3899
தின்	-3900
பேல்	-3901
ப்தி	-3902
ள்ளு	-3903
ஸ்வர	-3904
ாராய	-3905
ாவதி	-3906
ிலான	-3907
▁ஆணவ	-3908
▁ஆலை	-3909
▁உறை	-3910
▁ஏற்	-3911
▁கீழ	-3912
▁கேம	-3913
▁சேவ	-3914
▁துண	-3915
▁தேச	-3916
▁நுக	-3917
▁பரு	-3918
▁பாக	-3919
▁புர	-3920
▁மசூ	-3921
▁மேன	-3922
▁வீண	-3923
எஸ்கே	-3924
ச்சர்	-3925
ணித்த	-3926
த்தான	-3927
த்திற	-3928
ப்பதை	-3929
ப்பிற	-3930
மிக்க	-3931
ளாஸ்ட	-3932
ழிக்க	-3933
வரைக்	-3934
வர்கள	-3935
வாதம்	-3936
ாக்டோ	-3937
▁அணிக	-3938
▁இடைய	-3939
▁ஊர்வ	-3940
▁எனது	-3941
▁எழுத	-3942
▁கவர்	-3943
▁தென்	-3944
▁நடிக	-3945
▁பற்ற	-3946
▁பால்	-3947
▁மரம்	-3948
▁முகா	-3949
▁வண்ண	-3950
▁வறிய	-3951
▁விவர	-3952
▁ஸ்கூ	-3953
கிறேன்	-3954
குண்டு	-3955
டுப்பு	-3956
மார்ட்	-3957
ம்போல்	-3958
லாந்து	-3959
வீடியோ	-3960
▁அருண்	-3961
▁அழிவு	-3962
▁அவமதி	-3963
▁உடன்ப	-3964
▁உட்பட	-3965
▁உருவா	-3966
▁எதுவு	-3967
▁காதலி	-3968
▁காப்ப	-3969
▁கோரிய	-3970
▁சசிகல	-3971
▁டீசர்	-3972
▁தட்டு	-3973
▁தன்னி	-3974
▁தெய்வ	-3975
▁நோயாள	-3976
▁போலக்	-3977
▁மீட்ட	-3978
▁மூன்ற	-3979
▁ராமர்	-3980
▁ரேஷன்	-3981
▁வாரிய	-3982
▁விபரீ	-3983
▁வெங்க	-3984
ங்களின்	-3985
சபரிமலை	-3986
ளுக்கான	-3987
▁அச்செய	-3988
▁அமைக்க	-3989
▁அறத்தை	-3990
▁அல்லாத	-3991
▁ஆக்கம்	-3992
▁ஆதரவாக	-3993
▁உடைத்த	-3994
▁உட்பகை	-3995
▁உணர்வு	-3996
▁ஐஸ்வர்	-3997
▁கணக்கு	-3998
▁கப்பல்	-3999
▁குறைவு	-4000
▁கூறும்	-4001
▁கையில்	-4002
▁ஜாக்டோ	-4003
▁டெல்டா	-4004
▁ட்வீட்	-4005
▁தாக்கி	-4006
▁தீங்கு	-4007
▁படிக்க	-4008
▁பயப்பட	-4009
▁புற்று	-4010
▁பெருமி	-4011
▁மதிப்ப	-4012
▁வருந்த	-4013
மையையும்	-4014
்சியாளர்	-4015
▁அமித்ஷா	-4016
▁ஆன்லைன்	-4017
▁ஆர்ப்பா	-4018
▁இரங்கல்	-4019
▁எண்ணிப்	-4020
▁ஏற்றுக்	-4021
▁கடற்படை	-4022
▁கண்ணும்	-4023
▁கொடூரம்	-4024
▁சர்கார்	-4025
▁செய்யக்	-4026
▁பரிந்து	-4027
▁பாதித்த	-4028
▁பிடிக்க	-4029
▁பெயரில்	-4030
▁போராடிய	-4031
▁மதுசூதன	-4032
▁அசத்தும்	-4033
▁அறியாமல்	-4034
▁ஐதராபாத்	-4035
▁கேட்கும்	-4036
▁செயலாளர்	-4037
▁செருக்கு	-4038
▁தோன்றும்	-4039
▁நிகழ்ச்ச	-4040
▁புகழாரம்	-4041
▁பெற்றோர்	-4042
▁பேட்டிங்	-4043
▁ஸ்டிரைக்	-4044
▁ஒருவனுடைய	-4045
▁தயாராகும்	-4046
▁பாரதிராஜா	-4047
▁பொருந்திய	-4048
▁மகிழ்ந்து	-4049
▁வேகத்தில்	-4050
▁சொல்கிறார்	-4051
▁தூக்கிட்டு	-4052
▁தொழிலதிபர்	-4053
▁பிறந்தநாள்	-4054
▁மருத்துவர்	-4055
▁பேட்மிண்டன்	-4056
▁போன்றதாகும்	-4057
▁அலுவலகத்தில்	-4058
▁சொல்லப்படும்	-4059
▁பயிற்சியாளர்	-4060
▁மருத்துவர்கள்	-4061
ஸை	-4062
ுய	-4063
ஒரு	-4064
பாச	-4065
பால	-4066
ற்ச	-4067
ழில	-4068
விஜ	-4069
ாமே	-4070
ாலே	-4071
ிலே	-4072
▁அன	-4073
▁ஜா	-4074
ஆவது	-4075
சொல்	-4076
ஜ்ரி	-4077
டியே	-4078
ட்கா	-4079
தமாக	-4080
த்யா	-4081
ந்தர	-4082
ந்தை	-4083
ன்கொ	-4084
ன்றோ	-4085
மாக்	-4086
ரான்	-4087
ர்க்	-4088
லையா	-4089
ழ்வு	-4090
ஸ்சி	-4091
ிர்க	-4092
ிழ்த	-4093
ென்ப	-4094
▁ஆகி	-4095
▁எச்	-4096
▁எனை	-4097
▁ஏறி	-4098
▁ஒழி	-4099
▁சபா	-4100
▁துய	-4101
▁துர	-4102
▁நாள	-4103
▁பகு	-4104
▁பாய	-4105
▁மால	-4106
▁வளை	-4107
▁வீழ	-4108
▁வைய	-4109
சலில்	-4110
ண்டல்	-4111
தலும்	-4112
பிக்க	-4113
ரித்த	-4114
லுடன்	-4115
வரில்	-4116
ஸ்தான	-4117
ாவான்	-4118
▁ஃபர்	-4119
▁அலர்	-4120
▁உணர்	-4121
▁கோவை	-4122
▁சுஷ்	-4123
▁சேர்	-4124
▁ஜியோ	-4125
▁ஜெட்	-4126
▁தனது	-4127
▁தவர்	-4128
▁தாமே	-4129
▁பண்ண	-4130
▁ராம்	-4131
▁வில்	-4132
▁வேல்	-4133
க்குத்	-4134
ஞ்சித்	-4135
த்திரை	-4136
னாலும்	-4137
மையைச்	-4138
ரிடும்	-4139
ரையில்	-4140
வானில்	-4141
ஹ்மான்	-4142
ெடுத்த	-4143
ெல்வன்	-4144
▁அஞ்சு	-4145
▁அதற்க	-4146
▁இன்னா	-4147
▁இலங்க	-4148
▁ஈடுபட	-4149
▁உறவின	-4150
▁கலங்க	-4151
▁கூறிய	-4152
▁கொள்	-4153
▁கொல்க	-4154
▁கொளல்	-4155
▁சினிம	-4156
▁சொல்	-4157
▁திருட	-4158
▁தேவைய	-4159
▁நடைபெ	-4160
▁பங்கள	-4161
▁படுகொ	-4162
▁பாடம்	-4163
▁மாஃபா	-4164
▁முதலி	-4165
▁முரளி	-4166
▁ரவுடி	-4167
க்கொள்ள	-4168
ங்குகள்	-4169
டுகளில்	-4170
ப்பெரிய	-4171
ம்மாண்ட	-4172
விடாமல்	-4173
▁அனுப்ப	-4174
▁அல்லது	-4175
▁இணையதள	-4176
▁இந்தப்	-4177
▁இறந்து	-4178
▁உதவும்	-4179
▁கல்லாத	-4180
▁குப்பை	-4181
▁கூகுள்	-4182
▁கூட்டு	-4183
▁கெட்டு	-4184
▁கொண்ட	-4185
▁சான்றி	-4186
▁சிறிது	-4187
▁சிறுமை	-4188
▁சேரும்	-4189
▁திறந்த	-4190
▁நண்பர்	-4191
▁நினைவு	-4192
▁நீக்கி	-4193
▁பதவியை	-4194
▁வராமல்	-4195
▁விசாரி	-4196
▁வீட்டு	-4197
த்தினால்	-4198
▁அடுத்து	-4199
▁அத்தகைய	-4200
▁அனுஷ்கா	-4201
▁அவரிடம்	-4202
▁அவர்களை	-4203
▁இயந்திர	-4204
▁இவ்வுலக	-4205
▁ஏற்பட்ட	-4206
▁ஒருநாள்	-4207
▁காணாமல்	-4208
▁கொள்வது	-4209
▁செவிலிய	-4210
▁சேர்க்க	-4211
▁சேர்த்த	-4212
▁தேர்ந்த	-4213
▁தொழிலாள	-4214
▁நீங்காத	-4215
▁பறிப்பு	-4216
▁பிறப்பு	-4217
▁பொங்கல்	-4218
▁ராணுவம்	-4219
▁வழக்கறி	-4220
▁விவசாயி	-4221
▁ஸ்டாலின	-4222
ப்பிடித்த	-4223
வர்களிடம்	-4224
▁ஃபர்ஸ்ட்	-4225
▁கட்டாயம்	-4226
▁செல்போன்	-4227
▁நிறுவனம்	-4228
▁பங்கேற்க	-4229
▁பத்திரிக	-4230
▁பிறரிடம்	-4231
▁பெரியோர்	-4232
▁மனத்தால்	-4233
▁மனத்துள்	-4234
▁முடக்கம்	-4235
▁முதியவர்	-4236
▁மூதாட்டி	-4237
▁வெல்லும்	-4238
▁வேறுபாடு	-4239
▁ஹீரோயின்	-4240
▁செய்கின்ற	-4241
▁தெரியாமல்	-4242
▁நூல்களைக்	-4243
▁இணையத்தில்	-4244
▁செய்தாலும்	-4245
▁பார்க்கும்	-4246
▁பிரம்மாண்ட	-4247
▁காப்பாற்றிய	-4248
▁செய்யுங்கள்	-4249
▁நிலையத்தில்	-4250
▁முடியவில்லை	-4251
▁ஹெலிகாப்டர்	-4252
▁விஜய்சேதுபதி	-4253
▁இல்லாதவர்க்கு	-4254
▁செங்கோட்டையன்	-4255
▁பன்னீர்செல்வம்	-4256
?’	-4257
மல	-4258
ரூ	-4259
கரு	-4260
தைய	-4261
பிற	-4262
பெஷ	-4263
ாரூ	-4264
ிகோ	-4265
ியூ	-4266
ோடி	-4267
்தா	-4268
▁நவ	-4269
▁ரொ	-4270
என்ன	-4271
துரை	-4272
பவன்	-4273
மதிய	-4274
ரினா	-4275
ரைக்	-4276
லித்	-4277
வேலு	-4278
வைப்	-4279
ின்ன	-4280
ொலை	-4281
ேசிய	-4282
ொழுக	-4283
▁அடு	-4284
▁உடன	-4285
▁உழை	-4286
▁சேர	-4287
▁பன்	-4288
க்கப்	-4289
க்கரு	-4290
டுவது	-4291
முடன்	-4292
ரத்தை	-4293
ள்ளது	-4294
ார்ட்	-4295
▁ஒழுக	-4296
▁குறு	-4297
▁சண்ட	-4298
▁சால்	-4299
▁டிரா	-4300
▁தகாத	-4301
▁தஞ்ச	-4302
▁தடிய	-4303
▁நல்வ	-4304
▁பக்க	-4305
▁புதை	-4306
▁மகனை	-4307
▁மீன்	-4308
▁ரீமே	-4309
▁வசதி	-4310
▁ஷாரூ	-4311
டியும்	-4312
த்தையே	-4313
போதும்	-4314
மடைந்த	-4315
வனிடம்	-4316
ும்படி	-4317
▁அதிரு	-4318
▁ஆரம்ப	-4319
▁எல்லோ	-4320
▁சுங்க	-4321
▁திருவ	-4322
▁திரைய	-4323
▁நாராய	-4324
▁பகீர்	-4325
▁பின்ப	-4326
▁பேராச	-4327
▁மாறன்	-4328
▁முன்க	-4329
▁முறிய	-4330
▁மேம்ப	-4331
▁மோதிய	-4332
▁ராஜபக	-4333
▁ஸ்பெஷ	-4334
தாகவும்	-4335
த்தலும்	-4336
ப்பற்றி	-4337
▁அந்தக்	-4338
▁அந்தச்	-4339
▁அமிழ்த	-4340
▁அமைந்த	-4341
▁ஆணையர்	-4342
▁ஆவேசம்	-4343
▁இணைந்த	-4344
▁ஊழியர்	-4345
▁எந்தப்	-4346
▁எழுத்த	-4347
▁ஒப்படை	-4348
▁கனவில்	-4349
▁காதலனை	-4350
▁கெஜ்ரி	-4351
▁சுஷ்மா	-4352
▁தகுதிய	-4353
▁திலீப்	-4354
▁பகைவரை	-4355
▁பாண்ட்	-4356
▁பொழுது	-4357
▁போலாம்	-4358
▁மடங்கு	-4359
▁மாணவன்	-4360
▁மாளிகை	-4361
▁முஸ்லி	-4362
▁ரத்தம்	-4363
▁விவரம்	-4364
▁ஸ்மித்	-4365
ட்டிற்கு	-4366
ப்பிள்ளை	-4367
ளாஸ்டிக்	-4368
விட்டார்	-4369
ிறார்கள்	-4370
▁அணையில்	-4371
▁அழியும்	-4372
▁உடைத்து	-4373
▁சிஎஸ்கே	-4374
▁சின்னம்	-4375
▁சேதுபதி	-4376
▁தவறாமல்	-4377
▁பெங்களூ	-4378
▁பெண்களை	-4379
▁பேசுவது	-4380
▁மரியாதை	-4381
▁முன்பதி	-4382
▁விருப்ப	-4383
▁விளக்கு	-4384
▁விவேகம்	-4385
சிதம்பரம்	-4386
ப்பாக்கம்	-4387
▁இளம்பெண்	-4388
▁ஐஸ்வர்யா	-4389
▁கோவிலில்	-4390
▁சாலையில்	-4391
▁டாஸ்மாக்	-4392
▁தற்காலிக	-4393
▁தாங்கும்	-4394
▁திடுக்கி	-4395
▁தேர்வில்	-4396
▁நிர்வாகி	-4397
▁நெஞ்சில்	-4398
▁பகைவரால்	-4399
▁பட்டியல்	-4400
▁பிரான்ஸ்	-4401
▁பெற்றால்	-4402
▁விட்டுப்	-4403
▁விநாயகர்	-4404
த்திற்கும்	-4405
வரிடத்தில்	-4406
▁அரசியலில்	-4407
▁இடங்களில்	-4408
▁கிறிஸ்தும	-4409
▁கொள்ளாமல்	-4410
▁சுருண்டது	-4411
▁ட்விட்டர்	-4412
▁திருப்பதி	-4413
▁நண்பர்கள்	-4414
▁பதிலளிக்க	-4415
▁பயங்கரவாத	-4416
▁மதுசூதனன்	-4417
▁முடிந்தது	-4418
▁விளங்கும்	-4419
▁வேட்பாளர்	-4420
▁வைரமுத்து	-4421
▁செய்யாதிரு	-4422
▁நீடிக்கும்	-4423
▁புதுச்சேரி	-4424
▁கட்டுப்பாடு	-4425
▁நீக்கப்பட்ட	-4426
▁ஆர்ப்பாட்டம்	-4427
▁போராட்டத்தில்	-4428
▁கிரிக்கெட்டில்	-4429
சொ	-4430
ஜீ	-4431
ென	-4432
இது	-4433
சேக	-4434
றவு	-4435
ஷப்	-4436
ாறு	-4437
ெரி	-4438
ேனா	-4439
்க்	-4440
்தே	-4441
▁யூ	-4442
..?:	-4443
நலம்	-4444
நாயக	-4445
ன்பு	-4446
ன்மை	-4447
ப்பொ	-4448
மால்	-4449
ம்மை	-4450
றையை	-4451
லாது	-4452
வரன்	-4453
▁அசை	-4454
▁அட்	-4455
▁அறை	-4456
▁அளி	-4457
▁ஆள்	-4458
▁இடி	-4459
▁உதய	-4460
▁சதி	-4461
▁மகா	-4462
அம்மா	-4463
ச்சல்	-4464
தலால்	-4465
ப்பதா	-4466
மாநில	-4467
வதைப்	-4468
வாமல்	-4469
விடக்	-4470
▁அணுக	-4471
▁ஆவது	-4472
▁இகழ்	-4473
▁இவள்	-4474
▁உலகு	-4475
▁ஐஎஸ்	-4476
▁காலி	-4477
▁சிவா	-4478
▁செரு	-4479
▁டாக்	-4480
▁தனுஷ	-4481
▁தவம்	-4482
▁துரை	-4483
▁தேவி	-4484
▁நாடக	-4485
▁பங்க	-4486
▁பாலா	-4487
▁மணிர	-4488
▁மறதி	-4489
▁முரு	-4490
▁மெலி	-4491
▁யவர்	-4492
▁விளா	-4493
▁வீழ்	-4494
▁ஹாட்	-4495
ஏக்கள்	-4496
கையில்	-4497
க்கிங்	-4498
ங்கிப்	-4499
ப்பார்	-4500
விப்பு	-4501
ாரசாமி	-4502
ிருஷ்ண	-4503
▁அண்ணா	-4504
▁அவசிய	-4505
▁ஆவான்	-4506
▁உண்டோ	-4507
▁உலகக்	-4508
▁ஐசிசி	-4509
▁கொடு	-4510
▁கேமரா	-4511
▁கைவிட	-4512
▁தண்டி	-4513
▁தழுவி	-4514
▁தெளிய	-4515
▁தோன்ற	-4516
▁நீர்ம	-4517
▁பிறவி	-4518
▁புரிய	-4519
▁மம்தா	-4520
▁மோடி	-4521
க்களின்	-4522
தனையில்	-4523
வரையும்	-4524
வேந்தர்	-4525
ிருத்வி	-4526
ென்னும்	-4527
▁அந்தத்	-4528
▁அனிச்ச	-4529
▁ஆம்புல	-4530
▁உருவான	-4531
▁கட்டிய	-4532
▁காஞ்சி	-4533
▁கார்டு	-4534
▁குட்கா	-4535
▁கொள்ள	-4536
▁சமந்தா	-4537
▁சம்பத்	-4538
▁சம்மன்	-4539
▁சுவாமி	-4540
▁சூர்யா	-4541
▁ஜெயராம	-4542
▁தடியடி	-4543
▁தீக்கு	-4544
▁தெரிவி	-4545
▁தெலங்க	-4546
▁நாட்டை	-4547
▁நான்கு	-4548
▁நிலையை	-4549
▁படத்தை	-4550
▁பிள்ளை	-4551
▁பெறின்	-4552
▁போராடி	-4553
▁மலேசிய	-4554
▁மாறும்	-4555
▁மிதாலி	-4556
▁விளக்க	-4557
▁வீச்சு	-4558
▁ஸ்டார்	-4559
▁ஸ்ருதி	-4560
ண்டர்கள்	-4561
மாட்டோம்	-4562
ர்களிடம்	-4563
▁ஆட்சியை	-4564
▁இயக்கம்	-4565
▁இவ்வளவு	-4566
▁உயிரைப்	-4567
▁செய்திய	-4568
▁டாக்டர்	-4569
▁தனியார்	-4570
▁தமிழ்நா	-4571
▁தலைமைச்	-4572
▁தலைவராக	-4573
▁தேர்தலை	-4574
▁தோள்கள்	-4575
▁நெடுங்க	-4576
▁பஞ்சாப்	-4577
▁பந்துவீ	-4578
▁பல்வேறு	-4579
▁பழிக்கு	-4580
▁பாதிரிய	-4581
▁பின்னணி	-4582
▁ரயிலில்	-4583
▁வெளியான	-4584
டியூரப்பா	-4585
ப்பட்டார்	-4586
ப்புணர்வு	-4587
ிருந்தும்	-4588
▁இயங்கும்	-4589
▁இஸ்லாமிய	-4590
▁என்னிடம்	-4591
▁கடலுக்கு	-4592
▁கலக்கும்	-4593
▁காக்கும்	-4594
▁சார்பில்	-4595
▁செய்யாது	-4596
▁செல்லாது	-4597
▁தவிர்க்க	-4598
▁தெரிந்து	-4599
▁நடிகைகள்	-4600
▁நான்கும்	-4601
▁நிபந்தனை	-4602
▁நிலைத்து	-4603
▁பிரதமராக	-4604
▁பிருத்வி	-4605
▁புரிந்து	-4606
▁பொருளும்	-4607
▁மாடியில்	-4608
▁மோடியின்	-4609
▁விருந்து	-4610
▁வீரர்களை	-4611
▁ஸ்மார்ட்	-4612
▁எல்லாரும்	-4613
▁சஸ்பெண்ட்	-4614
▁சாம்பியன்	-4615
▁நடுவுநிலை	-4616
▁பரிந்துரை	-4617
▁பள்ளியில்	-4618
▁பிரியங்கா	-4619
▁மனைவிக்கு	-4620
▁மிகுதியாக	-4621
▁மின்சாரம்	-4622
▁வழக்குகளை	-4623
மாட்டார்கள்	-4624
▁ஆம்புலன்ஸ்	-4625
▁இந்தோனேஷிய	-4626
▁ஒருவருக்கு	-4627
▁பகுதிகளில்	-4628
▁பாஜகவுக்கு	-4629
▁வழக்கறிஞர்	-4630
▁விமர்சித்த	-4631
▁இந்தியர்கள்	-4632
▁உடையவர்க்கு	-4633
▁கிறிஸ்துமஸ்	-4634
▁சட்டப்பேரவை	-4635
▁துன்பத்தால்	-4636
▁துன்பத்தைப்	-4637
▁செய்யப்படும்	-4638
▁திடுக்கிடும்	-4639
▁விரும்பினால்	-4640
▁அரையிறுதியில்	-4641
▁நினைவிடத்தில்	-4642
▁பயங்கரவாதிகள்	-4643
இர	-4644
பொ	-4645
மக	-4646
மன	-4647
றே	-4648
தாய	-4649
நாத	-4650
போன	-4651
மேக	-4652
றாக	-4653
ஷம்	-4654
ஸர்	-4655
ாடு	-4656
ாற்	-4657
ாலய	-4658
ிலை	-4659
ோக்	-4660
▁ஜூ	-4661
▁லெ	-4662
எஃப்	-4663
காரா	-4664
ங்கொ	-4665
சரஸ்	-4666
சேனா	-4667
ண்டல	-4668
திகா	-4669
னார்	-4670
பிக்	-4671
ப்து	-4672
ப்ஸ்	-4673
மில்	-4674
ராயி	-4675
ர்ஜி	-4676
லட்ச	-4677
லைச்	-4678
ழும்	-4679
வாம்	-4680
ூஉம்	-4681
▁ஆல்	-4682
▁உணர	-4683
▁ஊடி	-4684
▁எடு	-4685
▁எண்	-4686
▁எய்	-4687
▁ஒவ்	-4688
▁கரை	-4689
▁கறு	-4690
▁ஜாத	-4691
▁தலா	-4692
▁பரோ	-4693
▁பான	-4694
▁போய	-4695
ஃபேல்	-4696
கிறதா	-4697
ண்கள்	-4698
ப்பதே	-4699
ப்பாள	-4700
மிடம்	-4701
மில்ல	-4702
றிவாள	-4703
ள்ளான	-4704
வாகக்	-4705
ாவும்	-4706
ிரியை	-4707
ூக்கு	-4708
▁அஃது	-4709
▁அக்க	-4710
▁அம்ம	-4711
▁ஏடிஎ	-4712
▁ஓவிய	-4713
▁கைதி	-4714
▁கொதி	-4715
▁டீம்	-4716
▁தப்ப	-4717
▁தராத	-4718
▁நாகை	-4719
▁பாதை	-4720
▁பிரே	-4721
▁மெர்	-4722
▁ரத்த	-4723
▁ரவிச	-4724
▁ரோஹி	-4725
▁வியா	-4726
▁ஸ்டை	-4727
▁ஹர்ப	-4728
ஜெயலலி	-4729
ஜ்வாதி	-4730
டும்பை	-4731
ட்டிக்	-4732
ட்டின்	-4733
திக்கு	-4734
போர்ட்	-4735
றியும்	-4736
வட்டம்	-4737
வருடைய	-4738
வினால்	-4739
வைத்து	-4740
ாரிடம்	-4741
ின்றது	-4742
ிரியர்	-4743
▁ஆளும்	-4744
▁இனிது	-4745
▁எம்ஜி	-4746
▁ஓடும்	-4747
▁கருது	-4748
▁காணாத	-4749
▁குஜரா	-4750
▁கொடூர	-4751
▁சவரன்	-4752
▁சேலம்	-4753
▁தோனிய	-4754
▁போகிற	-4755
▁போலத்	-4756
▁மகாரா	-4757
▁மேற்க	-4758
▁மேற்ப	-4759
▁விடுக	-4760
▁விளாச	-4761
ங்களால்	-4762
ப்படியே	-4763
ப்பதில்	-4764
ரஹ்மான்	-4765
▁அதுபோல	-4766
▁இயல்பை	-4767
▁உடம்பு	-4768
▁உடையவர	-4769
▁உலகத்த	-4770
▁எமக்கு	-4771
▁கோலியை	-4772
▁சாப்பி	-4773
▁சுற்றி	-4774
▁செயற்க	-4775
▁தூய்மை	-4776
▁தென்னா	-4777
▁நன்றாக	-4778
▁நீரில்	-4779
▁படித்த	-4780
▁பலரும்	-4781
▁பின்பு	-4782
▁பீட்டா	-4783
▁மயங்கி	-4784
▁மருந்த	-4785
▁யாரும்	-4786
▁ரெய்னா	-4787
▁லஞ்சம்	-4788
▁வடகொர	-4789
▁வரலாறு	-4790
▁வளரும்	-4791
▁விலகல்	-4792
▁வேண்டி	-4793
த்தியில்	-4794
ந்தாலும்	-4795
▁அடைப்பு	-4796
▁அதற்காக	-4797
▁ஆய்வில்	-4798
▁இல்லையா	-4799
▁ஈடுபட்ட	-4800
▁ஒப்பந்த	-4801
▁கணிப்பு	-4802
▁கண்டால்	-4803
▁கற்றவர்	-4804
▁கோடநாடு	-4805
▁சிகிச்ச	-4806
▁சுகாதார	-4807
▁செயலில்	-4808
▁செல்ஃபி	-4809
▁டிரைலர்	-4810
▁தடுத்து	-4811
▁பருவமழை	-4812
▁பினராயி	-4813
▁பிரசாத்	-4814
▁பிரபாஸ்	-4815
▁மாயாவதி	-4816
▁வாரியம்	-4817
வருக்கும்	-4818
ும்படியாக	-4819
▁அதிகாரம்	-4820
▁இகழ்ந்து	-4821
▁என்னதான்	-4822
▁கோப்பையை	-4823
▁கோலியின்	-4824
▁செய்தார்	-4825
▁பாண்ட்யா	-4826
▁பெய்யும்	-4827
▁பேஸ்புக்	-4828
▁முதலிடம்	-4829
▁வடகொரியா	-4830
▁வழங்கும்	-4831
▁அனுமதிக்க	-4832
▁உண்ணாவிரத	-4833
▁ஒதுக்கீடு	-4834
▁குமாரசாமி	-4835
▁சான்றிதழ்	-4836
▁தலைமையில்	-4837
▁நடக்கிறது	-4838
▁நடுவானில்	-4839
▁பண்பாகும்	-4840
▁பிறருக்கு	-4841
▁பொருளாதார	-4842
▁முன்பதிவு	-4843
▁மேற்கொள்ள	-4844
▁காவல்நிலைய	-4845
▁சிறுமிக்கு	-4846
▁செல்கிறார்	-4847
▁திருமணத்தை	-4848
▁பட்டியலில்	-4849
▁பிளாஸ்டிக்	-4850
▁மாப்பிள்ளை	-4851
▁மும்பையில்	-4852
▁வெடிகுண்டு	-4853
▁இருக்கிறார்	-4854
▁இருப்பினும்	-4855
▁திட்டவட்டம்	-4856
▁பயன்படுத்து	-4857
▁மக்களவையில்	-4858
▁அதிகரிக்கும்	-4859
▁கர்நாடகாவில்	-4860
▁தொழிலாளர்கள்	-4861
▁பாகிஸ்தானில்	-4862
▁புகைப்படங்கள்	-4863
▁விழிப்புணர்வு	-4864
▁காத்திருக்கும்	-4865
▁ஜெயலலிதாவுக்கு	-4866
▁புதுச்சேரியில்	-4867
▁விவசாயிகளுக்கு	-4868
▁குடும்பத்திற்கு	-4869
▁தென்னாப்பிரிக்க	-4870
சன	-4871
பண	-4872
பூ	-4873
யை	-4874
▁,	-4875
காத	-4876
டமி	-4877
மறை	-4878
மேச	-4879
றிக	-4880
ழிய	-4881
வத்	-4882
வுக	-4883
ாரோ	-4884
ியே	-4885
ையோ	-4886
்கே	-4887
▁சல	-4888
▁ஜே	-4889
...’	-4890
கார்	-4891
ங்கூ	-4892
ஜாரா	-4893
த்தள	-4894
போதே	-4895
ம்பர	-4896
ர்தா	-4897
ளுள்	-4898
ழிவு	-4899
வெளி	-4900
வைக்	-4901
வொரு	-4902
ிற்ச	-4903
ுதல்	-4904
ெண்ட	-4905
ென்ற	-4906
▁அத்	-4907
▁அரை	-4908
▁அவா	-4909
▁உன்	-4910
▁ஒடி	-4911
▁சான	-4912
▁சாய	-4913
▁சுட	-4914
▁நவா	-4915
▁பொய	-4916
▁வேக	-4917
செய்ய	-4918
ந்திட	-4919
பாயம்	-4920
ப்போன	-4921
லாமல்	-4922
விடப்	-4923
ாண்மை	-4924
▁அமேச	-4925
▁அறிஞ	-4926
▁ஆபாச	-4927
▁ஆயிர	-4928
▁குளி	-4929
▁சஞ்ச	-4930
▁சுரே	-4931
▁தத்த	-4932
▁தமது	-4933
▁தின்	-4934
▁தோள்	-4935
▁போடு	-4936
▁ராஜா	-4937
▁வெறி	-4938
▁ஹெல்	-4939
கின்றன	-4940
க்காது	-4941
ட்டியே	-4942
ந்திக்	-4943
ப்போல்	-4944
மையைக்	-4945
ற்றின்	-4946
ளிப்பு	-4947
ஸுக்கு	-4948
ாததால்	-4949
ிற்காக	-4950
▁அதைச்	-4951
▁ஆனார்	-4952
▁இஸ்ரே	-4953
▁உரையா	-4954
▁ஊரில்	-4955
▁கயவர்	-4956
▁கருவி	-4957
▁காந்த	-4958
▁குணம்	-4959
▁குன்ற	-4960
▁கேரளா	-4961
▁கொள்ப	-4962
▁சக்தி	-4963
▁சவால்	-4964
▁சவுதி	-4965
▁சின்ன	-4966
▁தற்று	-4967
▁தளபதி	-4968
▁திவாக	-4969
▁தீராத	-4970
▁தோற்க	-4971
▁நியமன	-4972
▁பதக்க	-4973
▁பிரபு	-4974
▁மாதம்	-4975
▁யாதவ்	-4976
▁வாதம்	-4977
▁விஞ்ஞ	-4978
▁விடல்	-4979
▁விஷம்	-4980
க்கியது	-4981
க்கீரன்	-4982
னுக்காக	-4983
ன்மையான	-4984
மாணிக்க	-4985
முருகதா	-4986
ம்பிக்க	-4987
லட்சுமி	-4988
வதையும்	-4989
வர்களாக	-4990
ஸ்கரில்	-4991
ூட்டியே	-4992
▁அச்சம்	-4993
▁அணிகள்	-4994
▁அணிந்த	-4995
▁ஆதித்ய	-4996
▁இயலாது	-4997
▁எங்கள்	-4998
▁கடுஞ்ச	-4999
▁கத்திய	-5000
▁கர்ணன்	-5001
▁குட்டி	-5002
▁குத்து	-5003
▁கோடியை	-5004
▁கோபால்	-5005
▁தருவது	-5006
▁தாமும்	-5007
▁பரவும்	-5008
▁பாம்பு	-5009
▁போலும்	-5010
▁மணிரத்	-5011
▁முகாம்	-5012
▁முட்டை	-5013
▁வழக்கை	-5014
▁விசாரண	-5015
▁ஹைட்ரோ	-5016
டுகிறார்	-5017
த்திலேயே	-5018
போதையில்	-5019
ப்படுகிற	-5020
்களுக்கு	-5021
▁அணியின்	-5022
▁அதுபோல்	-5023
▁அனுமதிய	-5024
▁அயோத்தி	-5025
▁அறியும்	-5026
▁அழைத்து	-5027
▁இரும்பு	-5028
▁எண்ணிச்	-5029
▁என்னைத்	-5030
▁எய்ம்ஸ்	-5031
▁கதையில்	-5032
▁சிறப்பை	-5033
▁சிலைகள்	-5034
▁திருவடி	-5035
▁தொழிற்ச	-5036
▁நிலையம்	-5037
▁படுகோனே	-5038
▁பொருட்க	-5039
▁போஸ்டர்	-5040
▁மற்றொரு	-5041
▁மெல்லிய	-5042
▁யுவராஜ்	-5043
▁விக்ரம்	-5044
▁வில்லன்	-5045
ங்குகிறது	-5046
ப்பட்டுவா	-5047
▁அனைவரும்	-5048
▁ஆராய்ந்த	-5049
▁இருத்தல்	-5050
▁இருப்பதை	-5051
▁உடையவராக	-5052
▁உயிர்களை	-5053
▁உறுப்பின	-5054
▁கலாய்த்த	-5055
▁காதலரைக்	-5056
▁குடியில்	-5057
▁குறைப்பு	-5058
▁கொலையில்	-5059
▁சிறப்பாக	-5060
▁திருப்பி	-5061
▁நடத்தும்	-5062
▁நேரிடும்	-5063
▁பதவியில்	-5064
▁பெருமையை	-5065
▁பேரறிவாள	-5066
▁பொருளைக்	-5067
▁பொறுப்பு	-5068
▁போதையில்	-5069
▁மாட்டிறை	-5070
▁முன்னிலை	-5071
▁விபரீதம்	-5072
▁வீழ்த்தி	-5073
▁வைத்தார்	-5074
▁ஷூட்டிங்	-5075
▁ஸ்ரீதேவி	-5076
▁ஹாட்ரிக்	-5077
ப்படவில்லை	-5078
▁இயல்புடைய	-5079
▁இல்லாதவன்	-5080
▁காவலர்கள்	-5081
▁குடிப்பிற	-5082
▁கொல்கத்தா	-5083
▁கொள்ளலாம்	-5084
▁சபாநாயகர்	-5085
▁சிறுமிகள்	-5086
▁செய்யலாம்	-5087
▁நெருக்கடி	-5088
▁நோட்டுகளை	-5089
▁பல்கலைக்க	-5090
▁பொருந்தாத	-5091
▁ரஜினிக்கு	-5092
▁வந்தாலும்	-5093
▁விஜய்யின்	-5094
▁விடுவிக்க	-5095
▁ஸ்கூட்டர்	-5096
▁அறிவில்லாத	-5097
▁இல்லாததால்	-5098
▁உடையதாகும்	-5099
▁உரிமையாளர்	-5100
▁எடியூரப்பா	-5101
▁கையெழுத்து	-5102
▁பிரபலங்கள்	-5103
▁போய்விடும்	-5104
▁மனைவியுடன்	-5105
▁வாழ்க்கையை	-5106
▁வேறொன்றும்	-5107
▁கடத்தப்பட்ட	-5108
▁தமிழகத்தின்	-5109
▁துன்புறுத்த	-5110
▁துப்பாக்கிய	-5111
▁பணப்பட்டுவா	-5112
▁விரும்புகிற	-5113
▁உயிரிழந்தோர்	-5114
▁சான்றோர்க்கு	-5115
▁முன்கூட்டியே	-5116
▁விட்டுவிட்டு	-5117
▁அதிர்ச்சியில்	-5118
▁திருப்பதியில்	-5119
▁பேச்சுவார்த்த	-5120
▁மாணவர்களுக்கு	-5121
▁எதிர்க்கட்சிகள்	-5122
▁போராட்டத்திற்கு	-5123
கல	-5124
நல	-5125
வட	-5126
ஷே	-5127
‌ஷ	-5128
▁)	-5129
கால	-5130
குக	-5131
சரி	-5132
நடு	-5133
பெட	-5134
ளது	-5135
ழைய	-5136
வலி	-5137
்டி	-5138
▁இச	-5139
▁ஜீ	-5140
▁தை	-5141
▁நர	-5142
▁ரஹ	-5143
இந்த	-5144
சகம்	-5145
சூர்	-5146
ட்லி	-5147
ண்பே	-5148
த்ரா	-5149
த்ரி	-5150
நல்ல	-5151
னாளி	-5152
பைல்	-5153
மிதா	-5154
மேன்	-5155
ம்பே	-5156
ர்மா	-5157
வசம்	-5158
விகி	-5159
விழா	-5160
வைஸ்	-5161
ாளரை	-5162
ூபம்	-5163
ெச்ச	-5164
▁அன்	-5165
▁ஆயு	-5166
▁இந்	-5167
▁ஏரி	-5168
▁கசி	-5169
▁கள்	-5170
▁கேள	-5171
▁சது	-5172
▁சரண	-5173
▁நிழ	-5174
▁போ	-5175
▁போத	-5176
▁மல்	-5177
▁மவு	-5178
▁ரகு	-5179
▁வாட	-5180
களைத்	-5181
க்கர்	-5182
க்கிர	-5183
க்குற	-5184
ங்களே	-5185
ங்காத	-5186
தமிழக	-5187
தலில்	-5188
படும்	-5189
பட்டு	-5190
முள்ள	-5191
ய்லர்	-5192
றாமல்	-5193
வனைப்	-5194
விஜய்	-5195
ாதேஷ்	-5196
ால்லை	-5197
ிடும்	-5198
ினேன்	-5199
ிறோம்	-5200
▁அன்ன	-5201
▁அறவழ	-5202
▁அழகை	-5203
▁ஆஜர்	-5204
▁உடனே	-5205
▁உடன்	-5206
▁எப்ப	-5207
▁எய்த	-5208
▁காமெ	-5209
▁கிம்	-5210
▁கூடு	-5211
▁சாக்	-5212
▁சாய்	-5213
▁டார்	-5214
▁திக்	-5215
▁தீபா	-5216
▁துரு	-5217
▁நாக்	-5218
▁நாடி	-5219
▁நூல்	-5220
▁பந்த	-5221
▁பறவை	-5222
▁பாய்	-5223
▁பாரி	-5224
▁பிக்	-5225
▁ப்ளூ	-5226
▁முது	-5227
▁மேனி	-5228
▁ராஜம	-5229
▁வாடி	-5230
க்கான்	-5231
ஞ்சில்	-5232
ண்டாம்	-5233
ந்தவர்	-5234
னையும்	-5235
ன்ஸ்பெ	-5236
ப்பிடி	-5237
மதிப்ப	-5238
மையைத்	-5239
ரெட்டி	-5240
ல்லாம்	-5241
வியால்	-5242
▁அகற்ற	-5243
▁அமைதி	-5244
▁ஆதாரை	-5245
▁இறங்க	-5246
▁இழக்க	-5247
▁இழிவு	-5248
▁கழிவு	-5249
▁காவிர	-5250
▁சத்தீ	-5251
▁சொல்ப	-5252
▁ஜெர்ம	-5253
▁நடப்ப	-5254
▁பட்டு	-5255
▁பழகிய	-5256
▁போலீஸ	-5257
▁ரெய்ட	-5258
▁விக்ர	-5259
▁வெப்ப	-5260
▁வேட்ட	-5261
த்திரம்	-5262
பிரகாஷ்	-5263
ப்பதால்	-5264
ர்கிறது	-5265
ான்றும்	-5266
ில்தான்	-5267
▁அறிஞர்	-5268
▁அவற்றை	-5269
▁ஆபத்து	-5270
▁இணைக்க	-5271
▁ஏற்படு	-5272
▁காரில்	-5273
▁கோரும்	-5274
▁சகோதரி	-5275
▁சானியா	-5276
▁சுரேஷ்	-5277
▁செயின்	-5278
▁சேவாக்	-5279
▁சைக்கி	-5280
▁ஜெட்லி	-5281
▁தடுத்த	-5282
▁தமிழர்	-5283
▁தாயின்	-5284
▁பயந்து	-5285
▁பாட்டி	-5286
▁பாலாஜி	-5287
▁போட்டோ	-5288
▁போனால்	-5289
▁போர்டு	-5290
▁மக்களை	-5291
▁மறியல்	-5292
▁மாசற்ற	-5293
▁மாலைப்	-5294
▁ரஃபேல்	-5295
▁வழங்கு	-5296
▁வித்யா	-5297
▁வெறும்	-5298
ஜெயலலிதா	-5299
த்தலைவர்	-5300
த்தாலும்	-5301
மாட்டேன்	-5302
ருக்கும்	-5303
வில்லையா	-5304
வையில்லை	-5305
ஸ்வரூபம்	-5306
▁அடக்கம்	-5307
▁அட்வைஸ்	-5308
▁இணைந்து	-5309
▁இன்னொரு	-5310
▁இறைச்சி	-5311
▁இல்லையே	-5312
▁உயிரோடு	-5313
▁ஊருக்கு	-5314
▁ஏற்பாடு	-5315
▁கமல்ஹாச	-5316
▁கறுப்பு	-5317
▁கிண்டல்	-5318
▁குறைக்க	-5319
▁சிவசேனா	-5320
▁செயல்பட	-5321
▁செய்யத்	-5322
▁ட்ரெண்ட	-5323
▁தாண்டிய	-5324
▁திருடிய	-5325
▁தெரியாத	-5326
▁தொல்லை	-5327
▁தேவையான	-5328
▁நிரந்தர	-5329
▁நீங்கிய	-5330
▁நோக்கம்	-5331
▁பதக்கம்	-5332
▁பழமையான	-5333
▁பாய்ச்ச	-5334
▁பார்வதி	-5335
▁பெரிதாக	-5336
▁மதிப்பு	-5337
▁மறுநாள்	-5338
▁மறைந்து	-5339
▁மாற்றிய	-5340
▁யானைகள்	-5341
▁ராஜபக்ச	-5342
▁வலைத்தள	-5343
▁வாடிக்க	-5344
▁வாய்ப்ப	-5345
ங்களிலும்	-5346
ங்குகின்ற	-5347
த்திற்கான	-5348
புரத்தில்	-5349
ிருந்தால்	-5350
▁உற்சாகம்	-5351
▁எம்ஜிஆர்	-5352
▁ஏமாற்றம்	-5353
▁ஓட்டுநர்	-5354
▁கடவுளின்	-5355
▁காதலிக்க	-5356
▁குறிப்பு	-5357
▁கோயிலில்	-5358
▁கோவையில்	-5359
▁சீனாவில்	-5360
▁சூழ்ந்து	-5361
▁திவாகரன்	-5362
▁நற்பண்பு	-5363
▁நாஞ்சில்	-5364
▁நாட்டில்	-5365
▁பரிதாபம்	-5366
▁பாஜகவில்	-5367
▁பின்னால்	-5368
▁பெருகும்	-5369
▁மேற்பட்ட	-5370
▁மேலாண்மை	-5371
▁ராஜ்நாத்	-5372
▁வார்த்தை	-5373
க்கப்படும்	-5374
விலிருந்து	-5375
▁ஃபேஸ்புக்	-5376
▁அடுத்தவர்	-5377
▁இந்தியாவை	-5378
▁உயிருக்கு	-5379
▁எடுக்கும்	-5380
▁கட்சியில்	-5381
▁தரக்கூடிய	-5382
▁நிலத்தில்	-5383
▁பரிதாபமாக	-5384
▁பெங்களூரு	-5385
▁பொருள்களை	-5386
▁முற்றுகைய	-5387
▁வரிசையில்	-5388
▁வரித்துறை	-5389
▁விருப்பம்	-5390
▁அதிர்ச்சிய	-5391
▁ஆணையத்தில்	-5392
▁சிறப்புடைய	-5393
▁திட்டமிட்ட	-5394
▁துன்பங்கள்	-5395
▁தேவையில்லை	-5396
▁நள்ளிரவில்	-5397
▁பள்ளிகளில்	-5398
▁புற்றுநோய்	-5399
▁பெருமைக்கு	-5400
▁பெரும்பான்	-5401
▁முறியடித்த	-5402
▁விரும்பிப்	-5403
▁விவசாயிகளை	-5404
▁வெளிநாட்டு	-5405
வரிடத்திலும்	-5406
▁காத்திருந்த	-5407
▁குழந்தைக்கு	-5408
▁சந்திரசேகர்	-5409
▁சேப்பாக்கம்	-5410
▁மாற்றுத்திற	-5411
▁மைதானத்தில்	-5412
▁வாழ்க்கையின்	-5413
▁விண்ணப்பிக்க	-5414
▁வேண்டுமானால்	-5415
▁கட்டுப்படுத்த	-5416
▁செய்யமாட்டார்	-5417
▁திருமணத்திற்கு	-5418
இய	-5419
டெ	-5420
மள	-5421
யோ	-5422
லீ	-5423
வூ	-5424
டகள	-5425
டாக	-5426
நான	-5427
பாக	-5428
மயி	-5429
ளிட	-5430
வரோ	-5431
வீர	-5432
ோல்	-5433
”..	-5434
▁ஓய	-5435
▁வற	-5436
▁ஹூ	-5437
களாக	-5438
கேரள	-5439
க்கள	-5440
செல்	-5441
திர்	-5442
தைச்	-5443
த்தோ	-5444
னைத்	-5445
பகம்	-5446
பிள்	-5447
மகன்	-5448
மாரி	-5449
மின்	-5450
மேஷ்	-5451
ம்மு	-5452
ரஜின	-5453
ராம்	-5454
ராய்	-5455
றுதி	-5456
லியா	-5457
ழில்	-5458
வகைய	-5459
வோயி	-5460
ஷிப்	-5461
ஷ்பு	-5462
ஸ்ரீ	-5463
ாகம்	-5464
ாதல்	-5465
ானம்	-5466
ெல்வ	-5467
▁அஜீ	-5468
▁கெள	-5469
▁சமு	-5470
▁சாம	-5471
▁சும	-5472
▁சேத	-5473
▁திண	-5474
▁தூத	-5475
▁நடன	-5476
▁நட்	-5477
▁பசி	-5478
▁யாம	-5479
▁விஹ	-5480
▁வேல	-5481
இன்று	-5482
கொள்ள	-5483
சிகள்	-5484
டலில்	-5485
ட்டாக	-5486
மாடிய	-5487
ர்களே	-5488
வாசன்	-5489
ாச்சு	-5490
ாயின்	-5491
ாளராக	-5492
▁அணைய	-5493
▁அரவி	-5494
▁இவர்	-5495
▁உருவ	-5496
▁எஞ்ஞ	-5497
▁ஓடிய	-5498
▁கம்ப	-5499
▁களைக	-5500
▁சதவீ	-5501
▁சிக்	-5502
▁தடகள	-5503
▁தரும	-5504
▁தற்க	-5505
▁தார்	-5506
▁தூது	-5507
▁பழகு	-5508
▁பான்	-5509
▁பேடி	-5510
▁பேணி	-5511
▁போதை	-5512
▁மெசே	-5513
▁மொழி	-5514
▁ரியோ	-5515
▁வினா	-5516
க்குறை	-5517
க்கோரி	-5518
ங்கால்	-5519
சியில்	-5520
ண்டார்	-5521
த்தாள்	-5522
னியில்	-5523
படுத்த	-5524
பாயில்	-5525
ப்பாள்	-5526
மளிக்க	-5527
யாகும்	-5528
ராட்சி	-5529
றையும்	-5530
ளாகும்	-5531
ிறப்பு	-5532
▁அக்‌ஷ	-5533
▁அணிகல	-5534
▁அதைக்	-5535
▁அதைத்	-5536
▁அன்றி	-5537
▁அறிவை	-5538
▁இடையூ	-5539
▁இந்தி	-5540
▁இன்றி	-5541
▁உள்ளன	-5542
▁உள்ளே	-5543
▁ஒப்பி	-5544
▁கள்ளு	-5545
▁காதலை	-5546
▁கோடி	-5547
▁சன்னி	-5548
▁செயலி	-5549
▁செலவு	-5550
▁டீஸர்	-5551
▁தீபக்	-5552
▁துண்ட	-5553
▁நன்கொ	-5554
▁நோபல்	-5555
▁பகையை	-5556
▁பறக்க	-5557
▁பிஎஸ்	-5558
▁மகளிர	-5559
▁மறைவு	-5560
▁மின்க	-5561
▁மூத்த	-5562
▁ரஷ்யா	-5563
▁ரிஷப்	-5564
▁ரூபாய	-5565
▁வாழ்த	-5566
▁விற்ற	-5567
▁வீசிய	-5568
ங்கப்பா	-5569
ச்சொல்ல	-5570
த்தினர்	-5571
த்துவம்	-5572
ப்பூர்வ	-5573
மில்லாத	-5574
முறையாக	-5575
ல்களில்	-5576
வதற்கான	-5577
வற்றைக்	-5578
ாயினும்	-5579
ிகளுடன்	-5580
ையாகும்	-5581
▁அபாயம்	-5582
▁அர்ச்ச	-5583
▁அல்லர்	-5584
▁இத்தனை	-5585
▁இந்தக்	-5586
▁இல்லாம	-5587
▁உள்ளதை	-5588
▁ஒப்புர	-5589
▁ஒழிக்க	-5590
▁கடினம்	-5591
▁கட்சிய	-5592
▁கவுதம்	-5593
▁கிடந்த	-5594
▁குஷ்பு	-5595
▁கேண்மை	-5596
▁கொள்கை	-5597
▁கோடியா	-5598
▁சஞ்சய்	-5599
▁சால்பு	-5600
▁ட்விட்	-5601
▁தவித்த	-5602
▁தாமதம்	-5603
▁திண்டு	-5604
▁தினேஷ்	-5605
▁தென்னை	-5606
▁நிதிஷ்	-5607
▁நிலைமை	-5608
▁பரப்பு	-5609
▁பலியான	-5610
▁பிரதேச	-5611
▁பிரியா	-5612
▁புஜாரா	-5613
▁போதைப்	-5614
▁மகளின்	-5615
▁மாதவன்	-5616
▁மாதிரி	-5617
▁மாநாடு	-5618
▁மிரட்ட	-5619
▁மீண்டு	-5620
▁முடிவெ	-5621
▁மொபைல்	-5622
▁மோசமான	-5623
▁லண்டன்	-5624
▁வாய்மை	-5625
▁விக்கெ	-5626
▁விஜயன்	-5627
▁விடுதி	-5628
▁வீட்டை	-5629
▁வெட்டு	-5630
▁வென்று	-5631
ங்களுடன்	-5632
த்திக்கு	-5633
ப்படாமல்	-5634
ப்பிற்கு	-5635
ப்போகும்	-5636
வடசென்னை	-5637
வார்க்கு	-5638
விட்டேன்	-5639
வெடிப்பு	-5640
ஸ்தானில்	-5641
ாலும்கூட	-5642
▁அட்டாக்	-5643
▁அனுபவம்	-5644
▁அறிவும்	-5645
▁அவ்வாறு	-5646
▁ஆகையால்	-5647
▁ஆனாலும்	-5648
▁ஆயினும்	-5649
▁இடும்பை	-5650
▁உடையவன்	-5651
▁உண்ணும்	-5652
▁எதிர்கொ	-5653
▁எத்தகைய	-5654
▁கன்னியா	-5655
▁கருப்பு	-5656
▁கொண்டா	-5657
▁சம்பளம்	-5658
▁சின்மயி	-5659
▁சுற்றம்	-5660
▁சொல்லுக	-5661
▁சொல்வது	-5662
▁தரிசனம்	-5663
▁தினமும்	-5664
▁தீர்த்த	-5665
▁தொடரில்	-5666
▁நீங்கள்	-5667
▁படுகொலை	-5668
▁பணக்கார	-5669
▁பானர்ஜி	-5670
▁பிரசவம்	-5671
▁பிறந்து	-5672
▁மூழ்கிய	-5673
▁மெர்சல்	-5674
▁ரன்னில்	-5675
▁வங்கதேச	-5676
▁வருத்து	-5677
▁விதித்த	-5678
▁வில்லிய	-5679
▁விளங்கு	-5680
▁விவாதம்	-5681
▁ஸ்பெஷல்	-5682
துபதியின்	-5683
வர்க்குத்	-5684
▁அவர்க்கு	-5685
▁ஆவணங்கள்	-5686
▁இன்பத்தை	-5687
▁இருந்தது	-5688
▁இருப்பர்	-5689
▁இளையராஜா	-5690
▁எதிர்த்த	-5691
▁என்பதால்	-5692
▁குடிநீர்	-5693
▁குறிக்கோ	-5694
▁சாஸ்திரி	-5695
▁சிறந்தது	-5696
▁செய்தவர்	-5697
▁நிவாரணம்	-5698
▁படப்பிடி	-5699
▁பிரிவுத்	-5700
▁பெற்றோரை	-5701
▁போராடும்	-5702
▁போலீசில்	-5703
▁மகாராஷ்ட	-5704
▁மேற்கொள்	-5705
▁விஞ்ஞானி	-5706
▁வீட்டின்	-5707
▁வென்றார்	-5708
▁வெறுப்பு	-5709
▁வேண்டுமெ	-5710
ங்குகிறார்	-5711
த்துக்கும்	-5712
ப்பிடித்து	-5713
▁ஆண்டுகளாக	-5714
▁இல்லாதவரே	-5715
▁இளம்பெண்ண	-5716
▁எடுத்துச்	-5717
▁கண்காட்சி	-5718
▁காதலியின்	-5719
▁சமாஜ்வாதி	-5720
▁சொற்களைப்	-5721
▁சொல்கிறது	-5722
▁ட்ரம்பின்	-5723
▁தம்பிதுரை	-5724
▁நடிக்கும்	-5725
▁பாதுகாக்க	-5726
▁பெருமிதம்	-5727
▁மணிரத்னம்	-5728
▁மாதத்தில்	-5729
▁மாநிலங்கள	-5730
▁முடிவுகள்	-5731
▁மோகன்லால்	-5732
▁வங்கியில்	-5733
▁வருத்தும்	-5734
▁விலகினார்	-5735
ன்ஸ்பெக்டர்	-5736
▁ஆதித்யநாத்	-5737
▁எழுத்தாளர்	-5738
▁கெஜ்ரிவால்	-5739
▁கெடுக்கும்	-5740
▁கோவிலுக்கு	-5741
▁சிறுவர்கள்	-5742
▁நிதியமைச்ச	-5743
▁நீர்மட்டம்	-5744
▁பங்களாதேஷ்	-5745
▁படத்துக்கு	-5746
▁புத்தாண்டு	-5747
▁மதிப்பிலான	-5748
▁முதல்வரின்	-5749
▁மேற்கொண்டு	-5750
▁வீட்டிற்கு	-5751
▁இயக்கத்தில்	-5752
▁எஞ்ஞான்றும்	-5753
▁எதுவுமில்லை	-5754
▁கொண்டிருப்ப	-5755
▁நடுவுநிலைமை	-5756
▁நிறைவேற்றம்	-5757
▁போட்டிகளில்	-5758
▁மீட்கப்பட்ட	-5759
▁விருந்தினரை	-5760
▁தீவிரவாதிகள்	-5761
▁கருணாநிதியின்	-5762
▁கர்ப்பிணிக்கு	-5763
▁குடும்பத்தில்	-5764
▁துன்பத்தையும்	-5765
▁நம்பிக்கையில்	-5766
▁குண்டுவெடிப்பு	-5767
▁கொண்டிருக்கும்	-5768
▁பாகிஸ்தானுக்கு	-5769
'-	-5770
ஜே	-5771
லூ	-5772
”:	-5773
▁▁	-5774
?..	-5775
?”-	-5776
அப்	-5777
அழக	-5778
க்‌	-5779
ஜர்	-5780
டான	-5781
னவே	-5782
பெய	-5783
ப்க	-5784
மற்	-5785
மிழ	-5786
ளைய	-5787
வீன	-5788
ாரே	-5789
ாலை	-5790
ாலோ	-5791
ுன்	-5792
▁ஏல	-5793
அரசு	-5794
சாலி	-5795
ண்டே	-5796
தாகி	-5797
தாபி	-5798
நாளை	-5799
நியோ	-5800
பாக்	-5801
பாஜக	-5802
பாலா	-5803
புரா	-5804
பூர்	-5805
மாம்	-5806
மாள்	-5807
மெட்	-5808
ம்பை	-5809
ராக்	-5810
ரிமை	-5811
ரைத்	-5812
ர்த்	-5813
லகம்	-5814
ல்லா	-5815
வரான	-5816
விரோ	-5817
வேதா	-5818
ாலயா	-5819
ாள்க	-5820
ாவத்	-5821
ாவாக	-5822
ீங்க	-5823
்கூட	-5824
▁ஆகு	-5825
▁ஆத்	-5826
▁எரு	-5827
▁எவை	-5828
▁ஏழு	-5829
▁ஓடி	-5830
▁ஓரா	-5831
▁கமி	-5832
▁கவா	-5833
▁சால	-5834
▁சுய	-5835
▁ஜாக	-5836
▁டன்	-5837
▁தேய	-5838
▁பகி	-5839
▁படு	-5840
▁போற	-5841
▁மலர	-5842
▁மலி	-5843
▁மாம	-5844
▁முழ	-5845
▁வழு	-5846
கருணா	-5847
க்கண்	-5848
ச்சரி	-5849
ச்சாவ	-5850
ட்டன்	-5851
ட்டிச	-5852
ப்பொ	-5853
ரங்கு	-5854
வைத்த	-5855
ினாள்	-5856
ினுள்	-5857
ியைத்	-5858
ிறந்த	-5859
ில்தே	-5860
ுமார்	-5861
ும்பு	-5862
்தீப்	-5863
▁அபாய	-5864
▁அறிக	-5865
▁அறிவ	-5866
▁ஆங்க	-5867
▁இரவு	-5868
▁எனப்	-5869
▁ஏவுக	-5870
▁ஒருவ	-5871
▁கஞ்ச	-5872
▁கபடி	-5873
▁கரம்	-5874
▁காரை	-5875
▁காலா	-5876
▁குகை	-5877
▁கூர்	-5878
▁கோர	-5879
▁கொடை	-5880
▁தில்	-5881
▁தொழி	-5882
▁நமது	-5883
▁நெறி	-5884
▁நெல்	-5885
▁பலம்	-5886
▁புகா	-5887
▁புதி	-5888
▁புலி	-5889
▁பெல்	-5890
▁மறுப	-5891
▁ராணா	-5892
▁ராய்	-5893
▁ரெடி	-5894
▁லீக்	-5895
▁விசா	-5896
▁விண்	-5897
▁வேன்	-5898
▁வேளா	-5899
கொண்டு	-5900
டுக்கு	-5901
டைத்து	-5902
ட்டியை	-5903
த்தவர்	-5904
த்திரி	-5905
ந்தான்	-5906
பவரின்	-5907
பாலாஜி	-5908
பிஎஸ்இ	-5909
ப்பதாக	-5910
மைப்பு	-5911
ரியும்	-5912
ருந்து	-5913
ற்றிக்	-5914
ற்றுப்	-5915
ல்போர்	-5916
ழியும்	-5917
ாதீங்க	-5918
ார்களா	-5919
ிரம்ப்	-5920
ிழப்பு	-5921
ுகொள்ள	-5922
▁அச்சு	-5923
▁அணியை	-5924
▁இனிமை	-5925
▁இப்பூ	-5926
▁இயங்க	-5927
▁இரப்ப	-5928
▁இஸ்ரோ	-5929
▁ஊரார்	-5930
▁ஏற்பட	-5931
▁ஒத்து	-5932
▁ஒருவர	-5933
▁கங்கு	-5934
▁சேகர்	-5935
▁ஜம்மு	-5936
▁தண்ணீ	-5937
▁தந்து	-5938
▁தனியே	-5939
▁தலித்	-5940
▁திறம்	-5941
▁தீயவை	-5942
▁தூதர்	-5943
▁தோல்வ	-5944
▁நன்று	-5945
▁நவாஸ்	-5946
▁நிமிட	-5947
▁நியாய	-5948
▁நீதிய	-5949
▁நுட்ப	-5950
▁நுழைய	-5951
▁படேல்	-5952
▁பாடகி	-5953
▁பாலம்	-5954
▁பொய்	-5955
▁பொறு	-5956
▁பொறிய	-5957
▁போக்க	-5958
▁மல்யு	-5959
▁மானிய	-5960
▁மார்க	-5961
▁மின்ன	-5962
▁முகாம	-5963
▁முற்ற	-5964
▁வாடகை	-5965
▁வாடிய	-5966
களையும்	-5967
த்தியாச	-5968
ப்பதும்	-5969
மாகிறது	-5970
றையினர்	-5971
ாருக்கு	-5972
ிகையில்	-5973
ிருஷ்ணா	-5974
▁அனுபவி	-5975
▁அறிமுக	-5976
▁அறியாம	-5977
▁அவரைத்	-5978
▁அவரைப்	-5979
▁ஆற்றலை	-5980
▁இதற்கு	-5981
▁உங்கள்	-5982
▁எக்கால	-5983
▁ஓவரில்	-5984
▁சரியான	-5985
▁சித்து	-5986
▁சிவாஜி	-5987
▁சுனில்	-5988
▁டிஜிபி	-5989
▁தள்ளிய	-5990
▁தீவினை	-5991
▁தோன்று	-5992
▁நிலக்க	-5993
▁நேரும்	-5994
▁பயனும்	-5995
▁பாஜகவை	-5996
▁பிரச்ச	-5997
▁பிரமுக	-5998
▁போராடு	-5999
▁மலையாள	-6000
▁மார்ச்	-6001
▁மாவோயி	-6002
▁முகமது	-6003
▁முடிவை	-6004
▁ராஜமவு	-6005
▁ரெய்டு	-6006
▁ரோஹிங்	-6007
▁வரம்பு	-6008
▁வறுமைய	-6009
▁வழங்கி	-6010
▁விதிமீ	-6011
▁விலகிய	-6012
▁வைரலான	-6013
▁ஷங்கர்	-6014
இந்தியன்	-6015
ட்டியின்	-6016
த்திரிகை	-6017
ப்பூரில்	-6018
ப்பொருள்	-6019
ற்கிறார்	-6020
வோர்க்கு	-6021
▁ஃபேஸ்பு	-6022
▁அடியில்	-6023
▁அதிகமாக	-6024
▁அனிருத்	-6025
▁அப்போது	-6026
▁அவசியம்	-6027
▁இடித்து	-6028
▁இணைப்பு	-6029
▁இறுதிப்	-6030
▁இஸ்ரேல்	-6031
▁உடைப்பு	-6032
▁உண்டால்	-6033
▁உயிரும்	-6034
▁உயிரைக்	-6035
▁எண்ணிக்	-6036
▁எண்ணும்	-6037
▁எண்ணெய்	-6038
▁எதையும்	-6039
▁கடித்து	-6040
▁கணவரின்	-6041
▁கபில்தே	-6042
▁கிரண்பே	-6043
▁கூறுவது	-6044
▁கொள்வதே	-6045
▁சதவீதம்	-6046
▁சாத்திய	-6047
▁சூதாட்ட	-6048
▁சென்றது	-6049
▁செயலைத்	-6050
▁செய்வதை	-6051
▁சொன்னது	-6052
▁சோம்பல்	-6053
▁டிரம்ப்	-6054
▁தடுப்பு	-6055
▁தன்மையை	-6056
▁தாக்கரே	-6057
▁நுழைந்த	-6058
▁நெட்டிச	-6059
▁நோக்கிய	-6060
▁பண்டிகை	-6061
▁பண்பும்	-6062
▁பார்வைய	-6063
▁பிரதமரை	-6064
▁புகுந்த	-6065
▁புறங்கூ	-6066
▁போலீசார	-6067
▁மனிதாபி	-6068
▁மன்னவன்	-6069
▁முடிந்த	-6070
▁மேகாலயா	-6071
▁விரக்தி	-6072
▁வெட்டிய	-6073
▁வேந்தன்	-6074
▁ஹர்பஜன்	-6075
களுக்கும்	-6076
ப்பட்டால்	-6077
ப்ரமணியன்	-6078
விஸ்வாசம்	-6079
ிகளுக்காக	-6080
▁அஞ்சாமல்	-6081
▁அறிமுகம்	-6082
▁அழியாமல்	-6083
▁இரண்டும்	-6084
▁உயிர்கள்	-6085
▁எண்ணாமல்	-6086
▁எனக்குத்	-6087
▁ஒருவரின்	-6088
▁குல்தீப்	-6089
▁கொண்டால்	-6090
▁சிபிஎஸ்இ	-6091
▁செந்தில்	-6092
▁செய்தேன்	-6093
▁செய்வார்	-6094
▁சேர்ப்பு	-6095
▁சொன்னால்	-6096
▁சொல்லின்	-6097
▁சொல்லைக்	-6098
▁ட்ரெண்ட்	-6099
▁தம்முடைய	-6100
▁திரிபுரா	-6101
▁நமக்குத்	-6102
▁பயக்கும்	-6103
▁பறக்கும்	-6104
▁பாணியில்	-6105
▁பெரியாறு	-6106
▁பேருக்கு	-6107
▁மகளுக்கு	-6108
▁மணந்தார்	-6109
▁மாட்டேன்	-6110
▁முன்னால்	-6111
▁முல்லைப்	-6112
▁ரயில்கள்	-6113
▁வழக்குப்	-6114
▁வாய்ப்பை	-6115
க்கெடுப்பு	-6116
ப்படுகின்ற	-6117
ப்பட்டுள்ள	-6118
்ச்செல்வன்	-6119
▁அஜித்தின்	-6120
▁அடிப்படைய	-6121
▁அதிருப்தி	-6122
▁அமைச்சரவை	-6123
▁அழிக்கும்	-6124
▁ஆண்டுக்கு	-6125
▁இரண்டாவது	-6126
▁இறுதிப்போ	-6127
▁உயிரையும்	-6128
▁கண்டித்து	-6129
▁கருதப்படு	-6130
▁காணவில்லை	-6131
▁குடும்பப்	-6132
▁குற்றத்தை	-6133
▁கூடுகிறது	-6134
▁சசிகுமார்	-6135
▁சிதம்பரம்	-6136
▁செயலையும்	-6137
▁செயல்பட்ட	-6138
▁சொற்களைக்	-6139
▁சோதனையில்	-6140
▁திட்டத்தை	-6141
▁நடிகைக்கு	-6142
▁நிறுத்திய	-6143
▁நிற்காமல்	-6144
▁நீங்காமல்	-6145
▁நொறுக்கிய	-6146
▁பிரதமரின்	-6147
▁முகத்தில்	-6148
▁முக்கியம்	-6149
▁மேற்கொண்ட	-6150
▁வருந்தும்	-6151
▁வாக்குகள்	-6152
▁வித்தியாச	-6153
▁விவரங்களை	-6154
தமிழகத்தில்	-6155
ப்படுத்தும்	-6156
மாணிக்கவேல்	-6157
▁ஆட்சியாளர்	-6158
▁இலங்கையில்	-6159
▁உறவினர்கள்	-6160
▁உள்ளத்தில்	-6161
▁காணப்படும்	-6162
▁காதலர்க்கு	-6163
▁குழந்தைகளை	-6164
▁கொண்டாடும்	-6165
▁சிறுமியின்	-6166
▁செயல்களில்	-6167
▁சொன்னாலும்	-6168
▁தாய்லாந்து	-6169
▁திருவாரூர்	-6170
▁துன்பமானது	-6171
▁தோல்விக்கு	-6172
▁பார்த்துக்	-6173
▁மிகப்பெரிய	-6174
▁ரஜினியுடன்	-6175
▁அறிவுடையார்	-6176
▁ஆதரவாளர்கள்	-6177
▁ஆஸ்திரேலியா	-6178
▁இல்வாழ்க்கை	-6179
▁குஜராத்தில்	-6180
▁கொள்வார்கள்	-6181
▁சர்ச்சைக்கு	-6182
▁திண்டுக்கல்	-6183
▁பதறவைக்கும்	-6184
▁மன்னிப்புக்	-6185
▁வாக்குவாதம்	-6186
▁விரும்பாமல்	-6187
▁விற்பனைக்கு	-6188
▁திருவாரூரில்	-6189
▁மாட்டிறைச்சி	-6190
▁முதல்வருக்கு	-6191
▁வேட்பாளர்கள்	-6192
▁இருக்கும்போது	-6193
▁தமிழ்நாட்டில்	-6194
▁பணப்பட்டுவாடா	-6195
▁துப்பாக்கியால்	-6196
▁பத்திரிகையாளர்	-6197
▁நிறுவனங்களுக்கு	-6198
தவ	-6199
வய	-6200
ீர	-6201
▁"	-6202
▁#	-6203
▁ன	-6204
அதி	-6205
இனி	-6206
கண்	-6207
கிர	-6208
சாம	-6209
ஜல்	-6210
ஜ்ம	-6211
த்ம	-6212
த்ர	-6213
நோய	-6214
படு	-6215
மிக	-6216
லோர	-6217
விப	-6218
ாவோ	-6219
ிடை	-6220
ினு	-6221
ீல்	-6222
ுகை	-6223
ேம்	-6224
▁ஐஏ	-6225
▁சட	-6226
▁ரண	-6227
?...	-6228
கால்	-6229
ங்க்	-6230
செய்	-6231
டுக்	-6232
ண்ணு	-6233
தற்க	-6234
தாம்	-6235
திக்	-6236
தைத்	-6237
தோனி	-6238
நாவு	-6239
ப்பய	-6240
மாகி	-6241
ம்யூ	-6242
யிலை	-6243
ரெட்	-6244
ர்கள	-6245
ழுதி	-6246
வங்க	-6247
வர்த	-6248
வெறி	-6249
ாகச்	-6250
▁அச்	-6251
▁அணு	-6252
▁அரண	-6253
▁இதை	-6254
▁ஈகை	-6255
▁ஊடக	-6256
▁ஊடு	-6257
▁எவர	-6258
▁சமர	-6259
▁தாள	-6260
▁படே	-6261
▁பாச	-6262
▁மடி	-6263
▁விச	-6264
என்னை	-6265
கேப்ட	-6266
க்கொ	-6267
சக்கர	-6268
சல்யா	-6269
சாகர்	-6270
டியான	-6271
டெல்ல	-6272
ட்பம்	-6273
தராபா	-6274
திபதி	-6275
நாதன்	-6276
ன்கண்	-6277
ன்பம்	-6278
பாட்ட	-6279
மாக்க	-6280
ம்பிய	-6281
ற்றல்	-6282
விடுக	-6283
ாதான்	-6284
ான்று	-6285
ாப்வே	-6286
ார்த்	-6287
ாவார்	-6288
ிற்று	-6289
ொட்டி	-6290
ோக்ஸ்	-6291
▁ஃபெட	-6292
▁அங்க	-6293
▁அமர்	-6294
▁அரசா	-6295
▁உணவை	-6296
▁உற்ப	-6297
▁ஊடலை	-6298
▁எள்ள	-6299
▁எஸ்ட	-6300
▁ஏப்ர	-6301
▁ஐஐடி	-6302
▁ஐம்ப	-6303
▁கழிவ	-6304
▁காளை	-6305
▁கீழே	-6306
▁குரே	-6307
▁குரோ	-6308
▁கேக்	-6309
▁கேன்	-6310
▁கேள்	-6311
▁கையை	-6312
▁சமம்	-6313
▁சிதை	-6314
▁சீல்	-6315
▁சுடு	-6316
▁ஜெயி	-6317
▁தகரா	-6318
▁தோல்	-6319
▁நக்ச	-6320
▁நல்க	-6321
▁படகு	-6322
▁பலன்	-6323
▁பாலை	-6324
▁பாவி	-6325
▁போன்	-6326
▁மங்க	-6327
▁மயில	-6328
▁ராஜூ	-6329
▁லைவ்	-6330
▁வளர்	-6331
▁வான்	-6332
▁விடை	-6333
▁வெல்	-6334
▁வைகை	-6335
களுடன்	-6336
த்திக்	-6337
ந்தின்	-6338
பாசிட்	-6339
போகும்	-6340
ப்பிங்	-6341
ப்பைக்	-6342
ர்தான்	-6343
லையும்	-6344
ளுக்கே	-6345
வின்றி	-6346
ஸ்டில்	-6347
ாகவும்	-6348
ீர்களா	-6349
ெல்வம்	-6350
ையாடிய	-6351
▁அதில்	-6352
▁அதையே	-6353
▁அன்றோ	-6354
▁அப்து	-6355
▁அறவழி	-6356
▁ஆயுள்	-6357
▁இட்லி	-6358
▁இன்மை	-6359
▁உயிரு	-6360
▁எஸ்பி	-6361
▁ஐஏஎஸ்	-6362
▁ஐடியா	-6363
▁ஒருவன	-6364
▁ஒற்று	-6365
▁கடக்க	-6366
▁கடலோர	-6367
▁கம்யூ	-6368
▁கருகி	-6369
▁கலந்த	-6370
▁காமன்	-6371
▁குட்ட	-6372
▁கோட்ட	-6373
▁கோரின	-6374
▁சம்பா	-6375
▁சிரிய	-6376
▁சீரிய	-6377
▁சூரிய	-6378
▁செயலா	-6379
▁ஜாதவ்	-6380
▁ஜிம்ப	-6381
▁தலைகு	-6382
▁தின்ப	-6383
▁துறவி	-6384
▁தொடரை	-6385
▁தோள்க	-6386
▁நீதிப	-6387
▁நீந்த	-6388
▁நூல்க	-6389
▁நெறிய	-6390
▁நெல்ல	-6391
▁பணியா	-6392
▁பயிர்	-6393
▁பாடிய	-6394
▁பிறன்	-6395
▁பொது	-6396
▁போவது	-6397
▁மகேஷ்	-6398
▁மசூதி	-6399
▁மண்டல	-6400
▁மனத்த	-6401
▁மானம்	-6402
▁மாயம்	-6403
▁மாறான	-6404
▁மூவர்	-6405
▁மெலிய	-6406
▁மேட்ட	-6407
▁மேனன்	-6408
▁மோடிய	-6409
▁வானம்	-6410
▁வாயில	-6411
▁விடக்	-6412
▁விடத்	-6413
▁வேந்த	-6414
க்காரர்	-6415
ங்கோவன்	-6416
ச்சென்ற	-6417
ண்டனில்	-6418
தார்த்த	-6419
த்தொடர்	-6420
பாலியல்	-6421
மேகதாது	-6422
மையாகப்	-6423
ம்பரில்	-6424
ருக்காக	-6425
வைகளைச்	-6426
ாளர்களை	-6427
ீர்கான்	-6428
ெடுத்து	-6429
▁அரிவாள	-6430
▁அவனைப்	-6431
▁அவரோடு	-6432
▁ஆர்வம்	-6433
▁ஆற்றலு	-6434
▁இழிந்த	-6435
▁உதவியை	-6436
▁ஊதியம்	-6437
▁எங்களை	-6438
▁எதற்கு	-6439
▁எந்தத்	-6440
▁என்கவு	-6441
▁எரிந்த	-6442
▁ஒற்றர்	-6443
▁கல்விய	-6444
▁காலிறு	-6445
▁கேடும்	-6446
▁கொண்டே	-6447
▁கொலையா	-6448
▁சங்கர்	-6449
▁சடலமாக	-6450
▁சதவிகி	-6451
▁சல்மான	-6452
▁சிந்தி	-6453
▁சிந்து	-6454
▁சுடும்	-6455
▁சூசகம்	-6456
▁சொல்லா	-6457
▁டிக்கெ	-6458
▁தமன்னா	-6459
▁தலைமறை	-6460
▁தாத்தா	-6461
▁திடுக்	-6462
▁தொடக்க	-6463
▁தோளில்	-6464
▁நடிகைய	-6465
▁நாராயண	-6466
▁நிச்சய	-6467
▁நிலநடு	-6468
▁நூற்றா	-6469
▁நெடுவா	-6470
▁நேற்று	-6471
▁பட்டம்	-6472
▁பதிலாக	-6473
▁பிரசார	-6474
▁பைக்கு	-6475
▁போக்கி	-6476
▁மலரும்	-6477
▁மவுனம்	-6478
▁முடக்க	-6479
▁முதலிய	-6480
▁முத்து	-6481
▁மேன்மை	-6482
▁மேற்கு	-6483
▁ராக்கி	-6484
▁ரீமேக்	-6485
▁வருவது	-6486
▁விடுதல	-6487
▁விளைவி	-6488
▁விளைவு	-6489
▁வெட்டி	-6490
▁வேறுபா	-6491
▁ஷாரூக்	-6492
டும்போது	-6493
நக்கீரன்	-6494
மையிலும்	-6495
லிருந்து	-6496
▁அணிந்து	-6497
▁அர்ஜூன்	-6498
▁அவ்வளவு	-6499
▁ஆபத்தான	-6500
▁இடையில்	-6501
▁இயக்குந	-6502
▁இயல்பான	-6503
▁இல்லாது	-6504
▁இளவரசர்	-6505
▁உதயநிதி	-6506
▁உத்தரவை	-6507
▁எனினும்	-6508
▁என்னால்	-6509
▁கண்ணாடி	-6510
▁கிராமம்	-6511
▁குறித்த	-6512
▁குறையாத	-6513
▁கொள்வர்	-6514
▁சுற்றிய	-6515
▁செய்தல்	-6516
▁சொந்தம்	-6517
▁தம்மைக்	-6518
▁தளராமல்	-6519
▁தீர்மான	-6520
▁துன்பமே	-6521
▁தோற்றம்	-6522
▁நன்கொடை	-6523
▁நாய்கள்	-6524
▁பதற்றம்	-6525
▁பற்றிப்	-6526
▁பிறகும்	-6527
▁பெறலாம்	-6528
▁பெற்றது	-6529
▁பொறாமை	-6530
▁பொருத்த	-6531
▁மயக்கம்	-6532
▁மிகவும்	-6533
▁முடித்த	-6534
▁வருந்தி	-6535
▁வளர்ச்ச	-6536
▁வாழ்வதே	-6537
▁விதிக்க	-6538
▁வியந்து	-6539
▁விரட்டி	-6540
▁விலக்கி	-6541
▁வெளிச்ச	-6542
க்களுக்கு	-6543
ங்களையும்	-6544
த்துக்காக	-6545
ப்பட்டவர்	-6546
ம்பிடித்த	-6547
▁அப்படிச்	-6548
▁அழுத்தம்	-6549
▁இனத்தின்	-6550
▁இருசக்கர	-6551
▁உடலுக்கு	-6552
▁உருவானது	-6553
▁உறுதியாக	-6554
▁எம்பிக்க	-6555
▁கிரிக்கெ	-6556
▁குற்றப்ப	-6557
▁குழப்பம்	-6558
▁கேட்டார்	-6559
▁சென்றார்	-6560
▁செய்வோம்	-6561
▁சைக்கிள்	-6562
▁தனக்குத்	-6563
▁தம்மிடம்	-6564
▁தாக்கும்	-6565
▁திருச்செ	-6566
▁திருநாவு	-6567
▁திருவள்ள	-6568
▁தீர்ப்பை	-6569
▁தெலுங்கு	-6570
▁தொடர்பான	-6571
▁நள்ளிரவு	-6572
▁நாகையில்	-6573
▁நிச்சயம்	-6574
▁நிவாரணப்	-6575
▁படக்குழு	-6576
▁பண்புடைய	-6577
▁புகுந்து	-6578
▁பெரியார்	-6579
▁பொருந்தி	-6580
▁போன்றவர்	-6581
▁போர்க்கள	-6582
▁மதுக்கடை	-6583
▁முடிவில்	-6584
▁வங்கிகள்	-6585
▁வாழ்பவர்	-6586
▁விட்டுக்	-6587
▁விருந்தோ	-6588
▁வேறுபட்ட	-6589
▁ஹெல்மெட்	-6590
▁அதிகரிக்க	-6591
▁அதிரடியாக	-6592
▁அமீர்கான்	-6593
▁அவர்களின்	-6594
▁இடமாற்றம்	-6595
▁உலகத்தார்	-6596
▁எதிர்பார்	-6597
▁கபில்தேவ்	-6598
▁சொல்லாமல்	-6599
▁நன்மையும்	-6600
▁நிரூபிக்க	-6601
▁நிறைவேற்ற	-6602
▁பயனில்லாத	-6603
▁புகழ்ந்து	-6604
▁புகார்கள்	-6605
▁புத்தாண்ட	-6606
▁பெண்ணிடம்	-6607
▁மதிப்பெண்	-6608
▁மதுரையில்	-6609
▁மீனவர்களை	-6610
▁ரன்னுக்கு	-6611
▁ராஜேந்திர	-6612
▁வழக்குகள்	-6613
▁வாருங்கள்	-6614
▁விஸ்வாசம்	-6615
▁வீரருக்கு	-6616
க்கப்பட்டது	-6617
▁அஞ்சுகின்ற	-6618
▁ஆளுநருக்கு	-6619
▁இப்படியும்	-6620
▁இருப்பதால்	-6621
▁எங்களுக்கு	-6622
▁கேட்கிறார்	-6623
▁சுங்கச்சாவ	-6624
▁சுட்டுக்கொ	-6625
▁செயல்படும்	-6626
▁சேர்க்கும்	-6627
▁ஜிம்பாப்வே	-6628
▁தள்ளிவிட்ட	-6629
▁திருவடிகளை	-6630
▁திரைப்படம்	-6631
▁தீர்க்கும்	-6632
▁பகைவர்க்கு	-6633
▁பார்த்தால்	-6634
▁பாஸ்போர்ட்	-6635
▁மனைவியிடம்	-6636
▁முடிக்கும்	-6637
▁விஸ்வரூபம்	-6638
▁வீரர்களின்	-6639
▁அறிவுடையோர்	-6640
▁இந்தியாவில்	-6641
▁இல்லாதவனாய்	-6642
▁உள்ளாட்சித்	-6643
▁ஏற்படுத்திய	-6644
▁சர்ச்சையில்	-6645
▁செய்யவில்லை	-6646
▁துரைமுருகன்	-6647
▁நாட்களுக்கு	-6648
▁நிலத்திற்கு	-6649
▁நிலநடுக்கம்	-6650
▁பயணிகளுக்கு	-6651
▁பல்கலைக்கழக	-6652
▁பிரச்னையில்	-6653
▁பிறர்க்குக்	-6654
▁மாணவர்களின்	-6655
▁விசாரணைக்கு	-6656
▁வெள்ளத்தால்	-6657
▁கொள்ளையர்கள்	-6658
▁நினைத்தாலும்	-6659
▁முதலமைச்சராக	-6660
▁விவசாயிகளின்	-6661
▁சாம்பியன்ஷிப்	-6662
▁திறக்கப்படும்	-6663
▁விருந்தினரைப்	-6664
▁எக்காலத்திலும்	-6665
▁எல்லாவற்றிலும்	-6666
▁கல்லூரிகளுக்கு	-6667
▁படப்பிடிப்பில்	-6668
▁பதவியேற்கிறார்	-6669
▁நம்பிக்கையில்லா	-6670
':	-6671
கட	-6672
சய	-6673
தர	-6674
நு	-6675
னக	-6676
பீ	-6677
மய	-6678
ரக	-6679
ழீ	-6680
வக	-6681
ோ	-6682
ோக	-6683
’ 	-6684
..”	-6685
ஐபி	-6686
கத்	-6687
கவு	-6688
ங்ட	-6689
சாவ	-6690
நாட	-6691
பாள	-6692
மேய	-6693
ரிக	-6694
வணை	-6695
வளே	-6696
ஷர்	-6697
ானை	-6698
ாரண	-6699
ினா	-6700
ிழை	-6701
ொடி	-6702
▁ஆற	-6703
▁எம	-6704
▁கவ	-6705
▁டொ	-6706
▁தண	-6707
▁தல	-6708
எனது	-6709
குடி	-6710
கைமை	-6711
சாரி	-6712
சார்	-6713
சிங்	-6714
சுவா	-6715
சேகர	-6716
தல்ல	-6717
நீதி	-6718
னியை	-6719
ன்னு	-6720
பியா	-6721
போம்	-6722
முதல	-6723
மையா	-6724
ராஜே	-6725
ராவை	-6726
ரீத்	-6727
ருள்	-6728
ர்கு	-6729
ர்மீ	-6730
றின்	-6731
லோக்	-6732
ளையே	-6733
வத்த	-6734
வாமை	-6735
வாரோ	-6736
ஷியா	-6737
ஸின்	-6738
ாகப்	-6739
ாரிட	-6740
ிர்த	-6741
ிற்ற	-6742
ொடு	-6743
ேசன்	-6744
▁அதே	-6745
▁அளவ	-6746
▁ஆடி	-6747
▁ஆடு	-6748
▁உதவ	-6749
▁ஐடி	-6750
▁ஒகி	-6751
▁கலெ	-6752
▁கிண	-6753
▁கிழ	-6754
▁சரத	-6755
▁சுழ	-6756
▁தர்	-6757
▁தீர	-6758
▁பூம	-6759
▁போட	-6760
▁மொழ	-6761
கேஎஸ்	-6762
க்கச்	-6763
ங்களா	-6764
சக்தி	-6765
ண்ட்ட	-6766
ண்ணிய	-6767
தத்தை	-6768
த்தலே	-6769
த்தாக	-6770
த்திட	-6771
த்யான	-6772
நெஞ்ச	-6773
ப்பிட	-6774
மாகப்	-6775
ம்கள்	-6776
ம்பல்	-6777
ரஜினி	-6778
ரியம்	-6779
ரேஷன்	-6780
ற்செய	-6781
ளாகக்	-6782
ழுத்த	-6783
வாரஸ்	-6784
வாரிய	-6785
விடத்	-6786
வைகளை	-6787
ாரும்	-6788
ிராஜ்	-6789
ிலேஷ்	-6790
ெட்ச்	-6791
ெனின்	-6792
ோவில்	-6793
▁அகர்	-6794
▁அக்ட	-6795
▁அழகி	-6796
▁அழுத	-6797
▁இசைய	-6798
▁இனம்	-6799
▁உங்க	-6800
▁உரிம	-6801
▁உறவை	-6802
▁எவர்	-6803
▁ஏறிய	-6804
▁ஐந்த	-6805
▁கட்க	-6806
▁கல்வ	-6807
▁கஷ்ட	-6808
▁காது	-6809
▁குடை	-6810
▁சரண்	-6811
▁சாமி	-6812
▁சீனி	-6813
▁சூழ்	-6814
▁செக்	-6815
▁சோர்	-6816
▁ஜெய்	-6817
▁தடைய	-6818
▁தாதா	-6819
▁தாஸ்	-6820
▁நடமா	-6821
▁நட்ட	-6822
▁நானா	-6823
▁நீரி	-6824
▁நோயை	-6825
▁படாஅ	-6826
▁பதிய	-6827
▁பயணி	-6828
▁பயிர	-6829
▁பராம	-6830
▁பரித	-6831
▁பூமி	-6832
▁முறி	-6833
▁லியோ	-6834
▁வண்ட	-6835
▁வராத	-6836
▁வாலி	-6837
▁விநோ	-6838
▁வெகு	-6839
▁வேதா	-6840
▁ஷாரு	-6841
▁ஹரிய	-6842
▁ஹிட்	-6843
▁ஹெட்	-6844
என்எல்	-6845
காரில்	-6846
கிறாரா	-6847
கையால்	-6848
க்கொள்	-6849
ங்கோல்	-6850
ச்செயல	-6851
டைக்கு	-6852
ண்டிங்	-6853
தியால்	-6854
த்தொகை	-6855
நாட்டு	-6856
நாளில்	-6857
னால்டோ	-6858
னைத்து	-6859
பொருள்	-6860
முக்கு	-6861
ராகுல்	-6862
ரியாறு	-6863
ரையும்	-6864
ற்றுள்	-6865
ளிடையே	-6866
ளியில்	-6867
வருடன்	-6868
விலேயே	-6869
ஸ்கிரு	-6870
ாமலேயே	-6871
ார்கண்	-6872
ார்க்க	-6873
ாளரின்	-6874
ியிடம்	-6875
ுக்காக	-6876
ொருவர்	-6877
▁ஃபார்	-6878
▁அனிதா	-6879
▁அம்ரு	-6880
▁அருமை	-6881
▁அஸ்வி	-6882
▁ஆடியோ	-6883
▁ஆத்மி	-6884
▁எளிது	-6885
▁எழுதி	-6886
▁கண்டெ	-6887
▁கற்பு	-6888
▁கலக்க	-6889
▁காஜல்	-6890
▁காய்க	-6891
▁கின்ன	-6892
▁குரல்	-6893
▁கைதான	-6894
▁கொந்த	-6895
▁சட்டச	-6896
▁சாமிய	-6897
▁சுத்த	-6898
▁செல்ப	-6899
▁ஜனவரி	-6900
▁தகனம்	-6901
▁தாஜ்ம	-6902
▁தியாக	-6903
▁திறமை	-6904
▁நல்வழ	-6905
▁நாடுக	-6906
▁நாயகி	-6907
▁நிறைய	-6908
▁நேபாள	-6909
▁பங்கு	-6910
▁பரப்ப	-6911
▁பரோல்	-6912
▁பாம்ப	-6913
▁பிரமா	-6914
▁புகழு	-6915
▁பேரவை	-6916
▁பொதும	-6917
▁மற்று	-6918
▁மிகப்	-6919
▁முதலை	-6920
▁யோசனை	-6921
▁ரஹானே	-6922
▁ரெக்க	-6923
▁வஞ்சக	-6924
▁வதந்த	-6925
▁வயதான	-6926
▁வர்தா	-6927
▁வாரம்	-6928
▁விலகி	-6929
▁ஹேக்க	-6930
▁ஹோட்ட	-6931
களாகும்	-6932
கிரிக்க	-6933
க்கரசர்	-6934
ங்களைச்	-6935
ங்குகிற	-6936
த்ததால்	-6937
பாகுபலி	-6938
ப்படாது	-6939
ப்படுமா	-6940
முகசாமி	-6941
ினுக்கு	-6942
ிலையில்	-6943
ுமானால்	-6944
▁அடைவர்	-6945
▁அமிர்த	-6946
▁அரும்ப	-6947
▁அறமும்	-6948
▁அலைக்க	-6949
▁இளவரசி	-6950
▁உடம்பை	-6951
▁உருக்க	-6952
▁என்கிற	-6953
▁ஏடிஎம்	-6954
▁ஏவுகணை	-6955
▁ஓட்டிய	-6956
▁கடவுள்	-6957
▁கலாச்ச	-6958
▁கழன்று	-6959
▁காலில்	-6960
▁கோட்டை	-6961
▁கோவில்	-6962
▁சத்திய	-6963
▁சர்க்க	-6964
▁சாய்னா	-6965
▁சிரியா	-6966
▁சிலையை	-6967
▁செல்போ	-6968
▁ஜனநாயக	-6969
▁தங்கல்	-6970
▁தஞ்சம்	-6971
▁தயாராக	-6972
▁தாழ்வு	-6973
▁திரையர	-6974
▁தூக்கு	-6975
▁தொழில	-6976
▁தோனியை	-6977
▁தோன்றி	-6978
▁நம்பர்	-6979
▁நல்லவை	-6980
▁நிதின்	-6981
▁பக்கம்	-6982
▁படியாக	-6983
▁படேகர்	-6984
▁பணத்தை	-6985
▁பறித்த	-6986
▁பல்லவி	-6987
▁பழங்கு	-6988
▁பெரிது	-6989
▁பேதைமை	-6990
▁போடும்	-6991
▁மார்க்	-6992
▁மூக்கு	-6993
▁மெசேஜ்	-6994
▁மேட்ச்	-6995
▁ரசிகர்	-6996
▁வண்ணம்	-6997
▁வாகனம்	-6998
▁விற்று	-6999
▁விஹாரி	-7000
▁வெயில்	-7001
▁வைப்பு	-7002
▁ஹேப்பி	-7003
க்கிடையே	-7004
புரியில்	-7005
ப்பினும்	-7006
மிருந்து	-7007
மூர்த்தி	-7008
மேயானால்	-7009
வதற்குக்	-7010
வர்களைப்	-7011
வுக்கும்	-7012
வேறுபாடு	-7013
ாளருக்கு	-7014
ாவார்கள்	-7015
ினருக்கு	-7016
ிருக்கிற	-7017
ிருப்பதே	-7018
ொழுக்கம்	-7019
▁அகிலேஷ்	-7020
▁அக்‌ஷய்	-7021
▁அமலாக்க	-7022
▁அமைந்து	-7023
▁ஆண்டில்	-7024
▁ஆற்றின்	-7025
▁ஆற்றில்	-7026
▁இடிந்து	-7027
▁இண்டிகோ	-7028
▁இன்சொல்	-7029
▁இருக்கை	-7030
▁இவளுடைய	-7031
▁உணர்த்த	-7032
▁ஊர்வலம்	-7033
▁எங்கும்	-7034
▁எனப்படு	-7035
▁என்னைக்	-7036
▁எளிதில்	-7037
▁கங்குலி	-7038
▁கட்டும்	-7039
▁கழுத்தை	-7040
▁கார்பன்	-7041
▁காவல்து	-7042
▁கிருஷ்ண	-7043
▁குதித்த	-7044
▁குறைந்த	-7045
▁கூடியது	-7046
▁கொஞ்சம்	-7047
▁கொன்றது	-7048
▁சடலத்தை	-7049
▁சினத்தை	-7050
▁சுந்தர்	-7051
▁சுவாரஸ்	-7052
▁செயலால்	-7053
▁செல்லாத	-7054
▁தண்டவாள	-7055
▁தனுஷின்	-7056
▁தன்னைக்	-7057
▁தன்னைச்	-7058
▁தெளிவாக	-7059
▁நட்பின்	-7060
▁நன்மையை	-7061
▁நவம்பர்	-7062
▁நெஞ்சமே	-7063
▁பணிந்து	-7064
▁பெருந்த	-7065
▁பெறுவது	-7066
▁பொருளை	-7067
▁பேராயர்	-7068
▁மலர்ந்த	-7069
▁மாணவியை	-7070
▁லிட்டர்	-7071
▁வகையில்	-7072
▁வடமாநில	-7073
▁வழிபாடு	-7074
▁வாய்ந்த	-7075
▁வாரியர்	-7076
▁வியாபார	-7077
▁விளம்பர	-7078
▁வீடுகள்	-7079
▁வெடிக்க	-7080
▁வெற்றிய	-7081
▁வெளியிட	-7082
கிறார்கள்	-7083
ச்சரிவில்	-7084
ற்றுங்கள்	-7085
வத்துக்கு	-7086
ெடுக்கும்	-7087
▁அரசனுடைய	-7088
▁அரசிற்கு	-7089
▁அறிவில்ல	-7090
▁அவற்றின்	-7091
▁ஆராயாமல்	-7092
▁இந்தியர்	-7093
▁இயக்கும்	-7094
▁இல்லாதது	-7095
▁இளைஞரின்	-7096
▁உடல்நிலை	-7097
▁உண்மையான	-7098
▁கடுமையான	-7099
▁கட்சிகள்	-7100
▁கவாஸ்கர்	-7101
▁கவுசல்யா	-7102
▁காதலரின்	-7103
▁குறைந்து	-7104
▁கெடுவான்	-7105
▁கொல்லும்	-7106
▁சட்டவிரோ	-7107
▁சமஸ்கிரு	-7108
▁சிறப்பான	-7109
▁சிறுத்தை	-7110
▁சிறைக்கு	-7111
▁செயல்கள்	-7112
▁செவிக்கு	-7113
▁டெபாசிட்	-7114
▁தன்னிடம்	-7115
▁தப்பிக்க	-7116
▁தயாரித்த	-7117
▁தவறவிட்ட	-7118
▁தாங்கிக்	-7119
▁திருமகள்	-7120
▁தேதிக்கு	-7121
▁தோனியின்	-7122
▁நிலக்கரி	-7123
▁நீங்கும்	-7124
▁நெறியில்	-7125
▁பயங்கரம்	-7126
▁பாஜகவின்	-7127
▁பிரமுகர்	-7128
▁பிரிவைத்	-7129
▁புகாரில்	-7130
▁பெரியவர்	-7131
▁பெற்றார்	-7132
▁பொருந்து	-7133
▁போலீஸார்	-7134
▁மல்யுத்த	-7135
▁மாட்டோம்	-7136
▁முயற்சிய	-7137
▁மெல்போர்	-7138
▁ரொனால்டோ	-7139
▁ரோஹிங்யா	-7140
▁லண்டனில்	-7141
▁வடகொரிய	-7142
▁வலிமையான	-7143
▁வாழ்ந்து	-7144
▁வெடித்து	-7145
▁ஸ்டோக்ஸ்	-7146
கிரிக்கெட்	-7147
த்திற்குப்	-7148
விட்டாலும்	-7149
▁அனுபவிக்க	-7150
▁அமைச்சகம்	-7151
▁அர்ச்சகர்	-7152
▁அளிக்கும்	-7153
▁இயந்திரம்	-7154
▁இல்லாதிரு	-7155
▁இளங்கோவன்	-7156
▁காய்ச்சல்	-7157
▁குத்துச்ச	-7158
▁குற்றமற்ற	-7159
▁சிக்கியது	-7160
▁செய்திகளை	-7161
▁செல்வத்தை	-7162
▁சேலத்தில்	-7163
▁ட்ரெய்லர்	-7164
▁தடுக்கும்	-7165
▁திரும்பிய	-7166
▁தெரிவித்த	-7167
▁தெலங்கானா	-7168
▁பேரவையில்	-7169
▁முடியாதது	-7170
▁முன்னெச்ச	-7171
▁ரவிசங்கர்	-7172
▁வளையல்கள்	-7173
▁வாட்ஸ்அப்	-7174
▁வெளியேறிய	-7175
▁வேண்டியது	-7176
ிக்கப்படும்	-7177
▁அமிர்தசரஸ்	-7178
▁அறிவற்றவன்	-7179
▁ஆறுமுகசாமி	-7180
▁இடைத்தேர்த	-7181
▁இப்படியொரு	-7182
▁எவர்க்கும்	-7183
▁ஓய்வுபெற்ற	-7184
▁காவிரியில்	-7185
▁குடிமக்களை	-7186
▁குடிமக்கள்	-7187
▁கூறப்படும்	-7188
▁சான்றாண்மை	-7189
▁சான்றோரின்	-7190
▁சுற்றுக்கு	-7191
▁சென்னையின்	-7192
▁தன்மையுடைய	-7193
▁தெரியாதவர்	-7194
▁தெரிவித்து	-7195
▁தொகுதியில்	-7196
▁தொழிற்சாலை	-7197
▁நாட்டிற்கு	-7198
▁நெருங்கும்	-7199
▁பந்துவீச்ச	-7200
▁பாதுகாப்பை	-7201
▁பிரிவுக்கு	-7202
▁புகாருக்கு	-7203
▁பேரறிவாளன்	-7204
▁முல்லைப்பெ	-7205
▁யார்க்கும்	-7206
▁வாழ்வதற்கு	-7207
▁விடுவிப்பு	-7208
▁வெளியாகும்	-7209
▁ஹேக்கர்கள்	-7210
▁அனைத்தையும்	-7211
▁காலத்திலும்	-7212
▁கொடுத்தாவது	-7213
▁தட்டுப்பாடு	-7214
▁தினகரனுக்கு	-7215
▁நெடுங்காலம்	-7216
▁பாதுகாப்பாக	-7217
▁பிஎஸ்என்எல்	-7218
▁பிறர்க்குத்	-7219
▁புறக்கணித்த	-7220
▁மற்றவர்க்கு	-7221
▁முதலமைச்சரை	-7222
▁முன்னேற்றம்	-7223
▁வழக்கம்போல்	-7224
▁விசாரணையில்	-7225
▁வித்யாசாகர்	-7226
▁வைக்கப்பட்ட	-7227
▁குடிபோதையில்	-7228
▁குற்றவாளிகள்	-7229
▁செய்யும்போது	-7230
▁திருநங்கைகள்	-7231
▁தீப்பிடித்து	-7232
▁நேர்ந்தாலும்	-7233
▁பரிதவிக்கும்	-7234
▁முன்னிலையில்	-7235
▁வாழ்கின்றவர்	-7236
▁வெளிப்படுத்த	-7237
▁வேண்டியவற்றை	-7238
▁அதிகாரப்பூர்வ	-7239
▁விரும்பவில்லை	-7240
▁எல்லாவற்றையும்	-7241
▁நிறுவனத்திற்கு	-7242
▁திருநாவுக்கரசர்	-7243
உத	-7244
கண	-7245
ஜூ	-7246
தெ	-7247
னெ	-7248
பய	-7249
ளன	-7250
வொ	-7251
ூழ	-7252
▁ண	-7253
?''	-7254
அக்	-7255
ஐவி	-7256
கல்	-7257
காவ	-7258
க்ச	-7259
க்த	-7260
ணிக	-7261
திக	-7262
னித	-7263
புக	-7264
யல்	-7265
யிர	-7266
ரென	-7267
ழீஇ	-7268
வப்	-7269
ானோ	-7270
ீவ்	-7271
ுகா	-7272
ுலக	-7273
ூய்	-7274
ெரு	-7275
ையள	-7276
▁? 	-7277
▁ஆட	-7278
▁ஆல	-7279
▁உப	-7280
▁ஊர	-7281
▁ஒப	-7282
▁கஜ	-7283
▁சப	-7284
▁டய	-7285
▁டு	-7286
▁வு	-7287
▁ஷே	-7288
கிரி	-7289
குசு	-7290
கோடி	-7291
க்கல	-7292
சாயன	-7293
ச்சல	-7294
ஜிக்	-7295
ட்டே	-7296
தினக	-7297
னேஷ்	-7298
னைப்	-7299
ன்றே	-7300
பாடா	-7301
பிடி	-7302
பொரு	-7303
ப்சி	-7304
மகள்	-7305
மகிழ	-7306
மடைய	-7307
மைக்	-7308
மைப்	-7309
மையு	-7310
ம்பா	-7311
ராசா	-7312
ரேயா	-7313
ர்கா	-7314
றுமா	-7315
ற்றை	-7316
லாட்	-7317
லான்	-7318
ல்பூ	-7319
ளமான	-7320
வற்க	-7321
வாரி	-7322
வாறே	-7323
வேர்	-7324
ஸிங்	-7325
ாகும	-7326
ாதனை	-7327
ெண்ண	-7328
ொற்க	-7329
ோபர்	-7330
்தம்	-7331
▁ஃப்	-7332
▁அஃத	-7333
▁அடே	-7334
▁அதன	-7335
▁அறன	-7336
▁அல்	-7337
▁ஆடை	-7338
▁ஏதி	-7339
▁ஓய்	-7340
▁கேட	-7341
▁சதம	-7342
▁சமய	-7343
▁சம்	-7344
▁சித	-7345
▁சுர	-7346
▁ஜனா	-7347
▁தடய	-7348
▁தற்	-7349
▁தார	-7350
▁தூய	-7351
▁நிஜ	-7352
▁நொ	-7353
▁பக்	-7354
▁பவு	-7355
▁பேண	-7356
▁பொற	-7357
▁மசே	-7358
▁ரம்	-7359
▁வடு	-7360
▁வம்	-7361
▁ஷமி	-7362
▁ஹஜ்	-7363
க்கலை	-7364
சாவளி	-7365
சோதனை	-7366
டேகர்	-7367
ண்டனை	-7368
தலைப்	-7369
தாகிய	-7370
பித்த	-7371
புதிய	-7372
ப்பறி	-7373
முன்ன	-7374
மோகன்	-7375
ருந்த	-7376
ர்களா	-7377
லாயம்	-7378
லிக்க	-7379
லைந்த	-7380
ள்ளிய	-7381
வரிசை	-7382
வாகிய	-7383
வெளிய	-7384
வேகம்	-7385
ஷிங்ட	-7386
ாலேயே	-7387
ிட்டு	-7388
ீட்டு	-7389
ும்பி	-7390
ுயிர்	-7391
▁அதிப	-7392
▁அபிர	-7393
▁அப்ட	-7394
▁அருக	-7395
▁ஆனது	-7396
▁இப்ப	-7397
▁எனவே	-7398
▁ஓரின	-7399
▁கடனை	-7400
▁கற்ப	-7401
▁கலைஞ	-7402
▁களவு	-7403
▁கிரி	-7404
▁கிளை	-7405
▁குலை	-7406
▁கேலி	-7407
▁கையே	-7408
▁கொசு	-7409
▁கொடி	-7410
▁சக்த	-7411
▁சத்த	-7412
▁சத்ய	-7413
▁சாதக	-7414
▁சிபி	-7415
▁சிம்	-7416
▁சிலி	-7417
▁சீட்	-7418
▁சூடி	-7419
▁செவ்	-7420
▁சேமி	-7421
▁ட்ரோ	-7422
▁தன்ப	-7423
▁தாயை	-7424
▁தாழ்	-7425
▁தெரு	-7426
▁தொடர	-7427
▁நாய்	-7428
▁நெய்	-7429
▁நெரி	-7430
▁பசிய	-7431
▁பாபு	-7432
▁பிப்	-7433
▁பில்	-7434
▁பிளே	-7435
▁புஷ்	-7436
▁பெய்	-7437
▁பொழு	-7438
▁போப்	-7439
▁மினி	-7440
▁மிர்	-7441
▁யோகா	-7442
▁வடிவ	-7443
▁வயசு	-7444
▁வளாக	-7445
▁வேதன	-7446
▁ஷெரி	-7447
அழகிரி	-7448
ங்கிச்	-7449
ச்சில்	-7450
டியூப்	-7451
டையான்	-7452
ண்டின்	-7453
நர்கள்	-7454
நாயகம்	-7455
நோக்கி	-7456
னிஸ்ட்	-7457
னுசாமி	-7458
ப்பிள்	-7459
ப்பொரு	-7460
மாட்டா	-7461
மென்று	-7462
மேலும்	-7463
ம்பின்	-7464
ம்பில்	-7465
ம்பூர்	-7466
ர்மீத்	-7467
ற்றிப்	-7468
லாகும்	-7469
ல்லில்	-7470
ல்லும்	-7471
வாயில்	-7472
வாழ்வு	-7473
வாவில்	-7474
வீச்சு	-7475
வேண்டா	-7476
வோரின்	-7477
ாமலிரு	-7478
ின்கள்	-7479
ியாகும	-7480
ையானது	-7481
ொருவன்	-7482
▁அசத்த	-7483
▁அட்டை	-7484
▁அனுபவ	-7485
▁அபராத	-7486
▁அமிதா	-7487
▁அறுவை	-7488
▁அவமான	-7489
▁ஆட்டு	-7490
▁ஆண்மை	-7491
▁ஆலையை	-7492
▁இன்பு	-7493
▁இருள்	-7494
▁இல்லற	-7495
▁உடைமை	-7496
▁உன்னை	-7497
▁உறங்க	-7498
▁ஊற்று	-7499
▁எங்கு	-7500
▁எஞ்சி	-7501
▁எதிரே	-7502
▁எனின்	-7503
▁என்றே	-7504
▁கண்ணே	-7505
▁கந்து	-7506
▁கன்னட	-7507
▁கவிழ்	-7508
▁காற்ற	-7509
▁காலணி	-7510
▁கிரண்	-7511
▁சக்கர	-7512
▁சுவர்	-7513
▁சேதம்	-7514
▁தழுவு	-7515
▁தின்ற	-7516
▁துப்ப	-7517
▁நடுவே	-7518
▁நல்வி	-7519
▁நிக்க	-7520
▁நியமி	-7521
▁நிர்ண	-7522
▁பணிவு	-7523
▁பறந்த	-7524
▁புண்ப	-7525
▁பேனர்	-7526
▁போலப்	-7527
▁மிஞ்ச	-7528
▁முகமல	-7529
▁மூடல்	-7530
▁மெய்ய	-7531
▁யுவன்	-7532
▁ரசாயன	-7533
▁ரசிகை	-7534
▁ரணில்	-7535
▁வசூலி	-7536
▁வராது	-7537
▁வாழாத	-7538
▁விஐபி	-7539
▁விநோத	-7540
▁வெண்க	-7541
கின்றது	-7542
கேப்டன்	-7543
க்கமும்	-7544
க்கானல்	-7545
க்குடன்	-7546
ங்களைத்	-7547
ங்களைப்	-7548
த்திடம்	-7549
நியோகம்	-7550
மையாகக்	-7551
யத்தில்	-7552
ரஞ்சித்	-7553
ல்களும்	-7554
ாக்கும்	-7555
ானாவில்	-7556
ார்முன்	-7557
ிகளிடம்	-7558
ையிலும்	-7559
்கிறார்	-7560
்சிஸ்ட்	-7561
▁அஞ்சாத	-7562
▁அடங்கி	-7563
▁அதற்கே	-7564
▁அயலார்	-7565
▁அரசாணை	-7566
▁அலர்ட்	-7567
▁ஆக்கிர	-7568
▁ஆங்கில	-7569
▁ஆதரவாள	-7570
▁ஆர்டர்	-7571
▁ஆளுநரை	-7572
▁இன்றைய	-7573
▁இருவகை	-7574
▁இளைஞரை	-7575
▁இவ்விர	-7576
▁உடலில்	-7577
▁உடைந்த	-7578
▁எந்தக்	-7579
▁ஒப்பான	-7580
▁கலைஞர்	-7581
▁குழப்ப	-7582
▁கெலாட்	-7583
▁கைம்மா	-7584
▁கொட்டி	-7585
▁சாகசம்	-7586
▁சிறிதள	-7587
▁சோதனை	-7588
▁சொகுசு	-7589
▁ஜாமின்	-7590
▁ஜோதிகா	-7591
▁டொனால்	-7592
▁தராமல்	-7593
▁தலைவன்	-7594
▁தினையள	-7595
▁தீர்வு	-7596
▁துண்டு	-7597
▁துபாய்	-7598
▁தொற்று	-7599
▁தொலைபே	-7600
▁தொழுது	-7601
▁த்ரில்	-7602
▁நண்பன்	-7603
▁நற்செய	-7604
▁நாயகன்	-7605
▁நூலோர்	-7606
▁நெல்லை	-7607
▁நொந்து	-7608
▁நோயாளி	-7609
▁பணிகள்	-7610
▁பணியிட	-7611
▁பயன்பட	-7612
▁பரிசாக	-7613
▁பாக்ஸ்	-7614
▁பின்னே	-7615
▁பிரான்	-7616
▁பிராவோ	-7617
▁பிரிவை	-7618
▁பிறப்ப	-7619
▁பிளான்	-7620
▁பெரியோ	-7621
▁பெருகு	-7622
▁பொம்மை	-7623
▁பொய்யா	-7624
▁மசோதா	-7625
▁மர்மம்	-7626
▁மறைத்த	-7627
▁முயல்க	-7628
▁மூச்சு	-7629
▁மேஜிக்	-7630
▁மோதும்	-7631
▁வர்த்த	-7632
▁வல்லமை	-7633
▁வளையல்	-7634
▁வழிகளை	-7635
▁வாங்கி	-7636
▁வாங்கு	-7637
▁வாழ்வு	-7638
▁வேற்று	-7639
▁வேலூர்	-7640
க்கிறார்	-7641
த்தக்கது	-7642
த்திடும்	-7643
ப்பற்றிய	-7644
மகனுக்கு	-7645
முடியாது	-7646
ரங்குன்ற	-7647
ரிக்கையை	-7648
ர்த்துக்	-7649
லிக்கும்	-7650
லுக்கும்	-7651
ேந்திரர்	-7652
▁அஞ்சும்	-7653
▁அணையின்	-7654
▁அன்சாரி	-7655
▁அன்பும்	-7656
▁அபிராமி	-7657
▁அப்டேட்	-7658
▁அமர்ந்த	-7659
▁அமேசான்	-7660
▁அம்பலம்	-7661
▁அம்ருதா	-7662
▁அரசிடம்	-7663
▁அறிவுடை	-7664
▁அலட்சிய	-7665
▁அழித்து	-7666
▁ஆய்ந்து	-7667
▁ஆரம்பம்	-7668
▁ஆலையில்	-7669
▁இன்பமான	-7670
▁இன்றும்	-7671
▁இல்லாமை	-7672
▁இல்வாழ்	-7673
▁இழந்தது	-7674
▁உண்மையை	-7675
▁உயர்த்த	-7676
▁உள்துறை	-7677
▁ஏர்செல்	-7678
▁ஐஎஸ்எல்	-7679
▁ஐந்தும்	-7680
▁ஒவ்வொரு	-7681
▁காண்பது	-7682
▁காதலில்	-7683
▁குற்றால	-7684
▁குளிக்க	-7685
▁குளிர்க	-7686
▁கெடுக்க	-7687
▁கொடநாடு	-7688
▁சல்மான்	-7689
▁சுப்பிர	-7690
▁செயற்கை	-7691
▁டிரைவர்	-7692
▁டீச்சர்	-7693
▁தங்கும்	-7694
▁தன்னைத்	-7695
▁தன்மீது	-7696
▁தாழ்த்த	-7697
▁திருத்த	-7698
▁திறந்து	-7699
▁தும்மல்	-7700
▁நட்பைக்	-7701
▁நயன்தார	-7702
▁நல்லவர்	-7703
▁நாய்க்க	-7704
▁நிகழ்வு	-7705
▁நித்யான	-7706
▁நிலைத்த	-7707
▁நெருங்க	-7708
▁பணியில்	-7709
▁பயணித்த	-7710
▁பற்றிக்	-7711
▁புறத்தே	-7712
▁பெருங்க	-7713
▁பெருஞ்ச	-7714
▁பொறுத்த	-7715
▁மணிக்கு	-7716
▁மாலத்தீ	-7717
▁முருகன்	-7718
▁முலாயம்	-7719
▁ரகசியம்	-7720
▁லாரிகள்	-7721
▁வடகொரிய	-7722
▁வந்தார்	-7723
▁வார்னர்	-7724
▁வாஷிங்ட	-7725
▁விடுவர்	-7726
▁விமர்சி	-7727
▁விலக்கு	-7728
▁ஹரியானா	-7729
ங்கலுக்கு	-7730
ட்டத்தில்	-7731
ப்பட்டுக்	-7732
ப்பதற்காக	-7733
முருகதாஸ்	-7734
ம்களுக்கு	-7735
ாவிட்டால்	-7736
▁அடையாளம்	-7737
▁அந்தமான்	-7738
▁அப்படியே	-7739
▁அமைதியாக	-7740
▁அரவிந்த்	-7741
▁அலுவலகம்	-7742
▁அளவிற்கு	-7743
▁ஆவணங்களை	-7744
▁உடனடியாக	-7745
▁உடம்பின்	-7746
▁உரிமைகள்	-7747
▁கடம்பூர்	-7748
▁கவர்ந்து	-7749
▁காப்பீடு	-7750
▁குர்மீத்	-7751
▁கெட்டுப்	-7752
▁கொடுத்த	-7753
▁கேப்டனாக	-7754
▁கோடியில்	-7755
▁கோரினார்	-7756
▁சசிகலாவை	-7757
▁சட்டத்தை	-7758
▁சட்டமன்ற	-7759
▁சரிந்தது	-7760
▁சாமியார்	-7761
▁சித்தராம	-7762
▁சுவாரஸ்ய	-7763
▁செய்யார்	-7764
▁ஜனாதிபதி	-7765
▁ஜெயராமன்	-7766
▁தனிப்படை	-7767
▁திருடும்	-7768
▁தீமையும்	-7769
▁தேர்ந்து	-7770
▁நிறுத்தி	-7771
▁படுகொலை	-7772
▁பதவிக்கு	-7773
▁பாடல்கள்	-7774
▁பிக்பாஸ்	-7775
▁பிறருடைய	-7776
▁பைக்கில்	-7777
▁பொருட்டு	-7778
▁பொறுப்பே	-7779
▁முறையீடு	-7780
▁மேட்டூர்	-7781
▁யாரையும்	-7782
▁வனத்துறை	-7783
▁வன்கொடு	-7784
▁வம்சாவளி	-7785
▁வரலாற்று	-7786
▁வழிப்பறி	-7787
▁வாழ்நாள்	-7788
▁விடுத்து	-7789
▁விற்கும்	-7790
▁வீழ்த்து	-7791
▁வெளிநாடு	-7792
▁வெளியிடு	-7793
▁வேண்டுமா	-7794
ப்பவர்க்கு	-7795
ப்பாளர்கள்	-7796
ிருக்கிறது	-7797
▁அனைத்தும்	-7798
▁அறவழியில்	-7799
▁அழைத்துச்	-7800
▁உருக்கமான	-7801
▁எடுத்துக்	-7802
▁எண்ணினால்	-7803
▁கத்திக்கு	-7804
▁கத்தியால்	-7805
▁கல்லாதவர்	-7806
▁களைகட்டிய	-7807
▁காட்டுகிற	-7808
▁கிணற்றில்	-7809
▁கூர்மையான	-7810
▁கொடுப்பது	-7811
▁சதுர்த்தி	-7812
▁செலுத்திய	-7813
▁செல்கின்ற	-7814
▁செல்கிறது	-7815
▁சொல்லுதல்	-7816
▁தள்ளிப்போ	-7817
▁தாருங்கள்	-7818
▁திமுகவில்	-7819
▁திருமணமான	-7820
▁திரும்பப்	-7821
▁திறந்தார்	-7822
▁துரத்தும்	-7823
▁தெரிவிக்க	-7824
▁தொழிலாளர்	-7825
▁நினைவிடம்	-7826
▁நிர்வாகம்	-7827
▁நொறுங்கிய	-7828
▁படைத்தவர்	-7829
▁பதியுமாறு	-7830
▁பரபரப்பான	-7831
▁பாய்ச்சல்	-7832
▁பார்க்காத	-7833
▁புகழையும்	-7834
▁பொருந்தி	-7835
▁மறுக்கும்	-7836
▁மாணவியின்	-7837
▁மிரட்டும்	-7838
▁முழுமையாக	-7839
▁வருமானவரி	-7840
▁வருவதற்கு	-7841
▁விதிமீறல்	-7842
▁வீசப்பட்ட	-7843
▁வீழ்த்திய	-7844
ிருக்கிறேன்	-7845
ையிலிருந்து	-7846
▁அடேங்கப்பா	-7847
▁அதிமுகவின்	-7848
▁அறநெறியில்	-7849
▁இரண்டையும்	-7850
▁இருப்பதும்	-7851
▁உயர்ந்தோர்	-7852
▁உள்ளத்துள்	-7853
▁என்பதற்காக	-7854
▁எம்பிக்கள்	-7855
▁ஒப்படைப்பு	-7856
▁ஒருவர்க்கு	-7857
▁கன்னியாகும	-7858
▁காந்தியின்	-7859
▁காரணத்தால்	-7860
▁குற்றங்கள்	-7861
▁கொடுத்தார்	-7862
▁சிரியாவில்	-7863
▁செலுத்தும்	-7864
▁ஜெயலலிதாவை	-7865
▁தருவதாகும்	-7866
▁நாராயணசாமி	-7867
▁பேச்சுக்கு	-7868
▁பொருளையும்	-7869
▁மகிழ்ச்சிய	-7870
▁மற்றவர்கள்	-7871
▁மேன்மேலும்	-7872
▁வலுக்கிறது	-7873
▁வாக்குறுதி	-7874
▁வினாத்தாள்	-7875
▁விமர்சிக்க	-7876
▁விரும்பிக்	-7877
▁வீடியோவில்	-7878
▁வீட்டுக்கு	-7879
▁வெற்றிக்கு	-7880
▁ஸ்ரீரெட்டி	-7881
▁அரசியலுக்கு	-7882
▁அரசியல்வாதி	-7883
▁ஆசிரியர்கள்	-7884
▁இருக்கின்றன	-7885
▁இல்லையானால்	-7886
▁உண்டாக்கும்	-7887
▁உண்ணாவிரதம்	-7888
▁எங்கெல்லாம்	-7889
▁கண்காணிப்பு	-7890
▁கம்யூனிஸ்ட்	-7891
▁கருணாநிதியை	-7892
▁கொடுக்கும்	-7893
▁கொடைக்கானல்	-7894
▁சபரிமலைக்கு	-7895
▁சுப்ரமணியன்	-7896
▁செல்வத்தைப்	-7897
▁ட்ரம்புக்கு	-7898
▁திட்டத்தில்	-7899
▁திமுகவுக்கு	-7900
▁துணைவேந்தர்	-7901
▁நித்யானந்தா	-7902
▁நிராகரிப்பு	-7903
▁நிறைவேறியது	-7904
▁ராஜஸ்தானில்	-7905
▁வேல்முருகன்	-7906
▁அடுத்தடுத்து	-7907
▁இன்ஸ்பெக்டர்	-7908
▁இல்லாதவர்கள்	-7909
▁ஏற்படுத்தும்	-7910
▁குடும்பத்தின	-7911
▁குழந்தைகளின்	-7912
▁கூட்டத்தொடர்	-7913
▁செய்துவிட்டு	-7914
▁நாடாளுமன்றம்	-7915
▁நிலச்சரிவில்	-7916
▁நெட்டிசன்கள்	-7917
▁பாதிப்புக்கு	-7918
▁புறப்பட்டார்	-7919
▁மார்க்சிஸ்ட்	-7920
▁வாக்கெடுப்பு	-7921
▁வாழ்க்கைக்கு	-7922
▁விசாரித்தார்	-7923
▁விளக்கமளிக்க	-7924
▁விளைவிக்கும்	-7925
▁உறுப்பினர்கள்	-7926
▁எதிர்கொள்ளும்	-7927
▁எதிர்பார்த்து	-7928
▁எல்லார்க்கும்	-7929
▁கத்திக்குத்து	-7930
▁கன்னியாஸ்திரி	-7931
▁கருணாநிதிக்கு	-7932
▁குத்துச்சண்டை	-7933
▁குற்றத்தையும்	-7934
▁சுப்பிரமணியன்	-7935
▁செய்யக்கூடாது	-7936
▁நிகழ்ச்சியில்	-7937
▁நிச்சயதார்த்த	-7938
▁மகிழ்ச்சியில்	-7939
▁வேண்டியதில்லை	-7940
▁ஆண்டுகளுக்குப்	-7941
▁இருக்கிறார்கள்	-7942
▁தமிழ்ச்செல்வன்	-7943
▁பெரும்பான்மையை	-7944
▁முக்கியத்துவம்	-7945
▁திருப்பரங்குன்ற	-7946
▁மாற்றுத்திறனாளி	-7947
▁முதலமைச்சருக்கு	-7948
te	-7949
கன	-7950
கம	-7951
நட	-7952
பல	-7953
மர	-7954
ரவ	-7955
ஸா	-7956
ஸூ	-7957
ஹோ	-7958
ேக	-7959
▁.	-7960
.. 	-7961
அடி	-7962
உதய	-7963
ஏழு	-7964
ஒழு	-7965
சரா	-7966
சேன	-7967
தலே	-7968
னரை	-7969
பிஎ	-7970
ப்த	-7971
மசி	-7972
மத்	-7973
மாத	-7974
மாய	-7975
முற	-7976
யார	-7977
லகல	-7978
வால	-7979
வேக	-7980
வைர	-7981
ிகள	-7982
ிகழ	-7983
ிங்	-7984
ோன்	-7985
ோமே	-7986
’..	-7987
▁ -	-7988
▁ ‘	-7989
▁அந	-7990
▁ஆர	-7991
▁ஆழ	-7992
▁உஷ	-7993
▁எய	-7994
▁ஏத	-7995
▁ஏழ	-7996
▁ஜவ	-7997
▁ஞா	-7998
▁நப	-7999
▁லூ	-8000
▁லே	-8001
அண்ண	-8002
இளைஞ	-8003
காய்	-8004
ங்ஸ்	-8005
சில்	-8006
ஜினீ	-8007
ஞ்ச்	-8008
டின்	-8009
டைவு	-8010
ட்சை	-8011
தானா	-8012
தாள்	-8013
தீன்	-8014
தீபா	-8015
தேவ்	-8016
த்வி	-8017
னாய்	-8018
னைக்	-8019
ன்ட்	-8020
பினை	-8021
பிவி	-8022
ப்பண	-8023
ப்ரா	-8024
மணம்	-8025
மலதா	-8026
முறு	-8027
மூடி	-8028
யான்	-8029
ரோடு	-8030
ர்வே	-8031
ளோடு	-8032
ழகன்	-8033
வடைய	-8034
விக்	-8035
வோடு	-8036
ஹால்	-8037
ாகத்	-8038
ானிய	-8039
ாம்ப	-8040
ாவிட	-8041
ிரபர	-8042
ிலன்	-8043
ில்க	-8044
ென்ன	-8045
்சன்	-8046
‌‌‌‌	-8047
▁அலி	-8048
▁அஷ்	-8049
▁ஆக்	-8050
▁ஆசி	-8051
▁இதோ	-8052
▁இரா	-8053
▁எகி	-8054
▁எதை	-8055
▁எல்	-8056
▁எவன	-8057
▁ஐநா	-8058
▁கலி	-8059
▁சபை	-8060
▁சமை	-8061
▁சரவ	-8062
▁சேல	-8063
▁சொல	-8064
▁டால	-8065
▁தகை	-8066
▁தவி	-8067
▁தஷ்	-8068
▁தாழ	-8069
▁தோழ	-8070
▁நாம	-8071
▁நீர	-8072
▁பது	-8073
▁பர்	-8074
▁பழக	-8075
▁பேன	-8076
▁போழ	-8077
▁மண்	-8078
▁மூழ	-8079
▁ராக	-8080
▁லாப	-8081
கலில்	-8082
ச்சுட	-8083
ஞ்சன்	-8084
டினல்	-8085
டுவதா	-8086
டுவர்	-8087
தனால்	-8088
தன்யா	-8089
தலைக்	-8090
தாகக்	-8091
திகள்	-8092
தூஉம்	-8093
தேசம்	-8094
த்யேக	-8095
னியர்	-8096
னையர்	-8097
படியே	-8098
பிரதம	-8099
பைடர்	-8100
ய்வம்	-8101
ரோகம்	-8102
ல்லாத	-8103
வனைக்	-8104
வனைத்	-8105
வருள்	-8106
வரோடு	-8107
வாகச்	-8108
வியாக	-8109
ஷனில்	-8110
ஸ்ட்ட	-8111
ாகரன்	-8112
ாகரிக	-8113
ாய்த்	-8114
ாருள்	-8115
ாலீஸ்	-8116
ியார்	-8117
ிலால்	-8118
ிலில்	-8119
ில்லா	-8120
ையற்ற	-8121
ொழுதே	-8122
▁அக்ஷ	-8123
▁அடிய	-8124
▁அனல்	-8125
▁அயர்	-8126
▁அரம்	-8127
▁அறநூ	-8128
▁அளவை	-8129
▁அவதூ	-8130
▁அவைய	-8131
▁ஆசிர	-8132
▁ஆன்ற	-8133
▁ஆலோச	-8134
▁ஈன்ற	-8135
▁உன்ன	-8136
▁உறாஅ	-8137
▁உழவு	-8138
▁எவன்	-8139
▁ஏதம்	-8140
▁களம்	-8141
▁கஸ்த	-8142
▁கிமீ	-8143
▁கெய்	-8144
▁கைகல	-8145
▁கோர்	-8146
▁கோல்	-8147
▁சமைய	-8148
▁சாசன	-8149
▁சாவு	-8150
▁சிரம	-8151
▁சூது	-8152
▁செழி	-8153
▁சோதன	-8154
▁ஜாங்	-8155
▁ஜாமீ	-8156
▁ஜூன்	-8157
▁ஜோனா	-8158
▁டீன்	-8159
▁டும்	-8160
▁டெக்	-8161
▁தசரா	-8162
▁தீயை	-8163
▁நம்ம	-8164
▁நிபு	-8165
▁நீடி	-8166
▁நீரா	-8167
▁நூறு	-8168
▁பகிர	-8169
▁பகைய	-8170
▁படாத	-8171
▁பத்ம	-8172
▁பயனு	-8173
▁பழகி	-8174
▁பாகு	-8175
▁பாடு	-8176
▁பாபா	-8177
▁பீர்	-8178
▁பேய்	-8179
▁மடலூ	-8180
▁மதிய	-8181
▁மதுப	-8182
▁மனதை	-8183
▁மாடு	-8184
▁மாநக	-8185
▁மூடி	-8186
▁யாது	-8187
▁வட்ட	-8188
▁வினோ	-8189
▁விஷ்	-8190
▁ஹூமா	-8191
எங்கள்	-8192
க்கின்	-8193
க்குக்	-8194
க்குச்	-8195
க்‌ஷன்	-8196
ங்கித்	-8197
ங்கிள்	-8198
சந்திர	-8199
சிதம்ப	-8200
டைந்து	-8201
ட்டுமா	-8202
ணைப்பு	-8203
துக்கு	-8204
நிலையை	-8205
ந்தாற்	-8206
னாகும்	-8207
பியில்	-8208
பிவிபி	-8209
ம்மில்	-8210
ராய்வு	-8211
ரித்து	-8212
ற்கும்	-8213
ற்றவர்	-8214
லும்பு	-8215
ளித்து	-8216
ள்ளேயே	-8217
வதைவிட	-8218
வர்த்த	-8219
வையின்	-8220
ஸ்டார்	-8221
ார்களோ	-8222
ார்த்த	-8223
ால்கூட	-8224
ீங்களா	-8225
ுகிறது	-8226
ையாகிய	-8227
்களில்	-8228
▁அஜீத்	-8229
▁அம்பல	-8230
▁அரசுக	-8231
▁அவனது	-8232
▁ஆகாது	-8233
▁ஆசையை	-8234
▁ஆளில்	-8235
▁ஆவார்	-8236
▁இன்னி	-8237
▁உடையவ	-8238
▁உமேஷ்	-8239
▁உள்பட	-8240
▁உழுது	-8241
▁ஊற்றி	-8242
▁ஒன்றி	-8243
▁ஒன்றை	-8244
▁ஒபாமா	-8245
▁ஓரங்க	-8246
▁கரையை	-8247
▁கள்ளை	-8248
▁காட்ச	-8249
▁காண்க	-8250
▁காம்ப	-8251
▁குத்த	-8252
▁கொலைய	-8253
▁கோஷம்	-8254
▁சிந்த	-8255
▁சிலிர	-8256
▁சூர்ய	-8257
▁செப்ட	-8258
▁செயலக	-8259
▁ஜெயம்	-8260
▁ஜேஎன்	-8261
▁தஞ்சை	-8262
▁தடையை	-8263
▁திறன்	-8264
▁தூண்ட	-8265
▁நச்சு	-8266
▁நஞ்சு	-8267
▁நான்க	-8268
▁நிலவே	-8269
▁நுகர்	-8270
▁நேரடி	-8271
▁நேராக	-8272
▁பகையு	-8273
▁பணியை	-8274
▁பதிவே	-8275
▁பனிமூ	-8276
▁பழுது	-8277
▁பாடலா	-8278
▁பிறகே	-8279
▁புனித	-8280
▁புஷ்க	-8281
▁பூங்க	-8282
▁பெயரை	-8283
▁பேதைய	-8284
▁பொன்ன	-8285
▁மசூத்	-8286
▁மாரடை	-8287
▁மீறல்	-8288
▁மீறிய	-8289
▁முட்ட	-8290
▁மெக்ச	-8291
▁மைல்க	-8292
▁ரம்யா	-8293
▁ரயிலை	-8294
▁ராக்க	-8295
▁ராமாய	-8296
▁ரியல்	-8297
▁லெவல்	-8298
▁வஞ்சி	-8299
▁வடகிழ	-8300
▁வர்மா	-8301
▁வீரன்	-8302
▁வேடமி	-8303
இந்தியா	-8304
க்கத்தை	-8305
க்களால்	-8306
க்குவது	-8307
சிரியர்	-8308
சுவாசம்	-8309
சேர்ந்த	-8310
டுகின்ற	-8311
டுங்கள்	-8312
தினகரன்	-8313
த்திட்ட	-8314
நாங்கள்	-8315
ந்திரன்	-8316
பெண்கள்	-8317
ப்பெற்ற	-8318
முறைகளை	-8319
மையுடன்	-8320
ரிடமும்	-8321
ருக்கான	-8322
ள்ளுவர்	-8323
வரியில்	-8324
வர்க்கே	-8325
வற்றின்	-8326
வாரண்ட்	-8327
ானுக்கு	-8328
ிக்கில்	-8329
ிக்கொலை	-8330
ின்றவர்	-8331
ிருப்போ	-8332
ிர்கான்	-8333
ீட்டில்	-8334
ொல்லும்	-8335
்த்தார்	-8336
▁அகன்று	-8337
▁அதனைத்	-8338
▁அதனைப்	-8339
▁அமைப்ப	-8340
▁அறைந்த	-8341
▁அலங்கா	-8342
▁அவரவர்	-8343
▁ஆசைகளை	-8344
▁ஆடுகள்	-8345
▁ஆயுதம்	-8346
▁ஆய்ந்த	-8347
▁இடத்தை	-8348
▁இலக்கண	-8349
▁இலவசம்	-8350
▁ஈட்டிய	-8351
▁உடையதே	-8352
▁உண்டாக	-8353
▁உண்பது	-8354
▁ஊடுதல்	-8355
▁எண்ணம்	-8356
▁எண்ணாத	-8357
▁எதிர்க	-8358
▁எனக்கூ	-8359
▁என்பதே	-8360
▁என்பர்	-8361
▁ஏப்ரல்	-8362
▁ஒன்றரை	-8363
▁ஒளிந்த	-8364
▁ஓவியம்	-8365
▁கடித்த	-8366
▁கருதிய	-8367
▁கல்யாண	-8368
▁காக்கை	-8369
▁காமெடி	-8370
▁குடியே	-8371
▁குன்றி	-8372
▁கூடாதா	-8373
▁கூவத்த	-8374
▁கொடிய	-8375
▁கொள்க	-8376
▁கைவிடு	-8377
▁கொல்லோ	-8378
▁சட்டசப	-8379
▁சரியாக	-8380
▁சாதாரண	-8381
▁சிட்டி	-8382
▁சிறைபி	-8383
▁செல்வா	-8384
▁சொந்த	-8385
▁ஜப்பான	-8386
▁தகராறு	-8387
▁தக்கது	-8388
▁தங்கிய	-8389
▁தனியாக	-8390
▁தலைவரை	-8391
▁திணறல்	-8392
▁திருடி	-8393
▁தீமையை	-8394
▁துணிவு	-8395
▁துப்பு	-8396
▁தெளிவு	-8397
▁தேடிக்	-8398
▁நனவில்	-8399
▁நாடகம்	-8400
▁நாளும்	-8401
▁நியூசி	-8402
▁நிரம்ப	-8403
▁நெகிழ்	-8404
▁பாத்தி	-8405
▁பாரம்ப	-8406
▁பிட்ச்	-8407
▁பீகார்	-8408
▁புகாரை	-8409
▁புதுசு	-8410
▁பூட்டு	-8411
▁போய்ச்	-8412
▁போல்ட்	-8413
▁மனிதன்	-8414
▁மாட்டு	-8415
▁மாற்றி	-8416
▁மிர்சா	-8417
▁மீனவர்	-8418
▁முஸ்லீ	-8419
▁மூட்டை	-8420
▁மூழ்கி	-8421
▁ராயுடு	-8422
▁ரெஸ்ட்	-8423
▁வதந்தி	-8424
▁வலுவான	-8425
▁வல்லது	-8426
▁விமானி	-8427
▁விருதை	-8428
▁விரைவு	-8429
▁வீரராக	-8430
▁வேறொரு	-8431
▁ஸ்ரேயா	-8432
கின்றவன்	-8433
சிக்கும்	-8434
ட்டர்கள்	-8435
ட்டிலும்	-8436
தால்தான்	-8437
தேயாகும்	-8438
நிலையில்	-8439
நோக்கும்	-8440
னுக்கும்	-8441
ப்பதூஉம்	-8442
ப்பிரதேச	-8443
ப்போர்ட்	-8444
மாட்டான்	-8445
மானாலும்	-8446
மில்லையா	-8447
முனுசாமி	-8448
மெல்லாம்	-8449
ரோட்டில்	-8450
லாந்தில்	-8451
வதற்கும்	-8452
வதற்க்கு	-8453
வர்களில்	-8454
வர்களைத்	-8455
வாரானால்	-8456
ிக்கொண்ட	-8457
ையில்லாத	-8458
்செல்வன்	-8459
▁அடையும்	-8460
▁அணியும்	-8461
▁அந்தணர்	-8462
▁அப்போதே	-8463
▁அம்பானி	-8464
▁அறச்செய	-8465
▁அற்றவர்	-8466
▁அழுக்கா	-8467
▁அவனிடம்	-8468
▁அவருடன்	-8469
▁ஆகிறார்	-8470
▁ஆதங்கம்	-8471
▁ஆந்திரா	-8472
▁இடுக்கி	-8473
▁இன்னாது	-8474
▁இம்ரான்	-8475
▁உயிரின்	-8476
▁உருக்கு	-8477
▁எதற்காக	-8478
▁என்மீது	-8479
▁என்றுக்	-8480
▁எலும்பு	-8481
▁எல்லாப்	-8482
▁எஸ்டேட்	-8483
▁ஏபிவிபி	-8484
▁ஏற்கனவே	-8485
▁ஒன்றைக்	-8486
▁கடத்திய	-8487
▁கட்டடம்	-8488
▁கண்ணால்	-8489
▁கற்றுக்	-8490
▁கஸ்தூரி	-8491
▁காட்சிய	-8492
▁காட்டாத	-8493
▁கார்கள்	-8494
▁காலந்தா	-8495
▁காளைகள்	-8496
▁காவலாளி	-8497
▁குண்டர்	-8498
▁குறைவாக	-8499
▁கேட்காத	-8500
▁கேட்பது	-8501
▁கொடியது	-8502
▁கொண்டது	-8503
▁கொள்ளக்	-8504
▁சதவிகித	-8505
▁சம்பாதி	-8506
▁சரண்டர்	-8507
▁சிறிசேன	-8508
▁சூழ்ந்த	-8509
▁செய்தலை	-8510
▁செய்திட	-8511
▁செய்வர்	-8512
▁சொர்க்க	-8513
▁சொல்வன்	-8514
▁ஜெர்மனி	-8515
▁டிகேஎஸ்	-8516
▁தனித்து	-8517
▁தனுஸ்ரீ	-8518
▁தப்பிப்	-8519
▁தருவதாக	-8520
▁தலைகுனி	-8521
▁தாமிரபர	-8522
▁தாழ்ந்த	-8523
▁திட்டிய	-8524
▁தினகரனை	-8525
▁தூங்கிய	-8526
▁தெய்வம்	-8527
▁தெளிவான	-8528
▁நடைபெறு	-8529
▁நம்பித்	-8530
▁நாணத்தை	-8531
▁நாணமும்	-8532
▁நினைப்ப	-8533
▁நிலவரம்	-8534
▁நூல்கள்	-8535
▁படைக்கு	-8536
▁பாராட்ட	-8537
▁பிழைக்க	-8538
▁பேசாமல்	-8539
▁பேசுதல்	-8540
▁பொய்யான	-8541
▁மண்டலப்	-8542
▁மரங்கள்	-8543
▁மரணத்தை	-8544
▁மறுத்து	-8545
▁மறைத்து	-8546
▁மலிங்கா	-8547
▁மார்க்க	-8548
▁மிகுதிய	-8549
▁மின்னணு	-8550
▁முதன்மை	-8551
▁முன்னரே	-8552
▁முருகதா	-8553
▁லட்சுமி	-8554
▁லாரன்ஸ்	-8555
▁வங்கிக்	-8556
▁வடிவேலு	-8557
▁வறுமைத்	-8558
▁வளர்க்க	-8559
▁வாலிபர்	-8560
▁வாழ்தல்	-8561
▁வாழ்ந்த	-8562
▁விதிகள்	-8563
▁விளாசல்	-8564
▁விளாசிய	-8565
▁வீரரின்	-8566
▁வெளியாக	-8567
▁வேண்டாத	-8568
உதயகுமார்	-8569
க்கடத்தல்	-8570
தளங்களில்	-8571
முடியாமல்	-8572
ராஜேந்தர்	-8573
ரிடத்தில்	-8574
வில்லாமல்	-8575
▁அகத்தில்	-8576
▁அகர்வால்	-8577
▁அக்டோபர்	-8578
▁அன்புள்ள	-8579
▁ஆக்கமும்	-8580
▁இன்பமும்	-8581
▁இருக்கக்	-8582
▁இழக்கும்	-8583
▁உடம்போடு	-8584
▁எண்ணிக்க	-8585
▁ஓட்டலில்	-8586
▁கடமையைச்	-8587
▁கண்கலங்க	-8588
▁கனவுக்கு	-8589
▁கமல்நாத்	-8590
▁கலெக்டர்	-8591
▁கல்யாணம்	-8592
▁கவலையில்	-8593
▁காட்டிக்	-8594
▁கைப்பற்ற	-8595
▁கைவிட்டு	-8596
▁கொண்டுவர	-8597
▁கொள்ளையை	-8598
▁சிக்கித்	-8599
▁சிறுமியை	-8600
▁சுடச்சுட	-8601
▁சுற்றத்த	-8602
▁செய்தியை	-8603
▁டெஸ்டில்	-8604
▁தகவல்களை	-8605
▁தன்னுடைய	-8606
▁தமக்குத்	-8607
▁தருமபுரி	-8608
▁திருவிழா	-8609
▁துடைத்து	-8610
▁துன்பமான	-8611
▁துபாயில்	-8612
▁துருக்கி	-8613
▁தெரியும்	-8614
▁நடிப்பது	-8615
▁நாடாகும்	-8616
▁நாராயணன்	-8617
▁நின்றவர்	-8618
▁நிறுத்து	-8619
▁நீக்கிக்	-8620
▁நுட்பமான	-8621
▁நெருப்பு	-8622
▁பகைவரின்	-8623
▁படிக்காத	-8624
▁பணமதிப்ப	-8625
▁பள்ளிகள்	-8626
▁பவர்க்கு	-8627
▁பிடித்து	-8628
▁பிரசாரம்	-8629
▁பிரத்யேக	-8630
▁பிரமாண்ட	-8631
▁பிரிவால்	-8632
▁புத்தகம்	-8633
▁பெற்றுக்	-8634
▁பொருளால்	-8635
▁பொருளைத்	-8636
▁போற்றும்	-8637
▁ப்ளூவேல்	-8638
▁மத்தியக்	-8639
▁மத்தியப்	-8640
▁மன்மோகன்	-8641
▁மறந்தும்	-8642
▁மாற்றுத்	-8643
▁முகாமில்	-8644
▁முழுதும்	-8645
▁முஸ்லிம்	-8646
▁மெலிந்து	-8647
▁யாதெனின்	-8648
▁யாத்திரை	-8649
▁யாராலும்	-8650
▁ராஜமவுலி	-8651
▁வந்தபோது	-8652
▁வளர்ந்து	-8653
▁வழிகளில்	-8654
▁வாங்கும்	-8655
▁வாழ்வார்	-8656
▁விண்வெளி	-8657
▁விற்பனைய	-8658
▁விளையாடல	-8659
▁விளையாடு	-8660
▁விழுப்பு	-8661
▁வீரப்பன்	-8662
▁வெளியில்	-8663
▁வேறொன்று	-8664
▁ஸ்கெட்ச்	-8665
▁ஸ்டைலில்	-8666
க்காரர்கள்	-8667
நாடாளுமன்ற	-8668
வர்கள்தான்	-8669
ிருக்கலாம்	-8670
▁அடித்துக்	-8671
▁அனுபவித்த	-8672
▁அளித்தார்	-8673
▁ஆகியவற்றை	-8674
▁ஆதாரங்களை	-8675
▁ஆற்றலுடைய	-8676
▁இந்தியில்	-8677
▁இருப்பின்	-8678
▁இருப்போர்	-8679
▁இல்லையேல்	-8680
▁உடையவரின்	-8681
▁உயர்கிறது	-8682
▁எதிர்ப்பை	-8683
▁என்பதற்கு	-8684
▁ஒப்படைக்க	-8685
▁ஒப்படைத்த	-8686
▁ஒருபோதும்	-8687
▁கட்டுப்பா	-8688
▁கிரண்பேடி	-8689
▁குற்றமும்	-8690
▁குளிர்கால	-8691
▁குளிர்ந்த	-8692
▁கூட்டுறவு	-8693
▁கொடுக்காத	-8694
▁கோபத்தில்	-8695
▁சகோதரிகள்	-8696
▁சதமடித்து	-8697
▁சாப்பிட்ட	-8698
▁சென்டினல்	-8699
▁தமிழுக்கு	-8700
▁தலைமறைவான	-8701
▁தாஜ்மஹால்	-8702
▁திமுகவின்	-8703
▁துணையாகக்	-8704
▁துறந்தார்	-8705
▁தேர்வுகள்	-8706
▁நிலத்தின்	-8707
▁நெகிழ்ச்ச	-8708
▁நெரிசலில்	-8709
▁நோயாளிகள்	-8710
▁பகிர்ந்து	-8711
▁படங்களில்	-8712
▁பயன்படும்	-8713
▁பராமரிக்க	-8714
▁பின்னடைவு	-8715
▁பிரிட்டன்	-8716
▁பிறக்கும்	-8717
▁பெங்களூர்	-8718
▁பெண்களின்	-8719
▁பெய்யாமல்	-8720
▁பொருளைக்	-8721
▁போட்டியிட	-8722
▁மக்களிடம்	-8723
▁மனிதர்களை	-8724
▁மாணவர்களை	-8725
▁ரசிகர்களை	-8726
▁ராக்கர்ஸ்	-8727
▁வரக்கூடிய	-8728
▁வரலட்சுமி	-8729
▁விளையாடிய	-8730
▁வீழ்ந்தது	-8731
▁வெட்கப்பட	-8732
▁வேடத்தில்	-8733
▁ஹைதராபாத்	-8734
▁அஜித்துடன்	-8735
▁அத்துமீறிய	-8736
▁அமைப்புகள்	-8737
▁அயர்லாந்து	-8738
▁அறத்தையும்	-8739
▁அலங்காநல்ல	-8740
▁அவர்களிடம்	-8741
▁ஆண்டுகளில்	-8742
▁இடைக்காலத்	-8743
▁உள்ளத்தால்	-8744
▁என்பதுதான்	-8745
▁ஏடிஎம்மில்	-8746
▁ஏற்பாடுகள்	-8747
▁ஏலத்துக்கு	-8748
▁கண்காணிக்க	-8749
▁கண்ணீருடன்	-8750
▁காணும்போது	-8751
▁கேள்விக்கு	-8752
▁கொண்டாலும்	-8753
▁சகோதரர்கள்	-8754
▁சத்தீஸ்கர்	-8755
▁சாதிக்குமா	-8756
▁சுற்றுலாப்	-8757
▁சேர்ந்தால்	-8758
▁டாக்டர்கள்	-8759
▁தேர்வுக்கு	-8760
▁தொண்டர்கள்	-8761
▁நாட்டுக்கு	-8762
▁நிராகரித்த	-8763
▁நூற்றாண்டு	-8764
▁பனிமூட்டம்	-8765
▁பிடிக்கும்	-8766
▁பேராசிரியை	-8767
▁பேருந்தில்	-8768
▁பொதுச்செயல	-8769
▁போதெல்லாம்	-8770
▁மனிதாபிமான	-8771
▁மறுத்ததால்	-8772
▁மறுபடியும்	-8773
▁முனைப்பில்	-8774
▁யாருக்கும்	-8775
▁ராகுலுக்கு	-8776
▁ரிப்போர்ட்	-8777
▁வளாகத்தில்	-8778
▁வாகனத்தில்	-8779
▁விமானங்கள்	-8780
▁விழாவுக்கு	-8781
▁வெளிப்படைய	-8782
▁வைக்கிறார்	-8783
▁ஆட்சியமைக்க	-8784
▁இருக்கிறேன்	-8785
▁உண்ணாவிரதப்	-8786
▁கண்டெடுப்பு	-8787
▁கருதப்படும்	-8788
▁காய்ச்சலால்	-8789
▁குடும்பத்தை	-8790
▁சுற்றத்தார்	-8791
▁செய்தியாளரை	-8792
▁சேதுபதியின்	-8793
▁தமிழர்களின்	-8794
▁தயாரிப்பில்	-8795
▁தற்கொலைக்கு	-8796
▁தாக்கப்பட்ட	-8797
▁தாக்கியதில்	-8798
▁தாக்குதலில்	-8799
▁திட்டமிட்டு	-8800
▁திருச்செந்த	-8801
▁திருமுருகன்	-8802
▁திரும்பவும்	-8803
▁துன்பத்தைக்	-8804
▁நடிக்கிறார்	-8805
▁நன்மையாகும்	-8806
▁நாணத்தையும்	-8807
▁நினைக்காமல்	-8808
▁நெடுவாசலில்	-8809
▁பாதிரியார்க	-8810
▁பாரிவேந்தர்	-8811
▁பார்க்காமல்	-8812
▁பிடிவாரண்ட்	-8813
▁பேராசிரியர்	-8814
▁முடிவெடுத்த	-8815
▁முயற்சியில்	-8816
▁வறியவர்க்கு	-8817
▁விளையாட்டாக	-8818
▁வெளிப்பட்டு	-8819
▁வேட்டையாடிய	-8820
▁ஆசிரியருக்கு	-8821
▁இன்பத்தையும்	-8822
▁இயக்குகிறார்	-8823
▁இருக்கின்றது	-8824
▁ஒப்புக்கொண்ட	-8825
▁கட்டாயமில்லை	-8826
▁காப்பாற்றும்	-8827
▁குற்றவாளிகளை	-8828
▁சட்டத்திற்கு	-8829
▁செய்யவேண்டிய	-8830
▁செவிலியர்கள்	-8831
▁திரும்பினார்	-8832
▁தொடங்குகிறது	-8833
▁நிறுவனத்தில்	-8834
▁பிறந்தநாளில்	-8835
▁போலீசாருக்கு	-8836
▁மெய்ப்பொருள்	-8837
▁வருடத்திற்கு	-8838
▁விரும்புமாறு	-8839
▁ஸ்மார்ட்போன்	-8840
▁ஃபேஸ்புக்கில்	-8841
▁இருந்தால்தான்	-8842
▁ஊழியர்களுக்கு	-8843
▁எதிர்பார்ப்பு	-8844
▁சிலைக்கடத்தல்	-8845
▁செய்யவேண்டும்	-8846
▁சொல்லப்படுவது	-8847
▁தமிழகத்துக்கு	-8848
▁நிகழ்ச்சிக்கு	-8849
▁விரும்பப்படாத	-8850
▁குடும்பத்தினர்	-8851
▁செந்தில்பாலாஜி	-8852
▁போர்க்களத்தில்	-8853
▁மருத்துவமனைகள்	-8854
▁வலைத்தளங்களில்	-8855
▁இந்தோனேஷியாவில்	-8856
▁எதிர்பார்க்கும்	-8857
▁களமிறங்குகிறார்	-8858
▁திருமணத்திற்காக	-8859
மத	-8860
மற	-8861
வல	-8862
ித	-8863
ொட	-8864
‌ய	-8865
ஃபை	-8866
அது	-8867
இஸ்	-8868
ஒது	-8869
கதை	-8870
ஜாம	-8871
ணவு	-8872
த்க	-8873
நடை	-8874
நாக	-8875
நேய	-8876
னன்	-8877
ன்ட	-8878
பாட	-8879
புன	-8880
ப்‌	-8881
மார	-8882
மாற	-8883
மிர	-8884
ரவா	-8885
ரவி	-8886
றச்	-8887
ள்ட	-8888
வாண	-8889
வித	-8890
வென	-8891
வெல	-8892
ஸ்ஸ	-8893
ாகர	-8894
ாகா	-8895
ாணி	-8896
ாவா	-8897
ினே	-8898
ீஷ்	-8899
ுமே	-8900
ூப்	-8901
ோரை	-8902
்தோ	-8903
‌லை	-8904
‌ஷி	-8905
▁..	-8906
▁  	-8907
▁ஈய	-8908
▁உன	-8909
▁எல	-8910
▁ஏற	-8911
▁ஏவ	-8912
▁ஓப	-8913
▁க்	-8914
▁நை	-8915
▁ரை	-8916
▁று	-8917
▁ஷெ	-8918
▁ஷோ	-8919
அன்ப	-8920
உள்ள	-8921
எங்க	-8922
எதிர	-8923
கோலி	-8924
கோல்	-8925
க்டே	-8926
சக்க	-8927
சிகி	-8928
சிம்	-8929
சும்	-8930
செட்	-8931
ஜியோ	-8932
டாவை	-8933
டினா	-8934
டில்	-8935
ட்ரி	-8936
ணுமா	-8937
ண்டோ	-8938
தானே	-8939
தேவா	-8940
நிகழ	-8941
நூல்	-8942
னிதா	-8943
னையள	-8944
பானி	-8945
பாரி	-8946
போரா	-8947
ப்ட்	-8948
மாடு	-8949
மாய்	-8950
மிஸ்	-8951
முடி	-8952
மையோ	-8953
யிர்	-8954
ரசன்	-8955
ரினோ	-8956
ரியை	-8957
ரிஸ்	-8958
ருமா	-8959
ரைச்	-8960
ரையை	-8961
றிப்	-8962
ற்றே	-8963
லாமே	-8964
லையே	-8965
ல்ஸ்	-8966
ளைத்	-8967
ள்ளே	-8968
ழகம்	-8969
ழுகு	-8970
வாயு	-8971
வாரே	-8972
வாலை	-8973
விலே	-8974
வீர்	-8975
வேனோ	-8976
வோரை	-8977
ஸூம்	-8978
ஹானா	-8979
ாங்க	-8980
ிபன்	-8981
ூகம்	-8982
ையிற	-8983
ோடிய	-8984
’...	-8985
”...	-8986
▁ஃபி	-8987
▁அகா	-8988
▁அயல	-8989
▁ஆதா	-8990
▁ஆமை	-8991
▁ஆரு	-8992
▁இகல	-8993
▁இதய	-8994
▁இழை	-8995
▁உழு	-8996
▁ஊரு	-8997
▁ஊழ்	-8998
▁எடை	-8999
▁எமி	-9000
▁ஏது	-9001
▁ஏரா	-9002
▁ஏறு	-9003
▁கட்	-9004
▁கரி	-9005
▁காச	-9006
▁கெட	-9007
▁கேர	-9008
▁கோட	-9009
▁சசி	-9010
▁சஜ்	-9011
▁சூர	-9012
▁தாத	-9013
▁தேட	-9014
▁நசு	-9015
▁நல்	-9016
▁பயோ	-9017
▁பழை	-9018
▁பிக	-9019
▁பிஷ	-9020
▁பூத	-9021
▁பேத	-9022
▁மனோ	-9023
▁மரா	-9024
▁மிள	-9025
▁ரஷி	-9026
▁வித	-9027
▁வெஃ	-9028
▁ஹாச	-9029
ஃபோர்	-9030
ஃப்ரி	-9031
ங்கார	-9032
சிஐடி	-9033
டனும்	-9034
ண்யம்	-9035
தரும்	-9036
தளபதி	-9037
தாகப்	-9038
தாகவே	-9039
துவதை	-9040
பெரிய	-9041
ப்பணி	-9042
ப்பாத	-9043
மிட்ட	-9044
ரைலர்	-9045
ற்றிட	-9046
ல்கர்	-9047
ளாகிய	-9048
வட்டி	-9049
வந்து	-9050
வனையே	-9051
ஷோகி	-9052
ாகுமா	-9053
ாங்கு	-9054
ாதீர்	-9055
ாதேவி	-9056
ானாம்	-9057
ானைக்	-9058
ாய்வு	-9059
ாரைப்	-9060
ாவைக்	-9061
ினாரா	-9062
ிறவன்	-9063
ிறாரா	-9064
ிலார்	-9065
ூய்மை	-9066
ெருமை	-9067
ையாய்	-9068
ையார்	-9069
ொழுகு	-9070
ோடிரு	-9071
்சிங்	-9072
▁அசைவ	-9073
▁அனித	-9074
▁அமளி	-9075
▁அமோக	-9076
▁அருள	-9077
▁அவரு	-9078
▁ஆஃப்	-9079
▁ஆளான	-9080
▁ஈடாக	-9081
▁ஈதல்	-9082
▁உட்க	-9083
▁ஊழலை	-9084
▁ஒன்ன	-9085
▁கங்க	-9086
▁கடலை	-9087
▁கந்த	-9088
▁கலகல	-9089
▁கலாய	-9090
▁காவி	-9091
▁கிழி	-9092
▁கும்	-9093
▁குழி	-9094
▁கேட்	-9095
▁கொழு	-9096
▁கோம்	-9097
▁சமன்	-9098
▁சரத்	-9099
▁சாம்	-9100
▁சீர்	-9101
▁சுசி	-9102
▁சுமை	-9103
▁செட்	-9104
▁செப்	-9105
▁டிடி	-9106
▁தம்ம	-9107
▁தரம்	-9108
▁தாலி	-9109
▁தீவு	-9110
▁துடி	-9111
▁துறவ	-9112
▁துளை	-9113
▁தொகை	-9114
▁நகர்	-9115
▁நந்த	-9116
▁நன்ன	-9117
▁நாண்	-9118
▁நாளி	-9119
▁நிக்	-9120
▁நிற்	-9121
▁நிலு	-9122
▁பயம்	-9123
▁பழிய	-9124
▁பவன்	-9125
▁பீதி	-9126
▁புண்	-9127
▁பெர்	-9128
▁பேரி	-9129
▁பேறு	-9130
▁பொறை	-9131
▁மகளை	-9132
▁மடல்	-9133
▁மிசோ	-9134
▁முறு	-9135
▁முள்	-9136
▁மேரி	-9137
▁ராஜே	-9138
▁ராமே	-9139
▁ரேஸ்	-9140
▁லஞ்ச	-9141
▁வாடு	-9142
▁வாள்	-9143
▁வீசி	-9144
இயக்கு	-9145
எஸ்எஸ்	-9146
கையும்	-9147
க்கிச்	-9148
க்கோழி	-9149
க்ஸ்ட்	-9150
ங்கூர்	-9151
சூர்யா	-9152
செய்து	-9153
ச்சொல்	-9154
ட்டிச்	-9155
ட்ரினோ	-9156
த்தமிழ	-9157
த்தானே	-9158
த்தாற்	-9159
த்தியை	-9160
த்திலே	-9161
த்தேன்	-9162
னையால்	-9163
ன்றிக்	-9164
ப்பாரா	-9165
ப்பிரி	-9166
ப்பொழு	-9167
மாட்சி	-9168
மித்ரா	-9169
மூட்டி	-9170
ம்பரம்	-9171
ரோகித்	-9172
ர்களாக	-9173
றிக்கு	-9174
றையின்	-9175
ற்றிச்	-9176
ாயத்து	-9177
ாலுடன்	-9178
ொண்டு	-9179
ையாகக்	-9180
ையாகவே	-9181
▁அகமது	-9182
▁அங்கே	-9183
▁அதிசய	-9184
▁அன்பை	-9185
▁அப்பு	-9186
▁அமல்ப	-9187
▁அம்பு	-9188
▁அரவணை	-9189
▁அர்ஜூ	-9190
▁அளவின	-9191
▁அழகிய	-9192
▁அவ்ளோ	-9193
▁அஷ்வி	-9194
▁ஆக்கு	-9195
▁ஆங்கே	-9196
▁ஆசிட்	-9197
▁ஆர்டி	-9198
▁ஆவின்	-9199
▁இங்கி	-9200
▁இடஒது	-9201
▁இண்டீ	-9202
▁இன்சொ	-9203
▁ஈரான்	-9204
▁உதவாத	-9205
▁உழவர்	-9206
▁என்னு	-9207
▁ஐபோன்	-9208
▁ஐம்பொ	-9209
▁ஐயப்ப	-9210
▁ஓவியா	-9211
▁கஜோல்	-9212
▁கடையை	-9213
▁கட்டட	-9214
▁கணவரை	-9215
▁கரும்	-9216
▁கலாம்	-9217
▁கல்லா	-9218
▁கவனம்	-9219
▁கவுர்	-9220
▁குதிர	-9221
▁குளறு	-9222
▁சத்து	-9223
▁சலுகை	-9224
▁சிவன்	-9225
▁சுதாக	-9226
▁சூழல்	-9227
▁செங்க	-9228
▁ஜப்தி	-9229
▁டாலர்	-9230
▁தங்கு	-9231
▁தப்பு	-9232
▁தயங்க	-9233
▁தர்ணா	-9234
▁தவறிய	-9235
▁தில்ல	-9236
▁தீட்ட	-9237
▁தீவிப	-9238
▁நகும்	-9239
▁நடராஜ	-9240
▁நட்பா	-9241
▁நல்லா	-9242
▁நாங்க	-9243
▁நாப்க	-9244
▁நாயர்	-9245
▁நாள்க	-9246
▁நீர்த	-9247
▁நுண்ண	-9248
▁பகவத்	-9249
▁பஞ்ச்	-9250
▁படையை	-9251
▁பண்பை	-9252
▁பத்து	-9253
▁பரிசீ	-9254
▁பற்றா	-9255
▁பழிவா	-9256
▁பாடலை	-9257
▁பாட்ட	-9258
▁பாவனா	-9259
▁பிளஸ்	-9260
▁புறம்	-9261
▁புள்ள	-9262
▁பூண்ட	-9263
▁பெறாத	-9264
▁பேசுக	-9265
▁போரா	-9266
▁போராட	-9267
▁ப்ளஸ்	-9268
▁மங்கை	-9269
▁மணந்த	-9270
▁மனக்க	-9271
▁மன்னோ	-9272
▁மயங்க	-9273
▁மலாலா	-9274
▁மாடல்	-9275
▁மாந்த	-9276
▁ராகவா	-9277
▁ராயல்	-9278
▁ரேசன்	-9279
▁வருது	-9280
▁வழியை	-9281
▁வீணான	-9282
▁வீரம்	-9283
▁ஸ்ரீத	-9284
எல்லாம்	-9285
கடைக்கு	-9286
கருணாநி	-9287
குடும்ப	-9288
க்கடையை	-9289
க்காலம்	-9290
க்கிடம்	-9291
க்குதல்	-9292
க்குரிய	-9293
க்கோட்ட	-9294
ங்கரின்	-9295
சூப்பர்	-9296
ச்செல்ல	-9297
ஜினீயர்	-9298
ட்டுகளை	-9299
ணர்ந்து	-9300
த்தனமாக	-9301
நீக்கம்	-9302
னறிந்து	-9303
ப்பதற்க	-9304
மதிப்பு	-9305
முடியாத	-9306
ம்பிள்ட	-9307
ரத்தில்	-9308
லியிடம்	-9309
ழ்கிறது	-9310
வத்தில்	-9311
வரானார்	-9312
வர்தான்	-9313
வர்தாம்	-9314
வற்றால்	-9315
வற்றில்	-9316
வற்றுள்	-9317
வற்றைப்	-9318
வற்றையே	-9319
வில்லிய	-9320
வேலுமணி	-9321
ாட்டில்	-9322
ாளியின்	-9323
ாவிடில்	-9324
ெண்டினா	-9325
ென்டினா	-9326
ேயானால்	-9327
ையையும்	-9328
்த்துக்	-9329
▁அகத்தே	-9330
▁அகற்றி	-9331
▁அகாடமி	-9332
▁அடிப்ப	-9333
▁அணிகளை	-9334
▁அதிவேக	-9335
▁அதைவிட	-9336
▁அமேசான	-9337
▁அமையாத	-9338
▁அறநெறி	-9339
▁அல்லல்	-9340
▁அல்லவை	-9341
▁அவனைச்	-9342
▁ஆறுதல்	-9343
▁ஆல்ரவு	-9344
▁இடத்து	-9345
▁இந்நான	-9346
▁இனியது	-9347
▁இறங்கி	-9348
▁இறப்பு	-9349
▁இழப்பு	-9350
▁ஈபிஎஸ்	-9351
▁உணரும்	-9352
▁உண்டது	-9353
▁உண்டான	-9354
▁உம்மன்	-9355
▁உயரமான	-9356
▁உரிமம்	-9357
▁ஊழியரை	-9358
▁எளிதான	-9359
▁ஏந்திய	-9360
▁ஒன்றாக	-9361
▁ஒருவரை	-9362
▁ஓட்டல்	-9363
▁கசிந்த	-9364
▁கடமையை	-9365
▁கடைகளை	-9366
▁கண்களே	-9367
▁கரம்பி	-9368
▁கருணைய	-9369
▁கலவரம்	-9370
▁களித்த	-9371
▁கவரும்	-9372
▁கஷ்டம்	-9373
▁காணின்	-9374
▁காவலரை	-9375
▁காவல்ப	-9376
▁குரூப்	-9377
▁குல்பூ	-9378
▁கையால்	-9379
▁கொச்சை	-9380
▁கொடியே	-9381
▁கோர்ட்	-9382
▁சஜ்ஜன்	-9383
▁சமரசம்	-9384
▁சமுதாய	-9385
▁சமையல்	-9386
▁சரமாரி	-9387
▁சிதம்ப	-9388
▁சிலைக்	-9389
▁சுடுகா	-9390
▁சுப்பு	-9391
▁செஞ்சு	-9392
▁செயற்ப	-9393
▁செயல்த	-9394
▁செய்வத	-9395
▁செரினா	-9396
▁ஜோனாஸ்	-9397
▁டான்ஸ்	-9398
▁டாப்ஸி	-9399
▁டிகிரி	-9400
▁டிப்ஸ்	-9401
▁ட்ராக்	-9402
▁தங்களை	-9403
▁தனிச்ச	-9404
▁தன்னிட	-9405
▁தரையிற	-9406
▁தலையிட	-9407
▁தளர்வு	-9408
▁திருமா	-9409
▁துண்டி	-9410
▁துறக்க	-9411
▁தென்கொ	-9412
▁தெற்கு	-9413
▁தேவகவு	-9414
▁தொட்டு	-9415
▁நடத்தி	-9416
▁நடுக்க	-9417
▁நடைபெற	-9418
▁நல்லப்	-9419
▁நாணும்	-9420
▁நானும்	-9421
▁நிதியை	-9422
▁நிலைபெ	-9423
▁நிவின்	-9424
▁நோயும்	-9425
▁பகலில்	-9426
▁படுத்த	-9427
▁பன்வார	-9428
▁பலசாலி	-9429
▁பாண்டே	-9430
▁பிரின்	-9431
▁புதுமண	-9432
▁புலால்	-9433
▁புஷ்பா	-9434
▁பூங்கா	-9435
▁பெண்மை	-9436
▁பேணிக்	-9437
▁பேராசை	-9438
▁போன்று	-9439
▁மடக்கி	-9440
▁மண்டிய	-9441
▁மன்னன்	-9442
▁மன்றம்	-9443
▁மயங்கு	-9444
▁மல்லைய	-9445
▁மிஸ்ரா	-9446
▁மெய்யு	-9447
▁மெரினா	-9448
▁மொட்டை	-9449
▁ராஜீவ்	-9450
▁ராஜேஷ்	-9451
▁ராதிகா	-9452
▁ரெஹானா	-9453
▁லியோன்	-9454
▁வங்கிய	-9455
▁வலிமைய	-9456
▁வழியாக	-9457
▁வாயில்	-9458
▁வாய்ச்	-9459
▁விஷ்ணு	-9460
▁வெள்ளி	-9461
▁வேட்பு	-9462
▁வேள்வி	-9463
▁ஸ்டாலி	-9464
▁ஸ்வேதா	-9465
▁ஹிந்து	-9466
▁ஹெக்டே	-9467
அன்பழகன்	-9468
களுக்காக	-9469
கிருஷ்ணா	-9470
க்குமாடி	-9471
செய்யும்	-9472
த்திற்கே	-9473
ந்துக்கு	-9474
பிக்பாஸ்	-9475
ப்படுவர்	-9476
ப்பவரின்	-9477
ப்புள்ளி	-9478
ரைக்கும்	-9479
றிந்தார்	-9480
வாய்ப்பு	-9481
ினத்தில்	-9482
ுக்குரிய	-9483
ையொருவர்	-9484
▁ஃபெடரர்	-9485
▁அச்சாணி	-9486
▁அஞ்சாமை	-9487
▁அடங்காத	-9488
▁அடங்கிய	-9489
▁அடைத்து	-9490
▁அடைந்து	-9491
▁அநாகரிக	-9492
▁அன்பின்	-9493
▁அப்செட்	-9494
▁அமர்த்த	-9495
▁அரசியலை	-9496
▁அர்ஜுன்	-9497
▁அல்லால்	-9498
▁அழுதாள்	-9499
▁அவளுடைய	-9500
▁ஆக்கும்	-9501
▁ஆசிரமம்	-9502
▁ஆதரவற்ற	-9503
▁ஆப்கானி	-9504
▁இடங்கள்	-9505
▁இடையூறு	-9506
▁இந்திரா	-9507
▁இன்னிங்	-9508
▁இருப்போ	-9509
▁உடையதாக	-9510
▁உடையவரே	-9511
▁உண்மைப்	-9512
▁உதவுவது	-9513
▁உறவினர்	-9514
▁உலகத்து	-9515
▁உள்ளூர்	-9516
▁எதுவுமே	-9517
▁எனைத்தொ	-9518
▁என்னவர்	-9519
▁எரித்து	-9520
▁எரிப்பு	-9521
▁எரியும்	-9522
▁எரிவாயு	-9523
▁எவ்வாறு	-9524
▁ஏராளமான	-9525
▁ஒப்பற்ற	-9526
▁ஒருவனது	-9527
▁கண்ணின்	-9528
▁கருணைக்	-9529
▁கற்றுத்	-9530
▁கல்யாண்	-9531
▁காதலால்	-9532
▁காதலைப்	-9533
▁காமராஜ்	-9534
▁காலத்தை	-9535
▁கால்நடை	-9536
▁கின்னஸ்	-9537
▁குணத்தை	-9538
▁குறிப்ப	-9539
▁குறைவான	-9540
▁குவித்த	-9541
▁கைவரிசை	-9542
▁கொல்லாத	-9543
▁சகோதரர்	-9544
▁சாமானிய	-9545
▁சிரிக்க	-9546
▁சீக்கிய	-9547
▁சுவரில்	-9548
▁சூழலில்	-9549
▁செயலும்	-9550
▁செய்வதே	-9551
▁சொல்லிய	-9552
▁சோம்பலை	-9553
▁ட்ரைலர்	-9554
▁தந்தையை	-9555
▁தம்மைத்	-9556
▁தலைமைத்	-9557
▁தழுவிக்	-9558
▁தானாகவே	-9559
▁தீமையான	-9560
▁தீர்க்க	-9561
▁துரத்தி	-9562
▁நடக்காத	-9563
▁நட்புச்	-9564
▁நட்பைப்	-9565
▁நாங்கள்	-9566
▁நாடுகள்	-9567
▁நாற்கால	-9568
▁நிலத்தை	-9569
▁நெடுஞ்ச	-9570
▁நோட்டு	-9571
▁பகைவர்க	-9572
▁பக்ரீத்	-9573
▁பட்டேல்	-9574
▁பணிக்கு	-9575
▁பந்தில்	-9576
▁பனிப்பொ	-9577
▁பர்ஸ்ட்	-9578
▁பழனிசாம	-9579
▁பின்னர்	-9580
▁பிறரால்	-9581
▁புகழைக்	-9582
▁புதிதாக	-9583
▁புயலில்	-9584
▁புரிந்த	-9585
▁புலிகள்	-9586
▁பொருள்	-9587
▁மகளுடன்	-9588
▁மண்ணில்	-9589
▁மனிதநேய	-9590
▁மற்றோர்	-9591
▁மலர்களை	-9592
▁மலையில்	-9593
▁மழையால்	-9594
▁மாந்தர்	-9595
▁மானியம்	-9596
▁மிரண்டு	-9597
▁முகமூடி	-9598
▁முந்திய	-9599
▁மொத்தம்	-9600
▁யானைகளை	-9601
▁ரகுராம்	-9602
▁ரஜினியை	-9603
▁ரன்வீர்	-9604
▁வயிற்று	-9605
▁வரவேற்ற	-9606
▁வருவாய்	-9607
▁வலையில்	-9608
▁வல்லவர்	-9609
▁வளர்த்த	-9610
▁வளர்ந்த	-9611
▁வழங்காத	-9612
▁வாசிகள்	-9613
▁வாழ்வர்	-9614
▁விடுவது	-9615
▁வீடுகளை	-9616
▁வெட்கம்	-9617
▁வேலைகள்	-9618
களுக்குத்	-9619
க்கவில்லை	-9620
ட்டியுடன்	-9621
ந்துள்ளது	-9622
ன்களுக்கு	-9623
ப்படுத்தி	-9624
ப்படுவார்	-9625
ல்களையும்	-9626
ளிக்கிறது	-9627
வர்களுடன்	-9628
வற்றையும்	-9629
விசுவாசம்	-9630
ார்க்கும்	-9631
ையாளர்கள்	-9632
ையெல்லாம்	-9633
▁அதற்குப்	-9634
▁அன்புடன்	-9635
▁அன்புடைய	-9636
▁அப்துல்க	-9637
▁அமிழ்தம்	-9638
▁அமைகிறது	-9639
▁அமைச்சன்	-9640
▁அறத்தின்	-9641
▁அறிவிக்க	-9642
▁அறிவித்த	-9643
▁அழகாகும்	-9644
▁அழகையும்	-9645
▁அவளுக்கு	-9646
▁ஆக்கிரமி	-9647
▁ஆட்டுக்க	-9648
▁ஆற்றலும்	-9649
்	-9650
▁	-9651
க	-9652
ி	-9653
ு	-9654
த	-9655
ம	-9656
ர	-9657
ா	-9658
ப	-9659
ட	-9660
ல	-9661
வ	-9662
ன	-9663
ை	-9664
ய	-9665
ச	-9666
ற	-9667
ந	-9668
ள	-9669
ண	-9670
ே	-9671
ெ	-9672
அ	-9673
.	-9674
ோ	-9675
இ	-9676
ழ	-9677
ீ	-9678
எ	-9679
ொ	-9680
உ	-9681
ங	-9682
:	-9683
,	-9684
ூ	-9685
ஆ	-9686
ஸ	-9687
ஜ	-9688
-	-9689
?	-9690
ஒ	-9691
0	-9692
ஷ	-9693
ஏ	-9694
’	-9695
ஞ	-9696
 	-9697
”	-9698
1	-9699
“	-9700
2	-9701
'	-9702
ஹ	-9703
ஐ	-9704
‘	-9705
5	-9706
ஓ	-9707
ஊ	-9708
;	-9709
3	-9710
4	-9711
‌	-9712
ஃ	-9713
6	-9714
7	-9715
8	-9716
9	-9717
ஈ	-9718
)	-9719
(	-9720
`	-9721
%	-9722
"	-9723
e	-9724
a	-9725
஧	-9726
#	-9727
o	-9728
s	-9729
ௌ	-9730
/	-9731
M	-9732
d	-9733
i	-9734
t	-9735
L	-9736
r	-9737
v	-9738
p	-9739
–	-9740
