{
    "<unk>": 0,
    " ": 1,
    " \"": 2,
    " '": 3,
    " , ": 4,
    " -": 5,
    " - ": 6,
    " - '": 7,
    " ., ": 8,
    " 2": 9,
    " i": 10,
    " in ": 11,
    " அ": 12,
    " அடி": 13,
    " அதி": 14,
    " அதிகார": 15,
    " அதிர": 16,
    " அந்த": 17,
    " அனு": 18,
    " அனை": 19,
    " அமைச்ச": 20,
    " அமைச்சர் ": 21,
    " அரச": 22,
    " அரசின் ": 23,
    " அரசியல் ": 24,
    " அரசு": 25,
    " அரசு ": 26,
    " அரசு</w>": 27,
    " அரசுக்கு ": 28,
    " அரு": 29,
    " அற": 30,
    " அறி": 31,
    " அள": 32,
    " அளவிற்கு ": 33,
    " அளவில் ": 34,
    " அழ": 35,
    " அவ": 36,
    " ஆ": 37,
    " ஆக": 38,
    " ஆகிய": 39,
    " ஆண்டு": 40,
    " ஆன": 41,
    " ஆயிரம் ": 42,
    " ஆரம்ப": 43,
    " இ": 44,
    " இடங்களில் ": 45,
    " இடத்த": 46,
    " இடத்தில் ": 47,
    " இந்த": 48,
    " இந்திய": 49,
    " இந்தியா": 50,
    " இன்ன": 51,
    " இன்னும் பல": 52,
    " இய": 53,
    " இயக்கு": 54,
    " இயக்குன": 55,
    " இயக்குனர் ": 56,
    " இர": 57,
    " இரு": 58,
    " இருக்க": 59,
    " இளம் ": 60,
    " இளைஞ": 61,
    " உ": 62,
    " உச்ச": 63,
    " உட": 64,
    " உண": 65,
    " உத": 66,
    " உத்தர": 67,
    " உத்தரவு</w>": 68,
    " உயர்": 69,
    " உரி": 70,
    " உற": 71,
    " உறு": 72,
    " உலக": 73,
    " ஊ": 74,
    " எ": 75,
    " எண்ண": 76,
    " எதிர": 77,
    " எதிர்ப்ப": 78,
    " என": 79,
    " என் ": 80,
    " எம்": 81,
    " எம்எல்ஏ": 82,
    " எல்ல": 83,
    " ஏ": 84,
    " ஒ": 85,
    " ஒரு ": 86,
    " ஓ": 87,
    " க": 88,
    " கட": 89,
    " கட்ட": 90,
    " கண": 91,
    " கண்ட": 92,
    " கண்ண": 93,
    " கத": 94,
    " கதா": 95,
    " கதாபாத்திர": 96,
    " கதை": 97,
    " கதை ": 98,
    " கதைக்க": 99,
    " கதைய": 100,
    " கதையை ": 101,
    " கன": 102,
    " கம": 103,
    " கரு": 104,
    " கல": 105,
    " கலைஞ": 106,
    " கா": 107,
    " காட்சிகள் ": 108,
    " காதல": 109,
    " காதல் ": 110,
    " காமெ": 111,
    " காமெடி ": 112,
    " கார": 113,
    " காரண": 114,
    " காரணம் ": 115,
    " கார்த்த": 116,
    " கால": 117,
    " காவல": 118,
    " கி": 119,
    " கிர": 120,
    " கிராம": 121,
    " கிரிக்க": 122,
    " கிரிக்கெட் ": 123,
    " கிருஷ்ண": 124,
    " கு": 125,
    " குடும்ப": 126,
    " குண": 127,
    " கும்ப": 128,
    " குற": 129,
    " குறை": 130,
    " குற்ற": 131,
    " குழந்த": 132,
    " குழந்தை ": 133,
    " கூ": 134,
    " கூட்ட": 135,
    " கெ": 136,
    " கே": 137,
    " கேட்க": 138,
    " கேர": 139,
    " கேள்வி": 140,
    " கொ": 141,
    " கொஞ்சம் ": 142,
    " கொலை ": 143,
    " கோ": 144,
    " கோடி ": 145,
    " ச": 146,
    " சக்த": 147,
    " சங்க": 148,
    " சந்த": 149,
    " சமூக": 150,
    " சம்ப": 151,
    " சம்பவ": 152,
    " சர": 153,
    " சா": 154,
    " சாத": 155,
    " சி": 156,
    " சின்ன": 157,
    " சிற": 158,
    " சிறு": 159,
    " சிவா": 160,
    " சீ": 161,
    " சு": 162,
    " சூ": 163,
    " சூழ": 164,
    " செ": 165,
    " செய": 166,
    " செயல்கள": 167,
    " சே": 168,
    " சொ": 169,
    " சொற்கள": 170,
    " சொல்க": 171,
    " சொல்ல": 172,
    " சோ": 173,
    " ட": 174,
    " த": 175,
    " தகவ": 176,
    " தடை": 177,
    " தடை ": 178,
    " தந்த": 179,
    " தன": 180,
    " தனு": 181,
    " தன் ": 182,
    " தமிழ": 183,
    " தமிழக": 184,
    " தமிழ் ": 185,
    " தயார": 186,
    " தயாரிப்ப": 187,
    " தலை": 188,
    " தீ": 189,
    " து": 190,
    " தூ": 191,
    " தெ": 192,
    " தெரி": 193,
    " தெரிய": 194,
    " தே": 195,
    " தேர்த": 196,
    " தொ": 197,
    " தொட": 198,
    " தோ": 199,
    " தோன்று": 200,
    " ந": 201,
    " நட": 202,
    " நடி": 203,
    " நடிக": 204,
    " நடிகர் ": 205,
    " நடிகை ": 206,
    " நடிப்பு": 207,
    " நடிப்பை ": 208,
    " நடிப்பை வெளிப்ப": 209,
    " நட்சத்திர": 210,
    " நட்ப": 211,
    " நண்ப": 212,
    " நம்ப": 213,
    " நல்ல": 214,
    " நா": 215,
    " நாட": 216,
    " நாட்கள": 217,
    " நாட்களில் ": 218,
    " நாண": 219,
    " நாள் ": 220,
    " நி": 221,
    " நினை": 222,
    " நினைக்க": 223,
    " நிமி": 224,
    " நிர": 225,
    " நிறு": 226,
    " நிறுவன": 227,
    " நில": 228,
    " நிலைய": 229,
    " நிலையில் ": 230,
    " நீ": 231,
    " நீதி": 232,
    " நீதிமன்ற": 233,
    " நூ": 234,
    " நெ": 235,
    " நெஞ்ச": 236,
    " நே": 237,
    " நேர": 238,
    " நேரத்தில் ": 239,
    " நோ": 240,
    " ப": 241,
    " பட": 242,
    " படங்கள": 243,
    " படங்களில் ": 244,
    " படங்களை ": 245,
    " படங்கள் ": 246,
    " படத்த": 247,
    " படத்தின் ": 248,
    " படத்திற்கு ": 249,
    " படத்தில் ": 250,
    " படத்தை ": 251,
    " படம் ": 252,
    " படம் தான் ": 253,
    " படு": 254,
    " பட்ஜெ": 255,
    " பட்ட": 256,
    " பண": 257,
    " பண்ப": 258,
    " பதி": 259,
    " பய": 260,
    " பயண": 261,
    " பயன்ப": 262,
    " பர": 263,
    " பல": 264,
    " பள்ள": 265,
    " பா": 266,
    " பாக": 267,
    " பாஜக": 268,
    " பாட": 269,
    " பாடல": 270,
    " பாடல் ": 271,
    " பாண்டிய": 272,
    " பாதுகா": 273,
    " பாத்திர": 274,
    " பார": 275,
    " பார்க்க": 276,
    " பார்த்த": 277,
    " பார்ப்ப": 278,
    " பார்ப்போம்.<NEWLINE>": 279,
    " பால": 280,
    " பி": 281,
    " பின்ன": 282,
    " பிர": 283,
    " பிரச்ச": 284,
    " பிற": 285,
    " பிறகு ": 286,
    " பு": 287,
    " புக": 288,
    " புகழ": 289,
    " புதிய": 290,
    " புது": 291,
    " பூ": 292,
    " பெ": 293,
    " பெண": 294,
    " பெண்": 295,
    " பெண் ": 296,
    " பெண்ண": 297,
    " பெய": 298,
    " பெரிய": 299,
    " பெரு": 300,
    " பே": 301,
    " பேர": 302,
    " பேர் ": 303,
    " பேர் உயிரிழப்பு</w>": 304,
    " பேர் பல": 305,
    " பொ": 306,
    " பொரு": 307,
    " பொருள": 308,
    " போ": 309,
    " போது ": 310,
    " போரா": 311,
    " போலி": 312,
    " போலீ": 313,
    " போலீஸ் ": 314,
    " ப்": 315,
    " ப்ள": 316,
    " ம": 317,
    " மக்க": 318,
    " மக்கள": 319,
    " மணி ": 320,
    " மத்திய": 321,
    " மன": 322,
    " மனி": 323,
    " மனித": 324,
    " மனை": 325,
    " மரு": 326,
    " மருத்துவ": 327,
    " மறு": 328,
    " மற்ற": 329,
    " மா": 330,
    " மாட்ட": 331,
    " மாண": 332,
    " மாத": 333,
    " மாதிரி ": 334,
    " மாவட்ட": 335,
    " மி": 336,
    " மிர": 337,
    " மீ": 338,
    " மீன": 339,
    " மு": 340,
    " முக": 341,
    " முக்கிய": 342,
    " முடி": 343,
    " முடிய": 344,
    " முடியாத": 345,
    " முடியாது": 346,
    " முடியாது ": 347,
    " முடியாமல் ": 348,
    " முதல": 349,
    " முதல்": 350,
    " முதல் ": 351,
    " முய": 352,
    " முயன்ற": 353,
    " முயற்ச": 354,
    " முயற்சி ": 355,
    " முற": 356,
    " முறை ": 357,
    " மூ": 358,
    " மூன்று ": 359,
    " மெ": 360,
    " மே": 361,
    " மொ": 362,
    " மொத்த": 363,
    " மோ": 364,
    " ர": 365,
    " ரஜின": 366,
    " ரவு": 367,
    " ரா": 368,
    " ரூ": 369,
    " ரூபாய் ": 370,
    " ரூபாய் நோ": 371,
    " ரூபாய் நோட்டு": 372,
    " ரெ": 373,
    " ரோ": 374,
    " ல": 375,
    " லட்ச": 376,
    " லட்சம் ": 377,
    " வ": 378,
    " வகையில் ": 379,
    " வசன": 380,
    " வசனங்கள் ": 381,
    " வந்த": 382,
    " வய": 383,
    " வயதில் ": 384,
    " வயது ": 385,
    " வரு": 386,
    " வருடங்கள": 387,
    " வருடங்களுக்கு ": 388,
    " வலை": 389,
    " வல்ல": 390,
    " வள": 391,
    " வழ": 392,
    " வழக்கு": 393,
    " வழக்கு ": 394,
    " வா": 395,
    " வாக": 396,
    " வார": 397,
    " வி": 398,
    " விசய": 399,
    " விசார": 400,
    " விஜ": 401,
    " விஜய் ": 402,
    " விட": 403,
    " வித": 404,
    " விதம் ": 405,
    " விப": 406,
    " விமான": 407,
    " விரா": 408,
    " விரு": 409,
    " விரும்ப": 410,
    " விரும்பு": 411,
    " வில்ல": 412,
    " விள": 413,
    " விளையா": 414,
    " விழ": 415,
    " விவகார": 416,
    " விவசாய": 417,
    " விஷ": 418,
    " விஷய": 419,
    " வீ": 420,
    " வீடியோ": 421,
    " வீர": 422,
    " வெ": 423,
    " வெற்ற": 424,
    " வெற்றி": 425,
    " வே": 426,
    " வேண்ட": 427,
    " வேண்டா": 428,
    " வேண்டிய": 429,
    " வேண்டு": 430,
    " வேண்டும்": 431,
    " வேண்டும் ": 432,
    " வேண்டும் என்ற": 433,
    " வேண்டும் என்று ": 434,
    " வேண்டும். ": 435,
    " வேண்டும்: ": 436,
    " வேறு ": 437,
    " வை": 438,
    " வைக்க": 439,
    " வைக்கின்ற": 440,
    " வைத்த": 441,
    " வைத்து ": 442,
    " ஹீரோ": 443,
    " ‘": 444,
    "!": 445,
    "! ": 446,
    "!\"": 447,
    "!\"</w>": 448,
    "!</w>": 449,
    "!<NEWLINE>": 450,
    "\"": 451,
    "\" ": 452,
    "\" , \"": 453,
    "\" என": 454,
    "\" எனும் ": 455,
    "\" ப": 456,
    "\" படத்தின் ": 457,
    "\", \"": 458,
    "\"ப": 459,
    "#": 460,
    "%": 461,
    "&": 462,
    "&l": 463,
    "&lsquo;": 464,
    "&quot;": 465,
    "&quot; ": 466,
    "&quot;, &quot;": 467,
    "&r": 468,
    "&rsquo;": 469,
    "'": 470,
    "' ": 471,
    "' -": 472,
    "' - '": 473,
    "''": 474,
    "'' ": 475,
    "(": 476,
    ")": 477,
    ") ": 478,
    "+": 479,
    ",": 480,
    ", ": 481,
    ", \"": 482,
    ", &quot;": 483,
    ", '": 484,
    ", அ": 485,
    ", அந்த": 486,
    ", அரு": 487,
    ", அவரது ": 488,
    ", அவர் ": 489,
    ", ஆ": 490,
    ", இ": 491,
    ", இந்த": 492,
    ", எ": 493,
    ", ஒரு ": 494,
    ", க": 495,
    ", தன் ": 496,
    ", ந": 497,
    ", ப": 498,
    ", பல": 499,
    ", பா": 500,
    ",\"": 501,
    ",000": 502,
    ",<NEWLINE>": 503,
    ",அ": 504,
    "-": 505,
    "- ": 506,
    "- அ": 507,
    "- ஆ": 508,
    "- இ": 509,
    "- க": 510,
    "- ச": 511,
    "- ப": 512,
    "-2": 513,
    "-அ": 514,
    "-ல் ": 515,
    "-வது ": 516,
    ".": 517,
    ". ": 518,
    ". அ": 519,
    ". அந்த": 520,
    ". இ": 521,
    ". ப": 522,
    ". படத்தின் ": 523,
    ". படத்தில் ": 524,
    ". பிற": 525,
    ". பெ": 526,
    ".\"": 527,
    ".,": 528,
    "., ": 529,
    "., \"": 530,
    "., அ": 531,
    "., தன் ": 532,
    "..": 533,
    ".. ": 534,
    ".. அ": 535,
    "..!": 536,
    "..!</w>": 537,
    "...": 538,
    "... ": 539,
    "... \"": 540,
    "... \" ": 541,
    "... \" , \"": 542,
    "... \", \"": 543,
    "... அ": 544,
    "... உள்ளிட்ட": 545,
    "... என": 546,
    "... என்பது ": 547,
    "... ப": 548,
    "...!</w>": 549,
    "...\" ": 550,
    "....": 551,
    ".... ": 552,
    "....\" ": 553,
    "...? ": 554,
    "..</w>": 555,
    "..?": 556,
    "..? ": 557,
    "..?</w>": 558,
    ".</w>": 559,
    ".<NEWLINE>": 560,
    ".<NEWLINE>அ": 561,
    ".<NEWLINE>கதை": 562,
    ".<NEWLINE>கதை : ": 563,
    ".<NEWLINE>படத்தின் ": 564,
    ".<NEWLINE>மொத்தத்தில் ": 565,
    ".அ": 566,
    ".எ": 567,
    ".எல்.": 568,
    ".எல்.ஏ": 569,
    ".எஸ்": 570,
    ".எஸ்.": 571,
    ".க": 572,
    ".க.": 573,
    ".பி": 574,
    ".பி.": 575,
    "/": 576,
    "0": 577,
    "00": 578,
    "000": 579,
    "1": 580,
    "10": 581,
    "100": 582,
    "11": 583,
    "12": 584,
    "13": 585,
    "14": 586,
    "15": 587,
    "16": 588,
    "17": 589,
    "18": 590,
    "19": 591,
    "2": 592,
    "2 ": 593,
    "2.": 594,
    "2.0": 595,
    "20": 596,
    "25": 597,
    "28": 598,
    "3": 599,
    "30": 600,
    "4": 601,
    "5": 602,
    "50": 603,
    "500": 604,
    "6": 605,
    "7": 606,
    "8": 607,
    "9": 608,
    "96": 609,
    ":": 610,
    ": ": 611,
    ": \"": 612,
    ": அ": 613,
    ": அமைச்சர் ": 614,
    ": க": 615,
    ": கு": 616,
    ": கோ": 617,
    ": ப": 618,
    ": பிர": 619,
    ": பொ": 620,
    ":<NEWLINE>": 621,
    ";": 622,
    "; ": 623,
    "; அ": 624,
    "</w>": 625,
    "<NEWLINE>": 626,
    "=": 627,
    ">": 628,
    "?": 629,
    "? ": 630,
    "? -": 631,
    "? அ": 632,
    "? இ": 633,
    "? இல்ல": 634,
    "? என": 635,
    "?: ": 636,
    "?</w>": 637,
    "@": 638,
    "A": 639,
    "B": 640,
    "C": 641,
    "D": 642,
    "E": 643,
    "English": 644,
    "F": 645,
    "G": 646,
    "H": 647,
    "I": 648,
    "J": 649,
    "K": 650,
    "L": 651,
    "M": 652,
    "N": 653,
    "NE": 654,
    "O": 655,
    "P": 656,
    "Q": 657,
    "R": 658,
    "Rea": 659,
    "Read ": 660,
    "Review": 661,
    "Review in ": 662,
    "Review in English": 663,
    "S": 664,
    "T": 665,
    "U": 666,
    "V": 667,
    "W": 668,
    "X": 669,
    "Y": 670,
    "Z": 671,
    "_": 672,
    "`": 673,
    "a": 674,
    "al": 675,
    "ar": 676,
    "b": 677,
    "c": 678,
    "d": 679,
    "d ": 680,
    "dquo;": 681,
    "e": 682,
    "e ": 683,
    "f": 684,
    "g": 685,
    "h": 686,
    "i": 687,
    "j": 688,
    "k": 689,
    "l": 690,
    "li": 691,
    "m": 692,
    "n": 693,
    "n ": 694,
    "nd": 695,
    "ng": 696,
    "o": 697,
    "p": 698,
    "q": 699,
    "qu": 700,
    "r": 701,
    "s": 702,
    "sh": 703,
    "t": 704,
    "u": 705,
    "v": 706,
    "vi": 707,
    "vie": 708,
    "view": 709,
    "w": 710,
    "x": 711,
    "y": 712,
    "z": 713,
    "|": 714,
    " ": 715,
    "°": 716,
    "ஃ": 717,
    "ஃப": 718,
    "ஃபி": 719,
    "ஃபே": 720,
    "அ": 721,
    "அக": 722,
    "அசத்த": 723,
    "அசத்திய": 724,
    "அஞ்ச": 725,
    "அட": 726,
    "அடி": 727,
    "அடுத்த": 728,
    "அடை": 729,
    "அண்ண": 730,
    "அதி": 731,
    "அதிக": 732,
    "அதிகம் ": 733,
    "அதிகரி": 734,
    "அதிகார": 735,
    "அதிகாரி ": 736,
    "அதிகாரியாக ": 737,
    "அதிமுக": 738,
    "அதிர": 739,
    "அதிரடி ": 740,
    "அதில் ": 741,
    "அது ": 742,
    "அதை ": 743,
    "அந்த": 744,
    "அந்த ": 745,
    "அனு": 746,
    "அனுப": 747,
    "அனை": 748,
    "அனைத்து ": 749,
    "அன்ப": 750,
    "அன்பு ": 751,
    "அப்பா": 752,
    "அப்பா ": 753,
    "அமெரிக்க": 754,
    "அமை": 755,
    "அமைச்சர் ": 756,
    "அமைந்த": 757,
    "அம்": 758,
    "அம்மா": 759,
    "அர": 760,
    "அரச": 761,
    "அரசிய": 762,
    "அரசியல் ": 763,
    "அரசு ": 764,
    "அரு": 765,
    "அற": 766,
    "அறி": 767,
    "அறிந்த": 768,
    "அறிந்து ": 769,
    "அறிமுக": 770,
    "அறிய": 771,
    "அறிவிப்பு</w>": 772,
    "அறிவு": 773,
    "அலை": 774,
    "அல்ல": 775,
    "அள": 776,
    "அழ": 777,
    "அழி": 778,
    "அழுத்த": 779,
    "அழை": 780,
    "அவ": 781,
    "அவர": 782,
    "அவரது ": 783,
    "அவரின் ": 784,
    "அவருக்கு ": 785,
    "அவரை ": 786,
    "அவர் ": 787,
    "ஆ": 788,
    "ஆக": 789,
    "ஆகிய": 790,
    "ஆகியோர் ": 791,
    "ஆகு": 792,
    "ஆக்": 793,
    "ஆக்க": 794,
    "ஆக்ஷன் ": 795,
    "ஆங்கா": 796,
    "ஆசிரிய": 797,
    "ஆசை": 798,
    "ஆசை ": 799,
    "ஆச்ச": 800,
    "ஆஜ": 801,
    "ஆட": 802,
    "ஆடிய": 803,
    "ஆடியன்ஸ": 804,
    "ஆடு": 805,
    "ஆட்ச": 806,
    "ஆட்ட": 807,
    "ஆண": 808,
    "ஆணைய": 809,
    "ஆண்ட": 810,
    "ஆத": 811,
    "ஆதர": 812,
    "ஆதார் ": 813,
    "ஆதி": 814,
    "ஆன": 815,
    "ஆனந்த": 816,
    "ஆனா ": 817,
    "ஆனாலும் ": 818,
    "ஆனால் ": 819,
    "ஆனால் அ": 820,
    "ஆனால், ": 821,
    "ஆனால், அ": 822,
    "ஆன்": 823,
    "ஆப": 824,
    "ஆபத்து ": 825,
    "ஆயு": 826,
    "ஆய்": 827,
    "ஆரம்ப": 828,
    "ஆரம்பத்தில் ": 829,
    "ஆரா": 830,
    "ஆராய": 831,
    "ஆராய்ந்து ": 832,
    "ஆர்": 833,
    "ஆர் ": 834,
    "ஆர்.": 835,
    "ஆர்.கே.": 836,
    "ஆர்.கே.நகர் ": 837,
    "ஆர்ட": 838,
    "ஆறு": 839,
    "ஆறுதல்": 840,
    "ஆற்ற": 841,
    "ஆற்றல் ": 842,
    "ஆலோச": 843,
    "ஆள": 844,
    "ஆளு": 845,
    "ஆளுநர் ": 846,
    "ஆவி": 847,
    "ஆஸி": 848,
    "இ": 849,
    "இகழ": 850,
    "இங்கிலா": 851,
    "இச": 852,
    "இசை": 853,
    "இசை ": 854,
    "இசைய": 855,
    "இசையமை": 856,
    "இசையில் ": 857,
    "இசையில், ": 858,
    "இட": 859,
    "இடம் ": 860,
    "இடைய": 861,
    "இடைவே": 862,
    "இண": 863,
    "இணை": 864,
    "இணைந்த": 865,
    "இணைந்து ": 866,
    "இணைய": 867,
    "இண்ட": 868,
    "இதற்க": 869,
    "இதில் ": 870,
    "இது": 871,
    "இது ": 872,
    "இதுவரை ": 873,
    "இதை ": 874,
    "இத்தனை ": 875,
    "இந்த": 876,
    "இந்த படத்தில் ": 877,
    "இந்தப் ப": 878,
    "இந்திய": 879,
    "இந்திய அ": 880,
    "இந்தியா": 881,
    "இந்தியா ": 882,
    "இந்நில": 883,
    "இன": 884,
    "இனி": 885,
    "இனி ": 886,
    "இனிய": 887,
    "இன்": 888,
    "இன்ன": 889,
    "இன்னும் ": 890,
    "இன்னும் கொஞ்சம் ": 891,
    "இன்னொரு ": 892,
    "இன்ப": 893,
    "இன்பம் ": 894,
    "இன்ற": 895,
    "இன்று ": 896,
    "இன்றைய": 897,
    "இப்ப": 898,
    "இப்பட": 899,
    "இப்படக்க": 900,
    "இப்படக்கரு": 901,
    "இப்படத்தின் ": 902,
    "இப்படத்திற்கு ": 903,
    "இப்படத்தில் ": 904,
    "இப்படத்தை ": 905,
    "இப்படம் ": 906,
    "இப்படி ": 907,
    "இப்படி ஒரு ": 908,
    "இப்படிய": 909,
    "இப்போது ": 910,
    "இய": 911,
    "இயக்க": 912,
    "இயக்கத்தில் ": 913,
    "இயக்கத்தில், ": 914,
    "இயக்கம் ": 915,
    "இயக்கம் :": 916,
    "இயக்கம் : ": 917,
    "இயக்கம்: ": 918,
    "இயக்கிய": 919,
    "இயக்கு": 920,
    "இயக்குன": 921,
    "இயக்குனர் ": 922,
    "இயல்ப": 923,
    "இயல்பான": 924,
    "இர": 925,
    "இரட்டை ": 926,
    "இரண்ட": 927,
    "இரண்டாம் ": 928,
    "இரண்டாம் பாதி ": 929,
    "இரண்டாம் பாதியில் ": 930,
    "இரண்டாவது ": 931,
    "இரண்டு ": 932,
    "இரு": 933,
    "இரு ": 934,
    "இருக்க": 935,
    "இருக்கின்ற": 936,
    "இருக்கிற": 937,
    "இருக்கிறது": 938,
    "இருக்கிறது ": 939,
    "இருக்கிறது. ": 940,
    "இருக்கிறது.<NEWLINE>": 941,
    "இருக்கிறார்": 942,
    "இருக்கிறார் ": 943,
    "இருக்கிறார். ": 944,
    "இருக்கும் ": 945,
    "இருந்த": 946,
    "இருந்தால": 947,
    "இருந்தாலும் ": 948,
    "இருந்தால் ": 949,
    "இருந்து ": 950,
    "இருந்தும் ": 951,
    "இருப்ப": 952,
    "இருப்பது ": 953,
    "இருப்பதை ": 954,
    "இருவரும் ": 955,
    "இற": 956,
    "இறங்க": 957,
    "இறங்கிய": 958,
    "இறங்கு": 959,
    "இறந்த": 960,
    "இறு": 961,
    "இல": 962,
    "இலங்க": 963,
    "இலங்கை ": 964,
    "இல்ல": 965,
    "இல்லா": 966,
    "இல்லாத": 967,
    "இல்லாமல் ": 968,
    "இல்லை": 969,
    "இல்லை ": 970,
    "இல்லை, ": 971,
    "இல்லை. ": 972,
    "இல்லை.<NEWLINE>": 973,
    "இல்லை: ": 974,
    "இல்லைய": 975,
    "இள": 976,
    "இளம் ": 977,
    "இளைஞ": 978,
    "இளைஞர் ": 979,
    "இளைய": 980,
    "இழ": 981,
    "இழந்த": 982,
    "இழு": 983,
    "இவரின் ": 984,
    "இவருக்கு ": 985,
    "இவரை ": 986,
    "இவர் ": 987,
    "இவர்களை ": 988,
    "இவர்கள் ": 989,
    "இஸ்": 990,
    "ஈ": 991,
    "ஈடு": 992,
    "ஈர்க்க": 993,
    "உ": 994,
    "உச்ச": 995,
    "உச்சநீதிமன்றம் ": 996,
    "உட": 997,
    "உடன": 998,
    "உடம்ப": 999,
    "உடல": 1000,
    "உடல் ": 1001,
    "உடை": 1002,
    "உடைய": 1003,
    "உட்க": 1004,
    "உட்ப": 1005,
    "உண": 1006,
    "உணர்": 1007,
    "உணர்ந்து ": 1008,
    "உண்": 1009,
    "உண்ட": 1010,
    "உண்டா": 1011,
    "உண்டாக": 1012,
    "உண்டு": 1013,
    "உண்ண": 1014,
    "உண்மை ": 1015,
    "உண்மைய": 1016,
    "உத": 1017,
    "உதய": 1018,
    "உதயநிதி ": 1019,
    "உதவ": 1020,
    "உதவி": 1021,
    "உதவி ": 1022,
    "உதவிய": 1023,
    "உதவு": 1024,
    "உத்தர": 1025,
    "உத்தரவு</w>": 1026,
    "உன் ": 1027,
    "உன்ன": 1028,
    "உய": 1029,
    "உயர": 1030,
    "உயர்": 1031,
    "உயர்நீதிமன்றம் ": 1032,
    "உயர்நீதிமன்றம்</w>": 1033,
    "உயர்ந்த": 1034,
    "உயிர": 1035,
    "உயிரிழ": 1036,
    "உயிரிழந்த": 1037,
    "உயிரிழப்பு</w>": 1038,
    "உயிரு": 1039,
    "உயிரை ": 1040,
    "உயிர் ": 1041,
    "உர": 1042,
    "உரி": 1043,
    "உரிய": 1044,
    "உரு": 1045,
    "உருக்க": 1046,
    "உருவா": 1047,
    "உற": 1048,
    "உறு": 1049,
    "உறுதி ": 1050,
    "உறுதி</w>": 1051,
    "உற்ச": 1052,
    "உற்ற": 1053,
    "உல": 1054,
    "உலக": 1055,
    "உலகம் ": 1056,
    "உள": 1057,
    "உள்ள": 1058,
    "உள்ளது. ": 1059,
    "உள்ளது.<NEWLINE>": 1060,
    "உள்ளிட்ட": 1061,
    "உள்ளிட்ட ": 1062,
    "உள்ளிட்ட பாடல": 1063,
    "உள்ளிட்ட பாடல்கள": 1064,
    "உள்ளிட்டோர் ": 1065,
    "உழ": 1066,
    "ஊ": 1067,
    "ஊட": 1068,
    "ஊரில் ": 1069,
    "ஊர்": 1070,
    "ஊர் ": 1071,
    "ஊழ": 1072,
    "ஊழிய": 1073,
    "எ": 1074,
    "எங்க": 1075,
    "எச்ச": 1076,
    "எச்சரிக்க": 1077,
    "எச்சரிக்கை</w>": 1078,
    "எடு": 1079,
    "எடுக்க": 1080,
    "எடுத்த": 1081,
    "எடுத்து": 1082,
    "எடுத்து ": 1083,
    "எண்ண": 1084,
    "எண்ணி": 1085,
    "எண்ணிக்கை ": 1086,
    "எதி": 1087,
    "எதிர": 1088,
    "எதிராக ": 1089,
    "எதிரான": 1090,
    "எதிர்க்க": 1091,
    "எதிர்த்து ": 1092,
    "எதிர்ப": 1093,
    "எதிர்பார": 1094,
    "எதிர்பாராத": 1095,
    "எதிர்பார்ப்ப": 1096,
    "எதிர்ப்ப": 1097,
    "எது": 1098,
    "எதுவு": 1099,
    "எதுவும் ": 1100,
    "எத்தனை ": 1101,
    "எந்த": 1102,
    "எந்த ": 1103,
    "என": 1104,
    "என ": 1105,
    "என அ": 1106,
    "என அனை": 1107,
    "என இ": 1108,
    "என பல": 1109,
    "எனக்கு ": 1110,
    "எனும் ": 1111,
    "என்": 1112,
    "என் ": 1113,
    "என்கிற": 1114,
    "என்ன": 1115,
    "என்ன ": 1116,
    "என்ன ஆன": 1117,
    "என்ன சொல்க": 1118,
    "என்ன தான் ": 1119,
    "என்ன நட": 1120,
    "என்ன?": 1121,
    "என்ன?</w>": 1122,
    "என்னும் ": 1123,
    "என்னை ": 1124,
    "என்னைப் ப": 1125,
    "என்ப": 1126,
    "என்பதால் ": 1127,
    "என்பது ": 1128,
    "என்பது உள்ளிட்ட": 1129,
    "என்பது உள்ளிட்ட இன்னும் பல": 1130,
    "என்பது தான் ": 1131,
    "என்பது தான் \"": 1132,
    "என்பதே": 1133,
    "என்பதே ": 1134,
    "என்பதே மீதிக்கதை.<NEWLINE>": 1135,
    "என்பதை ": 1136,
    "என்ற": 1137,
    "என்றால": 1138,
    "என்றாலும் ": 1139,
    "என்றாலும், ": 1140,
    "என்றாலே ": 1141,
    "என்றால் ": 1142,
    "என்று": 1143,
    "என்று ": 1144,
    "என்று சொல்ல": 1145,
    "என்று தெரிய": 1146,
    "என்றும் ": 1147,
    "என்றே ": 1148,
    "எப்ப": 1149,
    "எப்படி": 1150,
    "எப்படி ": 1151,
    "எப்படிய": 1152,
    "எப்போ": 1153,
    "எப்போது ": 1154,
    "எப்போதும் ": 1155,
    "எம்": 1156,
    "எம் ": 1157,
    "எம்.": 1158,
    "எம்.எல்.ஏ": 1159,
    "எம்.எஸ்.": 1160,
    "எம்எல்ஏ": 1161,
    "எரி": 1162,
    "எல்": 1163,
    "எல்ல": 1164,
    "எல்லா": 1165,
    "எல்லா ": 1166,
    "எல்லாம் ": 1167,
    "எல்லாவற்ற": 1168,
    "எல்லோ": 1169,
    "எல்லோரும் ": 1170,
    "எளி": 1171,
    "எழ": 1172,
    "எழு": 1173,
    "எழுத்து , ": 1174,
    "எழுத்து , இயக்கத்தில் ": 1175,
    "எழுத்து, ": 1176,
    "எவ்வளவு ": 1177,
    "எஸ்": 1178,
    "எஸ் ": 1179,
    "எஸ்.": 1180,
    "எஸ்க": 1181,
    "எஸ்ட": 1182,
    "ஏ": 1183,
    "ஏ.": 1184,
    "ஏ.ஆர்.": 1185,
    "ஏதோ": 1186,
    "ஏன்": 1187,
    "ஏன் ": 1188,
    "ஏமா": 1189,
    "ஏமாற்ற": 1190,
    "ஏரியா": 1191,
    "ஏற்க": 1192,
    "ஏற்கன": 1193,
    "ஏற்கனவே ": 1194,
    "ஏற்ப": 1195,
    "ஏற்பட": 1196,
    "ஏற்படு": 1197,
    "ஏற்படும் ": 1198,
    "ஏற்ற": 1199,
    "ஏற்று": 1200,
    "ஐ": 1201,
    "ஐ.": 1202,
    "ஐந்து ": 1203,
    "ஐபிஎ": 1204,
    "ஐபிஎல் ": 1205,
    "ஐய": 1206,
    "ஐஸ்வர": 1207,
    "ஐஸ்வர்யா ": 1208,
    "ஐஸ்வர்யா ராஜே": 1209,
    "ஒ": 1210,
    "ஒது": 1211,
    "ஒத்தி": 1212,
    "ஒத்திவைப்பு</w>": 1213,
    "ஒன் ": 1214,
    "ஒன்ற": 1215,
    "ஒன்று": 1216,
    "ஒன்று ": 1217,
    "ஒப்ப": 1218,
    "ஒப்பு": 1219,
    "ஒர": 1220,
    "ஒரு": 1221,
    "ஒரு ": 1222,
    "ஒரு இ": 1223,
    "ஒரு கட்ட": 1224,
    "ஒரு கட்டத்தில் ": 1225,
    "ஒரு சில": 1226,
    "ஒரு சில ": 1227,
    "ஒரு நல்ல": 1228,
    "ஒரு நாள் ": 1229,
    "ஒருத்த": 1230,
    "ஒருநாள் ": 1231,
    "ஒருவனுக்கு ": 1232,
    "ஒருவன் ": 1233,
    "ஒருவர": 1234,
    "ஒருவர் ": 1235,
    "ஒரே": 1236,
    "ஒரே ": 1237,
    "ஒற்ற": 1238,
    "ஒலி": 1239,
    "ஒளி": 1240,
    "ஒளிப்பதி": 1241,
    "ஒளிப்பதிவில் ": 1242,
    "ஒளிப்பதிவு ": 1243,
    "ஒழு": 1244,
    "ஒழுக்க": 1245,
    "ஒவிய": 1246,
    "ஒவ்வ": 1247,
    "ஒவ்வொரு": 1248,
    "ஒவ்வொரு ": 1249,
    "ஓ": 1250,
    "ஓ.": 1251,
    "ஓகே": 1252,
    "ஓட": 1253,
    "ஓட்ட": 1254,
    "ஓட்டு": 1255,
    "ஓபிஎ": 1256,
    "ஓர் ": 1257,
    "ஔ": 1258,
    "க": 1259,
    "கச்சித": 1260,
    "கஜா": 1261,
    "கஜா பு": 1262,
    "கஜா புயல் ": 1263,
    "கட": 1264,
    "கடத்த": 1265,
    "கடத்தல் ": 1266,
    "கடல": 1267,
    "கடவு": 1268,
    "கடி": 1269,
    "கடிதம்</w>": 1270,
    "கடு": 1271,
    "கடும் ": 1272,
    "கடை": 1273,
    "கடைசி ": 1274,
    "கடைசியில் ": 1275,
    "கட்ச": 1276,
    "கட்ட": 1277,
    "கட்டாய": 1278,
    "கட்டி": 1279,
    "கட்டி ": 1280,
    "கட்டிய": 1281,
    "கட்டு": 1282,
    "கண": 1283,
    "கணவர் ": 1284,
    "கணேச": 1285,
    "கண்": 1286,
    "கண் ": 1287,
    "கண்கள": 1288,
    "கண்ட": 1289,
    "கண்டனம்</w>": 1290,
    "கண்டிப்ப": 1291,
    "கண்டிப்பாக ": 1292,
    "கண்டு": 1293,
    "கண்டு ": 1294,
    "கண்ண": 1295,
    "கண்முன் ": 1296,
    "கத": 1297,
    "கதா": 1298,
    "கதாநாயக": 1299,
    "கதாநாயகர் ": 1300,
    "கதாநாயகர் : ": 1301,
    "கதாநாயகி": 1302,
    "கதாநாயகி ": 1303,
    "கதாநாயகி : ": 1304,
    "கதாநாயகியர் ": 1305,
    "கதாபாத்திர": 1306,
    "கதாபாத்திரம் ": 1307,
    "கதை": 1308,
    "கதை ": 1309,
    "கதை : ": 1310,
    "கதை மொத்த": 1311,
    "கதை.<NEWLINE>": 1312,
    "கதைக்க": 1313,
    "கதைக்கு ": 1314,
    "கதைய": 1315,
    "கதையின் ": 1316,
    "கதையில் ": 1317,
    "கதையை ": 1318,
    "கத்தி ": 1319,
    "கத்தில் ": 1320,
    "கன": 1321,
    "கனி": 1322,
    "கன்": 1323,
    "கன் ": 1324,
    "கன்ன": 1325,
    "கம": 1326,
    "கமல் ": 1327,
    "கமல்ஹாச": 1328,
    "கமாக ": 1329,
    "கமி": 1330,
    "கம் ": 1331,
    "கம்</w>": 1332,
    "கம்ப": 1333,
    "கம்பெ": 1334,
    "கய": 1335,
    "கர": 1336,
    "கரம் ": 1337,
    "கரி": 1338,
    "கரு": 1339,
    "கரு ": 1340,
    "கரு : ": 1341,
    "கரு: ": 1342,
    "கருணா": 1343,
    "கருணாக": 1344,
    "கருணாநிதி ": 1345,
    "கருத்து</w>": 1346,
    "கர்": 1347,
    "கர் ": 1348,
    "கர்கள் ": 1349,
    "கர்ப்ப": 1350,
    "கற்ப": 1351,
    "கற்ற": 1352,
    "கல": 1353,
    "கலகல": 1354,
    "கலக்க": 1355,
    "கலக்கிய": 1356,
    "கலந்து ": 1357,
    "கலர்பு": 1358,
    "கலா": 1359,
    "கலாய": 1360,
    "கலை": 1361,
    "கலை ": 1362,
    "கலைஞ": 1363,
    "கலைய": 1364,
    "கலையரச": 1365,
    "கல்": 1366,
    "கல்யா": 1367,
    "கல்யாண": 1368,
    "கல்லூ": 1369,
    "கல்லூரி": 1370,
    "கல்லூரி ": 1371,
    "கள": 1372,
    "களத்தில் ": 1373,
    "களம் ": 1374,
    "களால் ": 1375,
    "களின் ": 1376,
    "களில் ": 1377,
    "களுக்கு ": 1378,
    "களும் ": 1379,
    "களை": 1380,
    "களை ": 1381,
    "களை அ": 1382,
    "களையும் ": 1383,
    "கள்": 1384,
    "கள் ": 1385,
    "கள் ப": 1386,
    "கள், ": 1387,
    "கள்: ": 1388,
    "கள்</w>": 1389,
    "கள்ள": 1390,
    "கழ": 1391,
    "கழி": 1392,
    "கவ": 1393,
    "கவன": 1394,
    "கவனம் ": 1395,
    "கவர": 1396,
    "கவர்": 1397,
    "கவல": 1398,
    "கவிழ": 1399,
    "கவு": 1400,
    "கஷ்ட": 1401,
    "கா": 1402,
    "காக்க": 1403,
    "காங்கிர": 1404,
    "காங்கிரஸ் ": 1405,
    "காச": 1406,
    "காட்ச": 1407,
    "காட்சி": 1408,
    "காட்சி ": 1409,
    "காட்சிகள": 1410,
    "காட்சிகளில் ": 1411,
    "காட்சிகளை ": 1412,
    "காட்சிகள்": 1413,
    "காட்சிகள் ": 1414,
    "காட்சிகள் ப": 1415,
    "காட்சிகள், ": 1416,
    "காட்சிப்படுத்த": 1417,
    "காட்சிப்படுத்தல் ": 1418,
    "காட்சிப்படுத்தல் : ": 1419,
    "காட்சிப்படுத்தல்: ": 1420,
    "காட்சிப்படுத்திய": 1421,
    "காட்சிய": 1422,
    "காட்சியில் ": 1423,
    "காட்ட": 1424,
    "காட்டி ": 1425,
    "காட்டிய": 1426,
    "காட்டியுள்ள": 1427,
    "காட்டு": 1428,
    "காட்டும் ": 1429,
    "காண": 1430,
    "காணாமல் ": 1431,
    "காண்ப": 1432,
    "காத": 1433,
    "காதல": 1434,
    "காதலர் ": 1435,
    "காதலி ": 1436,
    "காதலிக்க": 1437,
    "காதலில் ": 1438,
    "காதலை ": 1439,
    "காதல்": 1440,
    "காதல் ": 1441,
    "காதல், ": 1442,
    "காத்த": 1443,
    "காந்த": 1444,
    "காந்த் ": 1445,
    "கான": 1446,
    "காப்பா": 1447,
    "காப்பாற்ற": 1448,
    "காம": 1449,
    "காமெ": 1450,
    "காமெடி": 1451,
    "காமெடி ": 1452,
    "காமெடிய": 1453,
    "காமெடியன் ": 1454,
    "காய": 1455,
    "கார": 1456,
    "காரண": 1457,
    "காரணமாக ": 1458,
    "காரணம் ": 1459,
    "காரில் ": 1460,
    "கார் ": 1461,
    "கார்ட": 1462,
    "கார்த்த": 1463,
    "கார்த்தி": 1464,
    "கார்த்தி ": 1465,
    "கார்த்திகே": 1466,
    "கார்த்திக் ": 1467,
    "கால": 1468,
    "காலமான": 1469,
    "காலா": 1470,
    "கால் ": 1471,
    "கால்ப": 1472,
    "காவ": 1473,
    "காவல": 1474,
    "காவல் ": 1475,
    "காவல்து": 1476,
    "காவிரி ": 1477,
    "காஷ்": 1478,
    "காஷ் ": 1479,
    "காஷ்மீ": 1480,
    "கி": 1481,
    "கி ": 1482,
    "கிட": 1483,
    "கிடை": 1484,
    "கிடைக்க": 1485,
    "கிடைத்த": 1486,
    "கிடைய": 1487,
    "கிட்ட": 1488,
    "கிண்ட": 1489,
    "கின்ற": 1490,
    "கின்றது. ": 1491,
    "கின்றது.<NEWLINE>": 1492,
    "கின்றன": 1493,
    "கின்றார்.<NEWLINE>": 1494,
    "கிர": 1495,
    "கிரா": 1496,
    "கிராம": 1497,
    "கிராமத்து ": 1498,
    "கிரிக்கெ": 1499,
    "கிரிக்கெட் ": 1500,
    "கிரு": 1501,
    "கிருஷ்ண": 1502,
    "கிருஷ்ணா": 1503,
    "கிற": 1504,
    "கிறது": 1505,
    "கிறது ": 1506,
    "கிறது. ": 1507,
    "கிறது. அ": 1508,
    "கிறது.<NEWLINE>": 1509,
    "கிறார்": 1510,
    "கிறார் ": 1511,
    "கிறார். ": 1512,
    "கிறார். அ": 1513,
    "கிறார். இ": 1514,
    "கிறார்.<NEWLINE>": 1515,
    "கிறார்கள்": 1516,
    "கில": 1517,
    "கிள": 1518,
    "கிளை": 1519,
    "கிளைமேக்": 1520,
    "கிளைமேக்ஸில் ": 1521,
    "கிளைமேக்ஸ் ": 1522,
    "கிழ": 1523,
    "கீ": 1524,
    "கீர்த்த": 1525,
    "கீர்த்தி சுரே": 1526,
    "கீழ": 1527,
    "கு": 1528,
    "கு ": 1529,
    "குடி": 1530,
    "குடிய": 1531,
    "குடும்ப": 1532,
    "குட்டி ": 1533,
    "குண": 1534,
    "குண்டு ": 1535,
    "குதி": 1536,
    "குதி ": 1537,
    "குதிய": 1538,
    "குதியில் ": 1539,
    "குந்து ": 1540,
    "குப்ப": 1541,
    "கும": 1542,
    "குமார": 1543,
    "குமார் ": 1544,
    "கும் ": 1545,
    "கும்ப": 1546,
    "குரு": 1547,
    "குற": 1548,
    "குறி": 1549,
    "குறித்து ": 1550,
    "குறிப்ப": 1551,
    "குறிப்பாக ": 1552,
    "குறு": 1553,
    "குறை": 1554,
    "குறைய": 1555,
    "குற்ற": 1556,
    "குற்றச்சாட்டு</w>": 1557,
    "குற்றம் ": 1558,
    "குள": 1559,
    "குழ": 1560,
    "குழந்த": 1561,
    "குழந்தை ": 1562,
    "குழந்தைகள": 1563,
    "குழந்தையை ": 1564,
    "கூ": 1565,
    "கூட": 1566,
    "கூட ": 1567,
    "கூடவே ": 1568,
    "கூடிய": 1569,
    "கூடு": 1570,
    "கூடுதல் ": 1571,
    "கூட்ட": 1572,
    "கூட்டணி ": 1573,
    "கூற": 1574,
    "கூறிய": 1575,
    "கூறு": 1576,
    "கெ": 1577,
    "கெட்ட": 1578,
    "கெள": 1579,
    "கொ": 1580,
    "கே": 1581,
    "கே ": 1582,
    "கே.": 1583,
    "கேடு ": 1584,
    "கேட்க": 1585,
    "கேட்கும் ": 1586,
    "கேட்ட": 1587,
    "கேட்டு ": 1588,
    "கேட்ப": 1589,
    "கேப்ட": 1590,
    "கேர": 1591,
    "கேரக்ட": 1592,
    "கேரள": 1593,
    "கேரளா": 1594,
    "கேள்வி": 1595,
    "கேள்வி</w>": 1596,
    "கை": 1597,
    "கை ": 1598,
    "கைது ": 1599,
    "கைது!</w>": 1600,
    "கைது</w>": 1601,
    "கைப்ப": 1602,
    "கைய": 1603,
    "கையில் ": 1604,
    "கொ": 1605,
    "கொஞ்ச": 1606,
    "கொஞ்சம் ": 1607,
    "கொடிய": 1608,
    "கொடு": 1609,
    "கொடுக்க": 1610,
    "கொடுக்கும் ": 1611,
    "கொடுத்த": 1612,
    "கொடுத்து ": 1613,
    "கொடுப்ப": 1614,
    "கொடூர": 1615,
    "கொண்ட": 1616,
    "கொண்டா": 1617,
    "கொண்டு ": 1618,
    "கொன்ற": 1619,
    "கொலை": 1620,
    "கொலை ": 1621,
    "கொலை செய்ய": 1622,
    "கொல்ல": 1623,
    "கொள": 1624,
    "கொள்": 1625,
    "கொள்க": 1626,
    "கொள்ள": 1627,
    "கொள்ளும் ": 1628,
    "கொள்ளைய": 1629,
    "கோ": 1630,
    "கோடி ": 1631,
    "கோப": 1632,
    "கோயில": 1633,
    "கோயில் ": 1634,
    "கோல": 1635,
    "கோலி": 1636,
    "கோலி ": 1637,
    "கோள்</w>": 1638,
    "கோவை ": 1639,
    "கௌ": 1640,
    "கௌதம் ": 1641,
    "க்": 1642,
    "க் ": 1643,
    "க் க": 1644,
    "க் கரு": 1645,
    "க் கா": 1646,
    "க் கு": 1647,
    "க் கூ": 1648,
    "க் கூடாது ": 1649,
    "க் கூடிய": 1650,
    "க் கெ": 1651,
    "க் கொ": 1652,
    "க் கொ": 1653,
    "க் கொண்ட": 1654,
    "க் கொண்டு ": 1655,
    "க் கொள்": 1656,
    "க் கொள்ள": 1657,
    "க் கோ": 1658,
    "க் ப": 1659,
    "க், ": 1660,
    "க்</w>": 1661,
    "க்க": 1662,
    "க்கட்ட": 1663,
    "க்கத்தில் ": 1664,
    "க்கம் ": 1665,
    "க்கம்</w>": 1666,
    "க்கரு": 1667,
    "க்கல் ": 1668,
    "க்கள": 1669,
    "க்களுக்கு ": 1670,
    "க்கள்": 1671,
    "க்கள் ": 1672,
    "க்கா": 1673,
    "க்கா ": 1674,
    "க்காக ": 1675,
    "க்கான": 1676,
    "க்கார": 1677,
    "க்கால": 1678,
    "க்கி": 1679,
    "க்கி ": 1680,
    "க்கிய": 1681,
    "க்கிர": 1682,
    "க்கில் ": 1683,
    "க்கு": 1684,
    "க்கு ": 1685,
    "க்கு அ": 1686,
    "க்குன": 1687,
    "க்குப் ப": 1688,
    "க்கும": 1689,
    "க்குமார் ": 1690,
    "க்கும்": 1691,
    "க்கும் ": 1692,
    "க்கும், ": 1693,
    "க்கும்ப": 1694,
    "க்குள் ": 1695,
    "க்குள்ள": 1696,
    "க்குவர": 1697,
    "க்கூ": 1698,
    "க்கூடிய": 1699,
    "க்கெ": 1700,
    "க்கை ": 1701,
    "க்கொ": 1702,
    "க்கொண்ட": 1703,
    "க்கொண்டு ": 1704,
    "க்கொள்ள": 1705,
    "க்கோ": 1706,
    "க்ட": 1707,
    "க்டர் ": 1708,
    "க்த": 1709,
    "க்ன": 1710,
    "க்ளைமாக்": 1711,
    "க்ஷ": 1712,
    "க்ஸ": 1713,
    "க்ஸ் ": 1714,
    "ங": 1715,
    "ங்": 1716,
    "ங் ": 1717,
    "ங்</w>": 1718,
    "ங்க": 1719,
    "ங்க ": 1720,
    "ங்கம் ": 1721,
    "ங்கர": 1722,
    "ங்கள": 1723,
    "ங்களா": 1724,
    "ங்களின் ": 1725,
    "ங்களில் ": 1726,
    "ங்களுக்கு ": 1727,
    "ங்களும் ": 1728,
    "ங்களை ": 1729,
    "ங்கள்": 1730,
    "ங்கள் ": 1731,
    "ங்கள் ப": 1732,
    "ங்கள், ": 1733,
    "ங்கள்: ": 1734,
    "ங்கள்</w>": 1735,
    "ங்கள்” -": 1736,
    "ங்கா": 1737,
    "ங்கா ": 1738,
    "ங்கி": 1739,
    "ங்கி ": 1740,
    "ங்கிய": 1741,
    "ங்கிர": 1742,
    "ங்கில": 1743,
    "ங்கிலா": 1744,
    "ங்கில் ": 1745,
    "ங்கு": 1746,
    "ங்கு ": 1747,
    "ங்கும் ": 1748,
    "ங்கே": 1749,
    "ங்கே ": 1750,
    "ங்கை ": 1751,
    "ங்கோ": 1752,
    "ச": 1753,
    "சக": 1754,
    "சகல": 1755,
    "சகோ": 1756,
    "சகோதர": 1757,
    "சக்க": 1758,
    "சக்த": 1759,
    "சங்க": 1760,
    "சங்கர் ": 1761,
    "சசி": 1762,
    "சசிகலா": 1763,
    "சட்ட": 1764,
    "சண்": 1765,
    "சண்ட": 1766,
    "சண்டை ": 1767,
    "சண்முக": 1768,
    "சதீ": 1769,
    "சதீஷ் ": 1770,
    "சத்த": 1771,
    "சத்திய": 1772,
    "சத்து": 1773,
    "சத்ய": 1774,
    "சந்த": 1775,
    "சந்தான": 1776,
    "சந்திக்க": 1777,
    "சந்தித்த": 1778,
    "சந்திர": 1779,
    "சந்தேக": 1780,
    "சந்தோ": 1781,
    "சந்தோஷ": 1782,
    "சந்தோஷ் ": 1783,
    "சன": 1784,
    "சன் ": 1785,
    "சபரி": 1786,
    "சபரிமலை ": 1787,
    "சபரிமலையில் ": 1788,
    "சபா": 1789,
    "சம": 1790,
    "சமந்தா": 1791,
    "சமா": 1792,
    "சமீ": 1793,
    "சமீப": 1794,
    "சமுத்திர": 1795,
    "சமூக": 1796,
    "சம் ": 1797,
    "சம்ப": 1798,
    "சம்பந்த": 1799,
    "சம்பவ": 1800,
    "சம்பா": 1801,
    "சம்ம": 1802,
    "சய": 1803,
    "சர": 1804,
    "சரண்": 1805,
    "சரவண": 1806,
    "சரவணன் ": 1807,
    "சரி": 1808,
    "சரி ": 1809,
    "சரிய": 1810,
    "சரியாக ": 1811,
    "சரியான": 1812,
    "சர்": 1813,
    "சர் ": 1814,
    "சர்க": 1815,
    "சர்கார்": 1816,
    "சர்ச்ச": 1817,
    "சர்வ": 1818,
    "சற்ற": 1819,
    "சற்று ": 1820,
    "சற்றே": 1821,
    "சற்றே ": 1822,
    "சற்றே பல": 1823,
    "சல": 1824,
    "சல்": 1825,
    "சவா": 1826,
    "சவு": 1827,
    "சஸ்பெ": 1828,
    "சா": 1829,
    "சாக": 1830,
    "சாக ": 1831,
    "சாத": 1832,
    "சாதாரண": 1833,
    "சாதி": 1834,
    "சாந்த": 1835,
    "சான": 1836,
    "சான்ற": 1837,
    "சாம": 1838,
    "சாமி": 1839,
    "சாமி ": 1840,
    "சாமி</w>": 1841,
    "சாமிய": 1842,
    "சாமியின் ": 1843,
    "சாய": 1844,
    "சார": 1845,
    "சார்": 1846,
    "சார் ": 1847,
    "சார்ந்த": 1848,
    "சால": 1849,
    "சி": 1850,
    "சி ": 1851,
    "சி.": 1852,
    "சிகி": 1853,
    "சிகிச்ச": 1854,
    "சிக்க": 1855,
    "சிக்கிய": 1856,
    "சிக்கு": 1857,
    "சிங் ": 1858,
    "சிங்க": 1859,
    "சிங்கம் ": 1860,
    "சிசி": 1861,
    "சிதம்ப": 1862,
    "சித்த": 1863,
    "சின": 1864,
    "சினி": 1865,
    "சினிமா": 1866,
    "சினிமா ": 1867,
    "சினிமாவில் ": 1868,
    "சின்ன": 1869,
    "சிபி": 1870,
    "சிபிஐ": 1871,
    "சிம்": 1872,
    "சிம்பு": 1873,
    "சிய": 1874,
    "சியில் ": 1875,
    "சிர": 1876,
    "சிரிக்க": 1877,
    "சிரிப்ப": 1878,
    "சிரிப்பு ": 1879,
    "சிரிய": 1880,
    "சிரியர் ": 1881,
    "சிற": 1882,
    "சிறந்த": 1883,
    "சிறப்ப": 1884,
    "சிறப்பாக ": 1885,
    "சிறப்பு": 1886,
    "சிறப்பு ": 1887,
    "சிறி": 1888,
    "சிறிய": 1889,
    "சிறு": 1890,
    "சிறு ": 1891,
    "சிறுமி ": 1892,
    "சிறுவ": 1893,
    "சிறையில் ": 1894,
    "சில": 1895,
    "சில ": 1896,
    "சில இடங்களில் ": 1897,
    "சிலை ": 1898,
    "சில் ": 1899,
    "சிவ": 1900,
    "சிவகார்த்திகே": 1901,
    "சிவகார்த்திகேய": 1902,
    "சிவா": 1903,
    "சீ": 1904,
    "சீன": 1905,
    "சீனா": 1906,
    "சீர": 1907,
    "சீரிய": 1908,
    "சு": 1909,
    "சு ": 1910,
    "சுட்டு": 1911,
    "சுந்த": 1912,
    "சும": 1913,
    "சுரு": 1914,
    "சுரே": 1915,
    "சுரேஷ் ": 1916,
    "சுற்ற": 1917,
    "சுற்றி ": 1918,
    "சுற்று": 1919,
    "சுவா": 1920,
    "சுவார": 1921,
    "சுவாரஸ்ய": 1922,
    "சூ": 1923,
    "சூதன": 1924,
    "சூதா": 1925,
    "சூப்ப": 1926,
    "சூப்பர் ": 1927,
    "சூரி": 1928,
    "சூரி ": 1929,
    "சூரிய": 1930,
    "சூர்": 1931,
    "சூர்யா": 1932,
    "சூர்யா ": 1933,
    "சூழ": 1934,
    "செ": 1935,
    "செட் ": 1936,
    "சென்ட": 1937,
    "சென்ன": 1938,
    "சென்னை ": 1939,
    "சென்னையில் ": 1940,
    "சென்ற": 1941,
    "சென்று ": 1942,
    "செம": 1943,
    "செம்ம": 1944,
    "செம்ம ": 1945,
    "செய": 1946,
    "செயலை": 1947,
    "செயல் ": 1948,
    "செயல்ப": 1949,
    "செய்": 1950,
    "செய்க": 1951,
    "செய்கின்ற": 1952,
    "செய்கிற": 1953,
    "செய்த": 1954,
    "செய்து": 1955,
    "செய்து ": 1956,
    "செய்துள்ள": 1957,
    "செய்ய": 1958,
    "செய்யப்பட்ட": 1959,
    "செய்யாத": 1960,
    "செய்யும் ": 1961,
    "செய்வ": 1962,
    "செய்வது ": 1963,
    "செல": 1964,
    "செலு": 1965,
    "செலுத்த": 1966,
    "செல்": 1967,
    "செல்க": 1968,
    "செல்கின்ற": 1969,
    "செல்ப": 1970,
    "செல்போ": 1971,
    "செல்ல": 1972,
    "செல்லும் ": 1973,
    "செல்வ": 1974,
    "செல்வம் ": 1975,
    "சொ": 1976,
    "சே": 1977,
    "சேகர": 1978,
    "சேகர் ": 1979,
    "சேது": 1980,
    "சேர": 1981,
    "சேர்": 1982,
    "சேர்க்க": 1983,
    "சேர்த்த": 1984,
    "சேர்த்து ": 1985,
    "சேர்ந்த": 1986,
    "சேர்ந்து ": 1987,
    "சை": 1988,
    "சை ": 1989,
    "சைக்க": 1990,
    "சைக்கோ": 1991,
    "சைய": 1992,
    "சையில் ": 1993,
    "சையை ": 1994,
    "சொ": 1995,
    "சொந்த": 1996,
    "சொன்ன": 1997,
    "சொல்": 1998,
    "சொல் ": 1999,
    "சொல்க": 2000,
    "சொல்ல": 2001,
    "சொல்லி": 2002,
    "சொல்லி ": 2003,
    "சொல்லிய": 2004,
    "சொல்லு": 2005,
    "சொல்லும் ": 2006,
    "சொல்வ": 2007,
    "சோ": 2008,
    "சோர்": 2009,
    "ச்": 2010,
    "ச் ": 2011,
    "ச் சூ": 2012,
    "ச் சென்ற": 2013,
    "ச் செய": 2014,
    "ச் செய்த": 2015,
    "ச் செய்ய": 2016,
    "ச் சொல்ல": 2017,
    "ச்.": 2018,
    "ச்ச": 2019,
    "ச்சம் ": 2020,
    "ச்சா": 2021,
    "ச்சாட்டு</w>": 2022,
    "ச்சி": 2023,
    "ச்சி ": 2024,
    "ச்சித": 2025,
    "ச்சு": 2026,
    "ச்சு ": 2027,
    "ச்சு</w>": 2028,
    "ச்சூ": 2029,
    "ச்செ": 2030,
    "ச்செய": 2031,
    "ச்சே": 2032,
    "ச்சை ": 2033,
    "ஜ": 2034,
    "ஜக": 2035,
    "ஜன": 2036,
    "ஜரா": 2037,
    "ஜல்ல": 2038,
    "ஜல்லிக்க": 2039,
    "ஜல்லிக்கட்டு ": 2040,
    "ஜா": 2041,
    "ஜாக": 2042,
    "ஜான": 2043,
    "ஜான் ": 2044,
    "ஜாம": 2045,
    "ஜால": 2046,
    "ஜி": 2047,
    "ஜி ": 2048,
    "ஜி.": 2049,
    "ஜிக் ": 2050,
    "ஜித் ": 2051,
    "ஜின": 2052,
    "ஜிய": 2053,
    "ஜீ": 2054,
    "ஜீவா": 2055,
    "ஜு": 2056,
    "ஜூ": 2057,
    "ஜெ": 2058,
    "ஜெக": 2059,
    "ஜெய": 2060,
    "ஜெயக்கும": 2061,
    "ஜெயம் ": 2062,
    "ஜெயம் ரவி": 2063,
    "ஜெயலலி": 2064,
    "ஜெயலலிதா": 2065,
    "ஜெயித்த": 2066,
    "ஜெய் ": 2067,
    "ஜே": 2068,
    "ஜோ": 2069,
    "ஜோடி ": 2070,
    "ஜோடிய": 2071,
    "ஜோதிகா": 2072,
    "ஜ்": 2073,
    "ஜ் ": 2074,
    "ஞ": 2075,
    "ஞர் ": 2076,
    "ஞா": 2077,
    "ஞான": 2078,
    "ஞ்": 2079,
    "ஞ்ச": 2080,
    "ஞ்சம் ": 2081,
    "ஞ்சா": 2082,
    "ஞ்சி": 2083,
    "ஞ்சிமா": 2084,
    "ஞ்சு ": 2085,
    "ட": 2086,
    "ட ": 2087,
    "டக்க": 2088,
    "டங்க": 2089,
    "டங்கள": 2090,
    "டங்களில் ": 2091,
    "டங்களை ": 2092,
    "டங்கள் ": 2093,
    "டத்த": 2094,
    "டத்தின் ": 2095,
    "டத்திற்கு ": 2096,
    "டத்திலும் ": 2097,
    "டத்தில் ": 2098,
    "டத்தை ": 2099,
    "டன": 2100,
    "டன் ": 2101,
    "டம் ": 2102,
    "டம் முழுக்க": 2103,
    "டய": 2104,
    "டயலா": 2105,
    "டயலாக்கு": 2106,
    "டர்": 2107,
    "டல": 2108,
    "டலில் ": 2109,
    "டல் ": 2110,
    "டா": 2111,
    "டா ": 2112,
    "டாக": 2113,
    "டாக்ட": 2114,
    "டாக்டர் ": 2115,
    "டாது": 2116,
    "டாது ": 2117,
    "டி": 2118,
    "டி ": 2119,
    "டி, ": 2120,
    "டி.": 2121,
    "டி20": 2122,
    "டி</w>": 2123,
    "டிக்க": 2124,
    "டிக்கடி ": 2125,
    "டிக்கு ": 2126,
    "டிக்கும் ": 2127,
    "டிக்கெட் ": 2128,
    "டிடிவி தினகர": 2129,
    "டித்த": 2130,
    "டித்து": 2131,
    "டித்து ": 2132,
    "டிப்ப": 2133,
    "டிய": 2134,
    "டியா": 2135,
    "டியாக ": 2136,
    "டியான": 2137,
    "டியில் ": 2138,
    "டியூ": 2139,
    "டியை ": 2140,
    "டியோ": 2141,
    "டிரா": 2142,
    "டிரை": 2143,
    "டிவி": 2144,
    "டிவி ": 2145,
    "டீ": 2146,
    "டீச": 2147,
    "டு": 2148,
    "டு ": 2149,
    "டு</w>": 2150,
    "டுகிற": 2151,
    "டுக்க": 2152,
    "டுக்கு": 2153,
    "டுக்கும் ": 2154,
    "டுத்த": 2155,
    "டுத்தி ": 2156,
    "டுத்திய": 2157,
    "டுத்து": 2158,
    "டுத்து ": 2159,
    "டுப்ப": 2160,
    "டும் ": 2161,
    "டும். ": 2162,
    "டும்ப": 2163,
    "டுவ": 2164,
    "டுவது ": 2165,
    "டுவி": 2166,
    "டூ": 2167,
    "டூர": 2168,
    "டெ": 2169,
    "டெக்ன": 2170,
    "டெல்ல": 2171,
    "டெல்லி ": 2172,
    "டெல்லியில் ": 2173,
    "டெஸ்ட்": 2174,
    "டெஸ்ட்: ": 2175,
    "டே": 2176,
    "டை": 2177,
    "டை ": 2178,
    "டைக்க": 2179,
    "டைட்டில": 2180,
    "டைட்டில் ": 2181,
    "டைத்த": 2182,
    "டைத்தேர்த": 2183,
    "டைந்த": 2184,
    "டைய": 2185,
    "டையில் ": 2186,
    "டையே ": 2187,
    "டையை ": 2188,
    "டைவே": 2189,
    "டோ": 2190,
    "ட்": 2191,
    "ட் ": 2192,
    "ட் அ": 2193,
    "ட் ப": 2194,
    "ட்</w>": 2195,
    "ட்க": 2196,
    "ட்ச": 2197,
    "ட்சி ": 2198,
    "ட்சிய": 2199,
    "ட்ஜெ": 2200,
    "ட்ட": 2201,
    "ட்டம் ": 2202,
    "ட்டம்</w>": 2203,
    "ட்டர் ": 2204,
    "ட்டல் ": 2205,
    "ட்டா": 2206,
    "ட்டா ": 2207,
    "ட்டாசு ": 2208,
    "ட்டி": 2209,
    "ட்டி ": 2210,
    "ட்டி: ": 2211,
    "ட்டி</w>": 2212,
    "ட்டிங் ": 2213,
    "ட்டின் ": 2214,
    "ட்டிய": 2215,
    "ட்டியில் ": 2216,
    "ட்டிற்கு ": 2217,
    "ட்டில": 2218,
    "ட்டிலும் ": 2219,
    "ட்டில் ": 2220,
    "ட்டீ": 2221,
    "ட்டீஸ்</w>": 2222,
    "ட்டு": 2223,
    "ட்டு ": 2224,
    "ட்டு</w>": 2225,
    "ட்டுக்கு ": 2226,
    "ட்டும் ": 2227,
    "ட்டுள்ள": 2228,
    "ட்டை": 2229,
    "ட்டை ": 2230,
    "ட்டைய": 2231,
    "ட்ப": 2232,
    "ட்ரம்ப": 2233,
    "ட்ரம்ப் ": 2234,
    "ட்ரா": 2235,
    "ட்ரி": 2236,
    "ட்ரெ": 2237,
    "ட்ரோ": 2238,
    "ட்வி": 2239,
    "ட்விட்ட": 2240,
    "ட்விஸ்ட் ": 2241,
    "ண": 2242,
    "ணம் ": 2243,
    "ணர்": 2244,
    "ணர்வு ": 2245,
    "ணா": 2246,
    "ணாக": 2247,
    "ணி": 2248,
    "ணி ": 2249,
    "ணி</w>": 2250,
    "ணிக்க": 2251,
    "ணிக்கு ": 2252,
    "ணிய": 2253,
    "ணியில் ": 2254,
    "ணு": 2255,
    "ணும்": 2256,
    "ணும் ": 2257,
    "ணை": 2258,
    "ணை ": 2259,
    "ணைய": 2260,
    "ண்": 2261,
    "ண் ": 2262,
    "ண்ட": 2263,
    "ண்டர் ": 2264,
    "ண்டா": 2265,
    "ண்டாம் ": 2266,
    "ண்டாவது ": 2267,
    "ண்டி": 2268,
    "ண்டி ": 2269,
    "ண்டிய": 2270,
    "ண்டு": 2271,
    "ண்டு ": 2272,
    "ண்டு, ": 2273,
    "ண்டும் ": 2274,
    "ண்ட்": 2275,
    "ண்ட் ": 2276,
    "ண்ண": 2277,
    "ண்ணு": 2278,
    "ண்ணு ": 2279,
    "ண்ப": 2280,
    "ண்மை ": 2281,
    "த": 2282,
    "தகவ": 2283,
    "தகவல்</w>": 2284,
    "தகுதி ": 2285,
    "தக்க": 2286,
    "தங்க": 2287,
    "தங்கள": 2288,
    "தங்கள் ": 2289,
    "தங்கை ": 2290,
    "தடு": 2291,
    "தடுக்க": 2292,
    "தடை": 2293,
    "தடை ": 2294,
    "தட்ட": 2295,
    "தண்ட": 2296,
    "தண்ண": 2297,
    "தந்த": 2298,
    "தந்திர": 2299,
    "தந்தை ": 2300,
    "தன": 2301,
    "தனக்க": 2302,
    "தனக்கு ": 2303,
    "தனது ": 2304,
    "தனால் ": 2305,
    "தனி": 2306,
    "தனி ": 2307,
    "தனிய": 2308,
    "தனு": 2309,
    "தனுஷ": 2310,
    "தனுஷ் ": 2311,
    "தனை": 2312,
    "தனை ": 2313,
    "தனை</w>": 2314,
    "தன்": 2315,
    "தன் ": 2316,
    "தன் பின் ": 2317,
    "தன் பிறகு ": 2318,
    "தன்ன": 2319,
    "தன்னுடைய": 2320,
    "தன்னை ": 2321,
    "தன்ப": 2322,
    "தன்ஷிகா": 2323,
    "தப்ப": 2324,
    "தப்பி": 2325,
    "தம": 2326,
    "தமர் ": 2327,
    "தமர் மோ": 2328,
    "தமர் மோடி</w>": 2329,
    "தமிழ": 2330,
    "தமிழக": 2331,
    "தமிழக அரசு ": 2332,
    "தமிழகத்தில் ": 2333,
    "தமிழகம் ": 2334,
    "தமிழில் ": 2335,
    "தமிழ்": 2336,
    "தமிழ் ": 2337,
    "தமிழ் சினிமா": 2338,
    "தமிழ் சினிமாவில் ": 2339,
    "தம்": 2340,
    "தம் ": 2341,
    "தம்</w>": 2342,
    "தம்ப": 2343,
    "தம்பி ": 2344,
    "தம்பி ராமைய": 2345,
    "தயார": 2346,
    "தயாரிப்ப": 2347,
    "தயாரிப்பாளர் ": 2348,
    "தயாரிப்பில் ": 2349,
    "தர": 2350,
    "தரமான": 2351,
    "தரா": 2352,
    "தராபா": 2353,
    "தரி": 2354,
    "தரு": 2355,
    "தரும் ": 2356,
    "தர்": 2357,
    "தர் ": 2358,
    "தர்வா": 2359,
    "தற": 2360,
    "தற்க": 2361,
    "தற்காக ": 2362,
    "தற்கு": 2363,
    "தற்கு ": 2364,
    "தற்கொ": 2365,
    "தற்கொலை": 2366,
    "தற்கொலை ": 2367,
    "தற்ப": 2368,
    "தற்போது ": 2369,
    "தல": 2370,
    "தலை": 2371,
    "தலை ": 2372,
    "தல்": 2373,
    "தல் ": 2374,
    "தல், ": 2375,
    "தல்</w>": 2376,
    "தள": 2377,
    "தள்ள": 2378,
    "தள்ளு": 2379,
    "தழ": 2380,
    "தவ": 2381,
    "தவற": 2382,
    "தவறு": 2383,
    "தவி": 2384,
    "தவிக்கும் ": 2385,
    "தவிர": 2386,
    "தா": 2387,
    "தா ": 2388,
    "தா?": 2389,
    "தா? ": 2390,
    "தா? பார்ப்போம்.<NEWLINE>": 2391,
    "தாக": 2392,
    "தாக ": 2393,
    "தாகிருஷ்ண": 2394,
    "தாகும் ": 2395,
    "தாகும். ": 2396,
    "தாக்க": 2397,
    "தாக்கிய": 2398,
    "தாக்கு": 2399,
    "தாக்குதல்": 2400,
    "தாங்க": 2401,
    "தாண்டி ": 2402,
    "தாதா": 2403,
    "தான": 2404,
    "தானா ": 2405,
    "தானே ": 2406,
    "தான்": 2407,
    "தான் ": 2408,
    "தான் \"": 2409,
    "தான் இந்த": 2410,
    "தான், ": 2411,
    "தான். ": 2412,
    "தான்.<NEWLINE>": 2413,
    "தாப": 2414,
    "தாம் ": 2415,
    "தாய": 2416,
    "தாய்": 2417,
    "தாய் ": 2418,
    "தார": 2419,
    "தார்த்த": 2420,
    "தால் ": 2421,
    "தால், ": 2422,
    "தாழ": 2423,
    "தாவது ": 2424,
    "தாஸ் ": 2425,
    "தி": 2426,
    "தி ": 2427,
    "தி</w>": 2428,
    "திக": 2429,
    "திகா": 2430,
    "திகார": 2431,
    "திக் ": 2432,
    "திக்க": 2433,
    "திக்கு ": 2434,
    "திட": 2435,
    "திடீ": 2436,
    "திடீர": 2437,
    "திடீரென": 2438,
    "திடீர் ": 2439,
    "திட்ட": 2440,
    "திட்டமி": 2441,
    "திட்டம் ": 2442,
    "திட்டம்</w>": 2443,
    "தின": 2444,
    "தினகர": 2445,
    "தினேஷ் ": 2446,
    "திமுக": 2447,
    "திய": 2448,
    "தியாக": 2449,
    "தியாக ": 2450,
    "தியான": 2451,
    "தியின் ": 2452,
    "தியில் ": 2453,
    "தியேட்ட": 2454,
    "தியேட்டரில் ": 2455,
    "தியை ": 2456,
    "திர": 2457,
    "திரடி ": 2458,
    "திரி": 2459,
    "திரி ": 2460,
    "திரிய": 2461,
    "திரு": 2462,
    "திருட": 2463,
    "திருட்டு ": 2464,
    "திருந": 2465,
    "திருப்த": 2466,
    "திருப்ப": 2467,
    "திருமண": 2468,
    "திருமணத்திற்கு ": 2469,
    "திருமணம் ": 2470,
    "திருமணம் செய்து ": 2471,
    "திருமா": 2472,
    "திரும்ப": 2473,
    "திரை": 2474,
    "திரை ": 2475,
    "திரைக்க": 2476,
    "திரைக்கதை": 2477,
    "திரைக்கதை ": 2478,
    "திரைக்கதையில் ": 2479,
    "திரைப்ப": 2480,
    "திரைப்பட": 2481,
    "திரைப்படம் ": 2482,
    "திரைய": 2483,
    "திரையரங்க": 2484,
    "திரையில் ": 2485,
    "திற": 2486,
    "திறக்க": 2487,
    "தில": 2488,
    "திலும் ": 2489,
    "தில் ": 2490,
    "திவ": 2491,
    "தீ": 2492,
    "தீ விப": 2493,
    "தீபா": 2494,
    "தீபிகா": 2495,
    "தீய": 2496,
    "தீர": 2497,
    "தீர்": 2498,
    "தீர்ப்ப": 2499,
    "தீவிர": 2500,
    "து": 2501,
    "து ": 2502,
    "து அ": 2503,
    "து என": 2504,
    "து ஏன்": 2505,
    "து தான் ": 2506,
    "து போல": 2507,
    "து போல் ": 2508,
    "து!</w>": 2509,
    "து, ": 2510,
    "து, அ": 2511,
    "து. ": 2512,
    "து. அ": 2513,
    "து. ப": 2514,
    "து.</w>": 2515,
    "து.<NEWLINE>": 2516,
    "து: ": 2517,
    "து</w>": 2518,
    "துகா": 2519,
    "துக்கு ": 2520,
    "துணி": 2521,
    "துணை": 2522,
    "துணை ": 2523,
    "துணைய": 2524,
    "துதான் ": 2525,
    "துன்ப": 2526,
    "துன்பத்த": 2527,
    "துன்பம் ": 2528,
    "துப்ப": 2529,
    "துப்பா": 2530,
    "துப்பாக்கி": 2531,
    "தும் ": 2532,
    "தும் அ": 2533,
    "தும் இ": 2534,
    "தும், ": 2535,
    "துர": 2536,
    "துற": 2537,
    "துவ": 2538,
    "துவாக ": 2539,
    "துவும் ": 2540,
    "து” -": 2541,
    "தூ": 2542,
    "தூக்கி ": 2543,
    "தூத்துக்கு": 2544,
    "தூத்துக்குடி ": 2545,
    "தெ": 2546,
    "தெரி": 2547,
    "தெரிந்த": 2548,
    "தெரிந்து ": 2549,
    "தெரிய": 2550,
    "தெரியாத": 2551,
    "தெரியாமல் ": 2552,
    "தெலு": 2553,
    "தெலுங்கு ": 2554,
    "தெல்லாம் ": 2555,
    "தெளி": 2556,
    "தொட": 2557,
    "தே": 2558,
    "தே ": 2559,
    "தே நேரத்தில் ": 2560,
    "தே நேரம் ": 2561,
    "தே போ": 2562,
    "தே மாதிரி ": 2563,
    "தேச": 2564,
    "தேசிய": 2565,
    "தேட": 2566,
    "தேடி": 2567,
    "தேடி ": 2568,
    "தேபோல் ": 2569,
    "தேர்": 2570,
    "தேர்த": 2571,
    "தேர்தல் ": 2572,
    "தேர்ந்த": 2573,
    "தேர்ந்தெ": 2574,
    "தேர்ந்தெடுத்து ": 2575,
    "தேர்வு ": 2576,
    "தேவ": 2577,
    "தேவா": 2578,
    "தேவி": 2579,
    "தேவை": 2580,
    "தேவைய": 2581,
    "தேவையான": 2582,
    "தை": 2583,
    "தை ": 2584,
    "தை தொடர்ந்து ": 2585,
    "தை விட": 2586,
    "தை.<NEWLINE>": 2587,
    "தைய": 2588,
    "தையில் ": 2589,
    "தையும் ": 2590,
    "தைரிய": 2591,
    "தைவிட": 2592,
    "தொ": 2593,
    "தொகு": 2594,
    "தொட": 2595,
    "தொடங்கி ": 2596,
    "தொடங்கிய": 2597,
    "தொடரும் ": 2598,
    "தொடர்ந்து ": 2599,
    "தொடர்ப": 2600,
    "தொலை": 2601,
    "தொழ": 2602,
    "தொழில": 2603,
    "தொழில் ": 2604,
    "தொழில்நுட்ப": 2605,
    "தொழில்நுட்பகலைஞ": 2606,
    "தொழில்நுட்பகலைஞர்கள் ": 2607,
    "தொழில்நுட்பகலைஞர்கள் : ": 2608,
    "தோ": 2609,
    "தோடு ": 2610,
    "தோனி ": 2611,
    "தோன்ற": 2612,
    "தோன்று": 2613,
    "தோற்ற": 2614,
    "தோல்வி": 2615,
    "தோழ": 2616,
    "த்": 2617,
    "த் ": 2618,
    "த் த": 2619,
    "த் தலை": 2620,
    "த் தா": 2621,
    "த் தீ": 2622,
    "த் து": 2623,
    "த் துன்ப": 2624,
    "த் தெரிய": 2625,
    "த் தொட": 2626,
    "த்</w>": 2627,
    "த்த": 2628,
    "த்த ": 2629,
    "த்தக்க": 2630,
    "த்தட்ட": 2631,
    "த்தது ": 2632,
    "த்தன": 2633,
    "த்தனை ": 2634,
    "த்தம் ": 2635,
    "த்தர": 2636,
    "த்தா": 2637,
    "த்தான": 2638,
    "த்தான் ": 2639,
    "த்தால் ": 2640,
    "த்தி": 2641,
    "த்தி ": 2642,
    "த்தின": 2643,
    "த்தின் ": 2644,
    "த்திய": 2645,
    "த்தியில் ": 2646,
    "த்திர": 2647,
    "த்திரி": 2648,
    "த்திருக்க": 2649,
    "த்திற்க": 2650,
    "த்திற்காக ": 2651,
    "த்திற்கு": 2652,
    "த்திற்கு ": 2653,
    "த்திற்கும் ": 2654,
    "த்தில": 2655,
    "த்திலிருந்து ": 2656,
    "த்திலும் ": 2657,
    "த்திலேயே ": 2658,
    "த்தில்": 2659,
    "த்தில் ": 2660,
    "த்தில் அ": 2661,
    "த்தில் இருந்து ": 2662,
    "த்தில், ": 2663,
    "த்து": 2664,
    "த்து ": 2665,
    "த்து , ": 2666,
    "த்து, ": 2667,
    "த்து: ": 2668,
    "த்து</w>": 2669,
    "த்துக் கொள்ள": 2670,
    "த்துக்க": 2671,
    "த்துக்கு": 2672,
    "த்துக்கு ": 2673,
    "த்துடன் ": 2674,
    "த்தும் ": 2675,
    "த்துற": 2676,
    "த்துறை ": 2677,
    "த்துள்ள": 2678,
    "த்துவ": 2679,
    "த்துவம் ": 2680,
    "த்துவிட்ட": 2681,
    "த்தை ": 2682,
    "த்தை அ": 2683,
    "த்தையும் ": 2684,
    "த்தொ": 2685,
    "த்தோடு ": 2686,
    "த்மா": 2687,
    "த்ய": 2688,
    "த்ரா": 2689,
    "த்ரி": 2690,
    "த்ரிஷா": 2691,
    "த்ரிஷா ": 2692,
    "஦": 2693,
    "஧": 2694,
    "ந": 2695,
    "நக": 2696,
    "நகர": 2697,
    "நகர் ": 2698,
    "நகர்த்த": 2699,
    "நகை": 2700,
    "நட": 2701,
    "நடக்க": 2702,
    "நடக்கும் ": 2703,
    "நடத்த": 2704,
    "நடந்த": 2705,
    "நடந்து ": 2706,
    "நடன": 2707,
    "நடவடிக்க": 2708,
    "நடவடிக்கை ": 2709,
    "நடி": 2710,
    "நடிக": 2711,
    "நடிகர் ": 2712,
    "நடிகை": 2713,
    "நடிகை ": 2714,
    "நடிக்க": 2715,
    "நடிக்க ": 2716,
    "நடிக்க, ": 2717,
    "நடித்த": 2718,
    "நடித்திருக்கிறார். ": 2719,
    "நடித்திருக்கும் ": 2720,
    "நடித்து ": 2721,
    "நடித்துள்ள": 2722,
    "நடிப்ப": 2723,
    "நடிப்பில் ": 2724,
    "நடிப்பு": 2725,
    "நடிப்பு ": 2726,
    "நடு": 2727,
    "நடை": 2728,
    "நட்சத்திர": 2729,
    "நட்ப": 2730,
    "நட்பு": 2731,
    "நட்பு ": 2732,
    "நண்ப": 2733,
    "நண்பர் ": 2734,
    "நண்பர்கள": 2735,
    "நண்பர்கள் ": 2736,
    "நன்": 2737,
    "நன்மை ": 2738,
    "நன்ற": 2739,
    "நன்றாக ": 2740,
    "நம": 2741,
    "நமக்கு ": 2742,
    "நம்": 2743,
    "நம் ": 2744,
    "நம்ப": 2745,
    "நம்பி ": 2746,
    "நம்பிக்க": 2747,
    "நம்பிக்கை ": 2748,
    "நம்ம": 2749,
    "நம்மை ": 2750,
    "நய": 2751,
    "நயன்தாரா": 2752,
    "நயன்தாரா ": 2753,
    "நர் ": 2754,
    "நல": 2755,
    "நலம் ": 2756,
    "நல்ல": 2757,
    "நா": 2758,
    "நாக": 2759,
    "நாட": 2760,
    "நாடக": 2761,
    "நாடகா": 2762,
    "நாடாளுமன்ற": 2763,
    "நாடு": 2764,
    "நாடு ": 2765,
    "நாட்ட": 2766,
    "நாட்டில் ": 2767,
    "நாட்டு ": 2768,
    "நாண": 2769,
    "நாத் ": 2770,
    "நான் ": 2771,
    "நான்க": 2772,
    "நாம் ": 2773,
    "நாய": 2774,
    "நாயக": 2775,
    "நாயகன் ": 2776,
    "நாயகரின் ": 2777,
    "நாயகர் ": 2778,
    "நாயகி": 2779,
    "நாயகி ": 2780,
    "நாயகிய": 2781,
    "நாயகியாக ": 2782,
    "நாயகியின் ": 2783,
    "நாயு": 2784,
    "நாராயண": 2785,
    "நாள": 2786,
    "நாளில் ": 2787,
    "நாளை ": 2788,
    "நாள் ": 2789,
    "நி": 2790,
    "நிகழ": 2791,
    "நிக்க": 2792,
    "நிச்ச": 2793,
    "நிச்சயம் ": 2794,
    "நிஜ": 2795,
    "நிதி": 2796,
    "நிதி ": 2797,
    "நிதிய": 2798,
    "நினை": 2799,
    "நினைக்க": 2800,
    "நினைத்த": 2801,
    "நினைத்து ": 2802,
    "நின்ற": 2803,
    "நின்று ": 2804,
    "நிய": 2805,
    "நியமன": 2806,
    "நியா": 2807,
    "நியாய": 2808,
    "நிர": 2809,
    "நிரூபி": 2810,
    "நிர்": 2811,
    "நிற": 2812,
    "நிறு": 2813,
    "நிறுத்த": 2814,
    "நிறுவன": 2815,
    "நிறை": 2816,
    "நிறைந்த": 2817,
    "நிறைய": 2818,
    "நிறைவே": 2819,
    "நிற்க": 2820,
    "நிற்கும் ": 2821,
    "நிற்ப": 2822,
    "நில": 2823,
    "நிலை": 2824,
    "நிலை ": 2825,
    "நிலைய": 2826,
    "நிலையில் ": 2827,
    "நிவாரண": 2828,
    "நீ": 2829,
    "நீ ": 2830,
    "நீக்க": 2831,
    "நீங்க": 2832,
    "நீட் ": 2833,
    "நீண்ட": 2834,
    "நீதி": 2835,
    "நீதி ": 2836,
    "நீதிபதி ": 2837,
    "நீதிமன்ற": 2838,
    "நீதிமன்றத்தில் ": 2839,
    "நீதிமன்றம் ": 2840,
    "நீதிமன்றம்</w>": 2841,
    "நீர": 2842,
    "நீர் ": 2843,
    "நீள": 2844,
    "நு": 2845,
    "நுட்ப": 2846,
    "நுழை": 2847,
    "நூ": 2848,
    "நெ": 2849,
    "நெகிழ": 2850,
    "நெஞ்ச": 2851,
    "நெடு": 2852,
    "நெரு": 2853,
    "நெருக்க": 2854,
    "நெல்": 2855,
    "நே": 2856,
    "நேர": 2857,
    "நேரத்தில் ": 2858,
    "நேரம் ": 2859,
    "நேரில் ": 2860,
    "நேர்": 2861,
    "நேர்மையான": 2862,
    "நொ": 2863,
    "நோ": 2864,
    "நோக்க": 2865,
    "நோக்கி ": 2866,
    "நோய": 2867,
    "நோய் ": 2868,
    "ந்": 2869,
    "ந் ": 2870,
    "ந்த": 2871,
    "ந்த ": 2872,
    "ந்தது ": 2873,
    "ந்தம் ": 2874,
    "ந்தர": 2875,
    "ந்தா": 2876,
    "ந்தார் ": 2877,
    "ந்தி": 2878,
    "ந்தி ": 2879,
    "ந்தின": 2880,
    "ந்திய": 2881,
    "ந்திர": 2882,
    "ந்தில் ": 2883,
    "ந்து": 2884,
    "ந்து ": 2885,
    "ந்து போ": 2886,
    "ந்து, ": 2887,
    "ந்தும் ": 2888,
    "ந்துவிட்ட": 2889,
    "ந்தைய": 2890,
    "ந்த் ": 2891,
    "ந்நில": 2892,
    "ன": 2893,
    "ன ": 2894,
    "னம் ": 2895,
    "னம்</w>": 2896,
    "னர்": 2897,
    "னர் ": 2898,
    "னர். ": 2899,
    "னர். அ": 2900,
    "னர்.<NEWLINE>": 2901,
    "னல் ": 2902,
    "னா": 2903,
    "னா ": 2904,
    "னாக ": 2905,
    "னால": 2906,
    "னால் ": 2907,
    "னி": 2908,
    "னி ": 2909,
    "னிக்கு ": 2910,
    "னிடம் ": 2911,
    "னின் ": 2912,
    "னிய": 2913,
    "னியர் ": 2914,
    "னியின் ": 2915,
    "னியில் ": 2916,
    "னிரு": 2917,
    "னில் ": 2918,
    "னு": 2919,
    "னு ": 2920,
    "னுக்கு ": 2921,
    "னுடன் ": 2922,
    "னுப": 2923,
    "னுபவ": 2924,
    "னும் ": 2925,
    "னே": 2926,
    "னை": 2927,
    "னை ": 2928,
    "னை</w>": 2929,
    "னைக்கு ": 2930,
    "னைத்து ": 2931,
    "னைய": 2932,
    "னையில் ": 2933,
    "னையை ": 2934,
    "னோ": 2935,
    "ன்": 2936,
    "ன் ": 2937,
    "ன் , ": 2938,
    "ன் அ": 2939,
    "ன்!</w>": 2940,
    "ன், ": 2941,
    "ன், அ": 2942,
    "ன்.": 2943,
    "ன். ": 2944,
    "ன்.<NEWLINE>": 2945,
    "ன்.ராதாகிருஷ்ண": 2946,
    "ன்: ": 2947,
    "ன்</w>": 2948,
    "ன்க": 2949,
    "ன்கள": 2950,
    "ன்கள் ": 2951,
    "ன்கு ": 2952,
    "ன்சி": 2953,
    "ன்ச்": 2954,
    "ன்ச் ": 2955,
    "ன்ச் \"": 2956,
    "ன்ச் \" ": 2957,
    "ன்ச் \" : ": 2958,
    "ன்ட": 2959,
    "ன்ன": 2960,
    "ன்னணி ": 2961,
    "ன்னணி இச": 2962,
    "ன்னா": 2963,
    "ன்னா ": 2964,
    "ன்னி": 2965,
    "ன்னீர": 2966,
    "ன்னீர்செல்வ": 2967,
    "ன்னு ": 2968,
    "ன்னும் ": 2969,
    "ன்ப": 2970,
    "ன்பு ": 2971,
    "ன்மை ": 2972,
    "ன்ற": 2973,
    "ன்றி": 2974,
    "ன்றி ": 2975,
    "ன்று": 2976,
    "ன்று ": 2977,
    "ன்வண்ண": 2978,
    "ன்ஸ": 2979,
    "ன்ஸ்": 2980,
    "ன்ஸ் ": 2981,
    "ப": 2982,
    "பக": 2983,
    "பகை": 2984,
    "பக்க": 2985,
    "பக்கம் ": 2986,
    "பக்கா": 2987,
    "பங்க": 2988,
    "பங்கே": 2989,
    "பஞ்ச": 2990,
    "பட": 2991,
    "படங்கள": 2992,
    "படத்த": 2993,
    "படத்தின் ": 2994,
    "படத்திற்கு ": 2995,
    "படத்தில் ": 2996,
    "படத்தை ": 2997,
    "படத்தொகு": 2998,
    "படத்தொகுப்பில் ": 2999,
    "படத்தொகுப்பு ": 3000,
    "படமாக ": 3001,
    "படம் ": 3002,
    "படம் முழுக்க": 3003,
    "படம் முழுவதும் ": 3004,
    "படி": 3005,
    "படி ": 3006,
    "படிக்க": 3007,
    "படு": 3008,
    "படுத்த": 3009,
    "படைத்த": 3010,
    "பட்ஜெ": 3011,
    "பட்ட": 3012,
    "பண": 3013,
    "பணத்தை ": 3014,
    "பணம் ": 3015,
    "பணி": 3016,
    "பண்ண": 3017,
    "பண்ப": 3018,
    "பத": 3019,
    "பதவி": 3020,
    "பதி": 3021,
    "பதி ": 3022,
    "பதிய": 3023,
    "பதில": 3024,
    "பந்த": 3025,
    "பன் ": 3026,
    "பன்ச் ": 3027,
    "பன்னீர்செல்வ": 3028,
    "பம் ": 3029,
    "பய": 3030,
    "பயங்கர": 3031,
    "பயண": 3032,
    "பயன்ப": 3033,
    "பயன்படுத்த": 3034,
    "பயிற்ச": 3035,
    "பர": 3036,
    "பரபர": 3037,
    "பரா": 3038,
    "பரி": 3039,
    "பரிதாப": 3040,
    "பர் ": 3041,
    "பற": 3042,
    "பறக்க": 3043,
    "பறி": 3044,
    "பற்றி ": 3045,
    "பல": 3046,
    "பலம் ": 3047,
    "பலம் : ": 3048,
    "பலம் : \"": 3049,
    "பலம்: ": 3050,
    "பலவீன": 3051,
    "பலவீனம் ": 3052,
    "பலவீனம் : ": 3053,
    "பலவீனம்: ": 3054,
    "பளி": 3055,
    "பள்ள": 3056,
    "பள்ளி ": 3057,
    "பழ": 3058,
    "பழனி": 3059,
    "பழி": 3060,
    "பழைய": 3061,
    "பவர் ": 3062,
    "பா": 3063,
    "பாக": 3064,
    "பாகிஸ்த": 3065,
    "பாகுபல": 3066,
    "பாக்": 3067,
    "பாச": 3068,
    "பாஜக": 3069,
    "பாட": 3070,
    "பாடல": 3071,
    "பாடல் ": 3072,
    "பாடல்கள": 3073,
    "பாடல்கள் ": 3074,
    "பாடு": 3075,
    "பாடு ": 3076,
    "பாண்ட": 3077,
    "பாண்டிய": 3078,
    "பாதி": 3079,
    "பாதி ": 3080,
    "பாதிக்க": 3081,
    "பாதிக்கப்பட்ட": 3082,
    "பாதியில் ": 3083,
    "பாதுகா": 3084,
    "பாதுகாப்பு ": 3085,
    "பாத்திர": 3086,
    "பாபு": 3087,
    "பாபு ": 3088,
    "பாய": 3089,
    "பாய் ": 3090,
    "பார": 3091,
    "பாரா": 3092,
    "பாராட்ட": 3093,
    "பாராட்டு": 3094,
    "பார்": 3095,
    "பார்க்க": 3096,
    "பார்க்கும் ": 3097,
    "பார்த்த": 3098,
    "பார்த்து ": 3099,
    "பார்ப்ப": 3100,
    "பால": 3101,
    "பாலா": 3102,
    "பாலி": 3103,
    "பாலியல் ": 3104,
    "பாலியல் வன்கொடு": 3105,
    "பால் ": 3106,
    "பாவ": 3107,
    "பாஸ்க": 3108,
    "பி": 3109,
    "பி ": 3110,
    "பி சிம்": 3111,
    "பி.": 3112,
    "பிஎ": 3113,
    "பிக": 3114,
    "பிகா": 3115,
    "பிடி": 3116,
    "பிடிக்க": 3117,
    "பிடித்த": 3118,
    "பிடித்து ": 3119,
    "பின் ": 3120,
    "பின்ன": 3121,
    "பின்னணி இச": 3122,
    "பின்னணி இசை ": 3123,
    "பின்னணியில் ": 3124,
    "பிர": 3125,
    "பிரகாஷ் ": 3126,
    "பிரச": 3127,
    "பிரச்": 3128,
    "பிரச்ச": 3129,
    "பிரதம": 3130,
    "பிரதமர் மோ": 3131,
    "பிரபல": 3132,
    "பிரபு": 3133,
    "பிரபு ": 3134,
    "பிரா": 3135,
    "பிரி": 3136,
    "பிரிந்து ": 3137,
    "பிரே": 3138,
    "பிற": 3139,
    "பிற நட்சத்திர": 3140,
    "பிற நட்சத்திரங்கள் ": 3141,
    "பிற நட்சத்திரங்கள் : ": 3142,
    "பிறகு ": 3143,
    "பிறந்த": 3144,
    "பிள": 3145,
    "பிள்ள": 3146,
    "பீ": 3147,
    "பு": 3148,
    "பு ": 3149,
    "புக": 3150,
    "புகழ": 3151,
    "புகார் ": 3152,
    "புகார்</w>": 3153,
    "புதிய": 3154,
    "புது": 3155,
    "புது ": 3156,
    "புர": 3157,
    "புரி": 3158,
    "புரிய": 3159,
    "புற": 3160,
    "புல": 3161,
    "புலி ": 3162,
    "பூ": 3163,
    "பெ": 3164,
    "பெட்ரோ": 3165,
    "பெண": 3166,
    "பெண் ": 3167,
    "பெண்கள": 3168,
    "பெண்கள் ": 3169,
    "பெண்ண": 3170,
    "பெய": 3171,
    "பெயர் ": 3172,
    "பெர": 3173,
    "பெரி": 3174,
    "பெரிதாக ": 3175,
    "பெரிய": 3176,
    "பெரு": 3177,
    "பெரும் ": 3178,
    "பெரும் பல": 3179,
    "பெரும் பலம்.<NEWLINE>": 3180,
    "பெரும்ப": 3181,
    "பெற": 3182,
    "பெறு": 3183,
    "பெற்ற": 3184,
    "பே": 3185,
    "பேச": 3186,
    "பேசி ": 3187,
    "பேசிய": 3188,
    "பேசு": 3189,
    "பேசும் ": 3190,
    "பேச்சு": 3191,
    "பேட்டி</w>": 3192,
    "பேய் ": 3193,
    "பேர": 3194,
    "பேரு": 3195,
    "பேர் ": 3196,
    "பை": 3197,
    "பைனல்": 3198,
    "பைனல் ": 3199,
    "பைனல் \"ப": 3200,
    "பைனல்\" ப": 3201,
    "பைய": 3202,
    "பொ": 3203,
    "பொது": 3204,
    "பொரு": 3205,
    "பொருள": 3206,
    "பொருள் ": 3207,
    "பொறு": 3208,
    "போ": 3209,
    "போக": 3210,
    "போகும் ": 3211,
    "போட": 3212,
    "போடு": 3213,
    "போட்ட": 3214,
    "போட்டிய": 3215,
    "போட்டு ": 3216,
    "போது": 3217,
    "போது ": 3218,
    "போது அ": 3219,
    "போன": 3220,
    "போன்ற": 3221,
    "போய் ": 3222,
    "போரா": 3223,
    "போராட்ட": 3224,
    "போராட்டம் ": 3225,
    "போராட்டம்</w>": 3226,
    "போர் ": 3227,
    "போல": 3228,
    "போல ": 3229,
    "போலவே ": 3230,
    "போலி": 3231,
    "போலி ": 3232,
    "போலிஸ் ": 3233,
    "போலீ": 3234,
    "போலீஸ் ": 3235,
    "போல் ": 3236,
    "ப்": 3237,
    "ப் ": 3238,
    "ப் ப": 3239,
    "ப் பட": 3240,
    "ப் பய": 3241,
    "ப் பார்த்த": 3242,
    "ப் பி": 3243,
    "ப் பிற": 3244,
    "ப் பு": 3245,
    "ப் பெ": 3246,
    "ப் பெரு": 3247,
    "ப் பே": 3248,
    "ப் பொ": 3249,
    "ப் பொரு": 3250,
    "ப் போ": 3251,
    "ப்ட": 3252,
    "ப்த": 3253,
    "ப்ப": 3254,
    "ப்பட": 3255,
    "ப்படாத": 3256,
    "ப்படி": 3257,
    "ப்படி ": 3258,
    "ப்படி ஒரு ": 3259,
    "ப்படிய": 3260,
    "ப்படியே ": 3261,
    "ப்படு": 3262,
    "ப்படுகிற": 3263,
    "ப்படுத்த": 3264,
    "ப்படுத்திய": 3265,
    "ப்படும் ": 3266,
    "ப்பட்ட": 3267,
    "ப்பட்ட ": 3268,
    "ப்பட்டிருக்கும் ": 3269,
    "ப்பட்டு": 3270,
    "ப்பட்டு ": 3271,
    "ப்பட்டுள்ள": 3272,
    "ப்பதி": 3273,
    "ப்பது ": 3274,
    "ப்பன் ": 3275,
    "ப்பர் ": 3276,
    "ப்பா": 3277,
    "ப்பா ": 3278,
    "ப்பாக ": 3279,
    "ப்பான": 3280,
    "ப்பான் ": 3281,
    "ப்பால் ": 3282,
    "ப்பாள": 3283,
    "ப்பாளர் ": 3284,
    "ப்பி": 3285,
    "ப்பி ": 3286,
    "ப்பிடி": 3287,
    "ப்பின": 3288,
    "ப்பின் ": 3289,
    "ப்பிய": 3290,
    "ப்பிர": 3291,
    "ப்பில் ": 3292,
    "ப்பு": 3293,
    "ப்பு ": 3294,
    "ப்பு!</w>": 3295,
    "ப்பு, ": 3296,
    "ப்பு: ": 3297,
    "ப்பு</w>": 3298,
    "ப்புக்கு ": 3299,
    "ப்பும் ": 3300,
    "ப்பூ": 3301,
    "ப்பெ": 3302,
    "ப்பே": 3303,
    "ப்பை ": 3304,
    "ப்போ": 3305,
    "ப்போது ": 3306,
    "ப்ர": 3307,
    "ப்ரா": 3308,
    "ப்ள": 3309,
    "ம": 3310,
    "மக": 3311,
    "மகன": 3312,
    "மகனை ": 3313,
    "மகன் ": 3314,
    "மகள": 3315,
    "மகள் ": 3316,
    "மகா": 3317,
    "மகிழ": 3318,
    "மகே": 3319,
    "மகேந்திர": 3320,
    "மக்க": 3321,
    "மக்கள": 3322,
    "மக்களின் ": 3323,
    "மக்களுக்கு ": 3324,
    "மக்கள் ": 3325,
    "மட": 3326,
    "மட்ட": 3327,
    "மட்டு": 3328,
    "மட்டுமல்ல": 3329,
    "மட்டுமி": 3330,
    "மட்டுமே": 3331,
    "மட்டுமே ": 3332,
    "மட்டும் ": 3333,
    "மண": 3334,
    "மணி": 3335,
    "மணி ": 3336,
    "மணிய": 3337,
    "மண்ட": 3338,
    "மத": 3339,
    "மதி": 3340,
    "மதி ": 3341,
    "மதி</w>": 3342,
    "மதிக்க": 3343,
    "மது": 3344,
    "மது ": 3345,
    "மதுரை ": 3346,
    "மத்திய": 3347,
    "மத்திய அரசு ": 3348,
    "மன": 3349,
    "மனதில் ": 3350,
    "மனம் ": 3351,
    "மனி": 3352,
    "மனித": 3353,
    "மனு ": 3354,
    "மனு</w>": 3355,
    "மனை": 3356,
    "மனைவி": 3357,
    "மனைவிய": 3358,
    "மனைவியை ": 3359,
    "மனோ": 3360,
    "மன்": 3361,
    "மன் ": 3362,
    "மன்ன": 3363,
    "மன்ற": 3364,
    "மம் ": 3365,
    "மய": 3366,
    "மர": 3367,
    "மரண": 3368,
    "மரா": 3369,
    "மரியாத": 3370,
    "மரு": 3371,
    "மருத்து": 3372,
    "மருத்துவ": 3373,
    "மருத்துவமன": 3374,
    "மருத்துவமனையில் ": 3375,
    "மர்ச": 3376,
    "மர்ம": 3377,
    "மற": 3378,
    "மறக்க": 3379,
    "மறந்து ": 3380,
    "மறிந்து ": 3381,
    "மறு": 3382,
    "மறுப்பு</w>": 3383,
    "மறை": 3384,
    "மற்ற": 3385,
    "மற்றபடி ": 3386,
    "மற்றும் ": 3387,
    "மற்றொரு ": 3388,
    "மல": 3389,
    "மலா": 3390,
    "மலா ": 3391,
    "மலை": 3392,
    "மலை ": 3393,
    "மலையாள": 3394,
    "மலையில் ": 3395,
    "மல் ": 3396,
    "மல்ல": 3397,
    "மழ": 3398,
    "மழை": 3399,
    "மழை ": 3400,
    "மழைக்கு ": 3401,
    "மா": 3402,
    "மா ": 3403,
    "மா?": 3404,
    "மாக": 3405,
    "மாக ": 3406,
    "மாக இருக்க": 3407,
    "மாகவும் ": 3408,
    "மாகவே ": 3409,
    "மாகிய": 3410,
    "மாக்": 3411,
    "மாக்க": 3412,
    "மாட்ட": 3413,
    "மாண": 3414,
    "மாணவர்கள் ": 3415,
    "மாணவி": 3416,
    "மாண்ட": 3417,
    "மாத": 3418,
    "மாதிரி ": 3419,
    "மாதிரிய": 3420,
    "மாநில": 3421,
    "மான": 3422,
    "மான ": 3423,
    "மானின் ": 3424,
    "மானு": 3425,
    "மானுஷ்ய": 3426,
    "மான் ": 3427,
    "மாய": 3428,
    "மாய் ": 3429,
    "மார": 3430,
    "மாரி ": 3431,
    "மாற": 3432,
    "மாறி ": 3433,
    "மாறிய": 3434,
    "மாறு": 3435,
    "மாறு ": 3436,
    "மாற்ற": 3437,
    "மாற்றம்</w>": 3438,
    "மாற்று": 3439,
    "மாலை ": 3440,
    "மாவட்ட": 3441,
    "மி": 3442,
    "மி ": 3443,
    "மிக": 3444,
    "மிகப்பெ": 3445,
    "மிகப்பெரிய": 3446,
    "மிகவும் ": 3447,
    "மிகு": 3448,
    "மிகுந்த": 3449,
    "மிக்க": 3450,
    "மிதா": 3451,
    "மித்": 3452,
    "மின்": 3453,
    "மின் ": 3454,
    "மிய": 3455,
    "மிர": 3456,
    "மிரட்ட": 3457,
    "மிரட்டல் ": 3458,
    "மிரட்டிய": 3459,
    "மிரட்டு": 3460,
    "மிருந்து ": 3461,
    "மிற": 3462,
    "மில": 3463,
    "மில்லை": 3464,
    "மில்லை ": 3465,
    "மிழ": 3466,
    "மீ": 3467,
    "மீட்க": 3468,
    "மீட்ட": 3469,
    "மீட்ப": 3470,
    "மீண்ட": 3471,
    "மீண்டும் ": 3472,
    "மீதான": 3473,
    "மீதிக்க": 3474,
    "மீதிக்கதை.<NEWLINE>": 3475,
    "மீது ": 3476,
    "மீது வழக்கு": 3477,
    "மீன": 3478,
    "மீற": 3479,
    "மீறி ": 3480,
    "மு": 3481,
    "மு.க.": 3482,
    "முக": 3483,
    "முகம் ": 3484,
    "முக்கிய": 3485,
    "முக்கியத்துவம் ": 3486,
    "முடி": 3487,
    "முடிக்க": 3488,
    "முடிந்த": 3489,
    "முடிய": 3490,
    "முடிவு ": 3491,
    "முடிவு</w>": 3492,
    "முடைய": 3493,
    "முத": 3494,
    "முதல": 3495,
    "முதலமைச்ச": 3496,
    "முதலமைச்சர் ": 3497,
    "முதலில் ": 3498,
    "முதல்": 3499,
    "முதல் ": 3500,
    "முதல் பாதி ": 3501,
    "முதல் பாதியில் ": 3502,
    "முதல்வர் ": 3503,
    "முத்த": 3504,
    "முத்திர": 3505,
    "முத்து": 3506,
    "முந்தைய": 3507,
    "முனி": 3508,
    "முன் ": 3509,
    "முன்ன": 3510,
    "முன்னாள் ": 3511,
    "முன்னே": 3512,
    "முன்ப": 3513,
    "முன்பு ": 3514,
    "முன்பே ": 3515,
    "மும் ": 3516,
    "மும் அ": 3517,
    "மும்!<NEWLINE>": 3518,
    "மும், ": 3519,
    "மும்.<NEWLINE>": 3520,
    "மும்ப": 3521,
    "மும்பை ": 3522,
    "முயற்ச": 3523,
    "முயற்சி ": 3524,
    "முர": 3525,
    "முரு": 3526,
    "முருகதா": 3527,
    "முருகன் ": 3528,
    "முற": 3529,
    "முறு": 3530,
    "முறை": 3531,
    "முறை ": 3532,
    "முறைய": 3533,
    "முறையாக ": 3534,
    "முற்ற": 3535,
    "முழு": 3536,
    "முழு ": 3537,
    "முழுக்க": 3538,
    "முழுவதும் ": 3539,
    "மூ": 3540,
    "மூக": 3541,
    "மூட": 3542,
    "மூன்ற": 3543,
    "மூன்று ": 3544,
    "மூர்த்த": 3545,
    "மூல": 3546,
    "மூலம் ": 3547,
    "மூழ்க": 3548,
    "மெ": 3549,
    "மெட்ரோ": 3550,
    "மெதுவாக ": 3551,
    "மென்ட": 3552,
    "மெரிக்க": 3553,
    "மே": 3554,
    "மே ": 3555,
    "மேக்": 3556,
    "மேன": 3557,
    "மேன் ": 3558,
    "மேற்கொ": 3559,
    "மேல": 3560,
    "மேலும் ": 3561,
    "மேல்": 3562,
    "மேல் ": 3563,
    "மை": 3564,
    "மை ": 3565,
    "மை அ": 3566,
    "மை உடைய": 3567,
    "மைக்க": 3568,
    "மைக்கு ": 3569,
    "மைச்ச": 3570,
    "மைச்சர் ": 3571,
    "மைப்பு": 3572,
    "மைய": 3573,
    "மையாக": 3574,
    "மையாக ": 3575,
    "மையான": 3576,
    "மையில் ": 3577,
    "மையும் ": 3578,
    "மையை ": 3579,
    "மொ": 3580,
    "மொட்டை ": 3581,
    "மொட்டை ராஜேந்திர": 3582,
    "மொத்த": 3583,
    "மொத்தத்தில் ": 3584,
    "மொழி": 3585,
    "மொழி ": 3586,
    "மோ": 3587,
    "மோகன்": 3588,
    "மோகன் ": 3589,
    "மோச": 3590,
    "மோடி ": 3591,
    "ம்": 3592,
    "ம் ": 3593,
    "ம் : ": 3594,
    "ம் அ": 3595,
    "ம் ஆ": 3596,
    "ம் என": 3597,
    "ம் தே": 3598,
    "ம்!</w>": 3599,
    "ம்!<NEWLINE>": 3600,
    "ம்'": 3601,
    "ம், ": 3602,
    "ம், அ": 3603,
    "ம்.": 3604,
    "ம். ": 3605,
    "ம். அ": 3606,
    "ம். இ": 3607,
    "ம். ப": 3608,
    "ம்..": 3609,
    "ம்.. ": 3610,
    "ம்..!</w>": 3611,
    "ம்... ": 3612,
    "ம்.</w>": 3613,
    "ம்.<NEWLINE>": 3614,
    "ம்.<NEWLINE>பலவீனம் : ": 3615,
    "ம்:": 3616,
    "ம்: ": 3617,
    "ம்: ப": 3618,
    "ம்;": 3619,
    "ம்</w>": 3620,
    "ம்?</w>": 3621,
    "ம்ச": 3622,
    "ம்ப": 3623,
    "ம்பர": 3624,
    "ம்பி": 3625,
    "ம்பி ": 3626,
    "ம்பிய": 3627,
    "ம்பு": 3628,
    "ம்பு ": 3629,
    "ம்புல": 3630,
    "ம்பெ": 3631,
    "ம்பே": 3632,
    "ம்போ": 3633,
    "ம்ம": 3634,
    "ம்மா": 3635,
    "ம்மை ": 3636,
    "ம்ஸ் ": 3637,
    "ம்’": 3638,
    "ம்” -": 3639,
    "ய": 3640,
    "யண": 3641,
    "யதார்த்த": 3642,
    "யதார்த்தமாக ": 3643,
    "யதார்த்தமான": 3644,
    "யதார்த்தம் ": 3645,
    "யன": 3646,
    "யன் ": 3647,
    "யன்த": 3648,
    "யம் ": 3649,
    "யர் ": 3650,
    "யற்ச": 3651,
    "யல் ": 3652,
    "யா": 3653,
    "யா ": 3654,
    "யாத": 3655,
    "யான": 3656,
    "யான் ": 3657,
    "யார": 3658,
    "யாரு": 3659,
    "யாரும் ": 3660,
    "யார்": 3661,
    "யார் ": 3662,
    "யி": 3663,
    "யின": 3664,
    "யின்": 3665,
    "யின் ": 3666,
    "யிர": 3667,
    "யிரம் ": 3668,
    "யில": 3669,
    "யில்": 3670,
    "யில் ": 3671,
    "யு": 3672,
    "யுவன் ": 3673,
    "யூ": 3674,
    "யை ": 3675,
    "யோ": 3676,
    "யோகி": 3677,
    "யோகி ": 3678,
    "யோகி பாபு": 3679,
    "யோகி பாபு ": 3680,
    "யோசிக்க": 3681,
    "ய்": 3682,
    "ய் ": 3683,
    "ய் ப": 3684,
    "ய், ": 3685,
    "ய்ந்து ": 3686,
    "ய்ய": 3687,
    "ய்வ": 3688,
    "ய்வு ": 3689,
    "ர": 3690,
    "ரக": 3691,
    "ரகசிய": 3692,
    "ரகு": 3693,
    "ரங்க": 3694,
    "ரங்கு": 3695,
    "ரச": 3696,
    "ரசி": 3697,
    "ரசிக": 3698,
    "ரசிகனின் ": 3699,
    "ரசிகனை ": 3700,
    "ரசிகர்கள": 3701,
    "ரசிகர்களுக்கு ": 3702,
    "ரசிகர்களை ": 3703,
    "ரசிகர்கள் ": 3704,
    "ரசிக்க": 3705,
    "ரசிக்க வைக்கின்ற": 3706,
    "ரசிக்கும்ப": 3707,
    "ரசியல் ": 3708,
    "ரசு": 3709,
    "ரசு ": 3710,
    "ரசுத் தலை": 3711,
    "ரஜின": 3712,
    "ரஜினி ": 3713,
    "ரஜினியின் ": 3714,
    "ரஞ்ச": 3715,
    "ரண": 3716,
    "ரத்த": 3717,
    "ரத்து ": 3718,
    "ரத்து</w>": 3719,
    "ரன் ": 3720,
    "ரமே": 3721,
    "ரம்": 3722,
    "ரம் ": 3723,
    "ரம்ப": 3724,
    "ரயில": 3725,
    "ரயில் ": 3726,
    "ரல் ": 3727,
    "ரவி": 3728,
    "ரவி ": 3729,
    "ரவிந்த": 3730,
    "ரவிந்த் ": 3731,
    "ரவு": 3732,
    "ரஹ": 3733,
    "ரஹ்": 3734,
    "ரா": 3735,
    "ரா ": 3736,
    "ராக": 3737,
    "ராக ": 3738,
    "ராக வரும் ": 3739,
    "ராகு": 3740,
    "ராகுல் ": 3741,
    "ராங்க": 3742,
    "ராஜ": 3743,
    "ராஜன் ": 3744,
    "ராஜஸ்த": 3745,
    "ராஜா": 3746,
    "ராஜா ": 3747,
    "ராஜாவின் ": 3748,
    "ராஜினா": 3749,
    "ராஜின் ": 3750,
    "ராஜே": 3751,
    "ராஜேந்திர": 3752,
    "ராஜ்": 3753,
    "ராஜ் ": 3754,
    "ராஜ், ": 3755,
    "ராஜ்க": 3756,
    "ராண": 3757,
    "ராணுவ": 3758,
    "ராத": 3759,
    "ராதாகிருஷ்ண": 3760,
    "ரான": 3761,
    "ராம": 3762,
    "ராமகிருஷ்ண": 3763,
    "ராமைய": 3764,
    "ராம் ": 3765,
    "ராய": 3766,
    "ரால் ": 3767,
    "ரி": 3768,
    "ரி ": 3769,
    "ரிக்க": 3770,
    "ரிக்கை</w>": 3771,
    "ரிடம் ": 3772,
    "ரிதாக ": 3773,
    "ரினா": 3774,
    "ரின் ": 3775,
    "ரிய": 3776,
    "ரியல் ": 3777,
    "ரியா": 3778,
    "ரியா ": 3779,
    "ரியாத": 3780,
    "ரியில் ": 3781,
    "ரில": 3782,
    "ரில் ": 3783,
    "ரீ": 3784,
    "ரு": 3785,
    "ரு ": 3786,
    "ருக்க": 3787,
    "ருக்கு": 3788,
    "ருக்கு ": 3789,
    "ருக்கும் ": 3790,
    "ருடன் ": 3791,
    "ருந்து ": 3792,
    "ரும் ": 3793,
    "ரும் ப": 3794,
    "ரும் பல": 3795,
    "ருவ": 3796,
    "ரூ": 3797,
    "ரூ.": 3798,
    "ரெ": 3799,
    "ரெஜின": 3800,
    "ரே": 3801,
    "ரே ": 3802,
    "ரை": 3803,
    "ரை ": 3804,
    "ரைய": 3805,
    "ரையும் ": 3806,
    "ரொ": 3807,
    "ரொமா": 3808,
    "ரொம்ப": 3809,
    "ரோ": 3810,
    "ரோகி": 3811,
    "ரோபோ": 3812,
    "ரோல் ": 3813,
    "ர்": 3814,
    "ர் ": 3815,
    "ர் அ": 3816,
    "ர்!</w>": 3817,
    "ர், ": 3818,
    "ர்.": 3819,
    "ர். ": 3820,
    "ர்.<NEWLINE>": 3821,
    "ர்: ": 3822,
    "ர்</w>": 3823,
    "ர்க": 3824,
    "ர்கள": 3825,
    "ர்களின் ": 3826,
    "ர்களுக்கு ": 3827,
    "ர்களுடன் ": 3828,
    "ர்களை ": 3829,
    "ர்கள்": 3830,
    "ர்கள் ": 3831,
    "ர்கள் ப": 3832,
    "ர்கள்: ": 3833,
    "ர்கள்</w>": 3834,
    "ர்க்க": 3835,
    "ர்க்கு": 3836,
    "ர்க்கு ": 3837,
    "ர்ச": 3838,
    "ர்ச்ச": 3839,
    "ர்ச்சி ": 3840,
    "ர்ஜ": 3841,
    "ர்ஜு": 3842,
    "ர்ஜூ": 3843,
    "ர்ட": 3844,
    "ர்டெ": 3845,
    "ர்ட் ": 3846,
    "ர்த": 3847,
    "ர்த்த": 3848,
    "ர்ந்த": 3849,
    "ர்ந்து ": 3850,
    "ர்ப": 3851,
    "ர்பு": 3852,
    "ர்ப்ப": 3853,
    "ர்ம": 3854,
    "ர்வ": 3855,
    "ர்ஷ": 3856,
    "ர்ஸ் ": 3857,
    "ற": 3858,
    "றம் ": 3859,
    "றா": 3860,
    "றி": 3861,
    "றி ": 3862,
    "றிக்க": 3863,
    "றிந்த": 3864,
    "றிந்து ": 3865,
    "றிய": 3866,
    "றிவாள": 3867,
    "று": 3868,
    "று ": 3869,
    "றுத்த": 3870,
    "றும் ": 3871,
    "றை": 3872,
    "றை ": 3873,
    "றை</w>": 3874,
    "ற்க": 3875,
    "ற்கள": 3876,
    "ற்கு ": 3877,
    "ற்கை ": 3878,
    "ற்கொ": 3879,
    "ற்ச": 3880,
    "ற்ப": 3881,
    "ற்ற": 3882,
    "ற்றி": 3883,
    "ற்றி ": 3884,
    "ற்றிய": 3885,
    "ற்று": 3886,
    "ற்று ": 3887,
    "ல": 3888,
    "ல ": 3889,
    "லக": 3890,
    "லக்": 3891,
    "லங்க": 3892,
    "லட்ச": 3893,
    "லட்சுமி ": 3894,
    "லண்ட": 3895,
    "லம் ": 3896,
    "லர் ": 3897,
    "லலி": 3898,
    "லவ் ": 3899,
    "லா": 3900,
    "லா ": 3901,
    "லாக": 3902,
    "லாக ": 3903,
    "லாகும் ": 3904,
    "லாக் ": 3905,
    "லாஜிக் ": 3906,
    "லாஜிக் மீற": 3907,
    "லான": 3908,
    "லாம": 3909,
    "லாம்": 3910,
    "லாம் ": 3911,
    "லாம், ": 3912,
    "லாம். ": 3913,
    "லாம்.</w>": 3914,
    "லாம்.<NEWLINE>": 3915,
    "லார": 3916,
    "லால": 3917,
    "லால் ": 3918,
    "லி": 3919,
    "லி ": 3920,
    "லி</w>": 3921,
    "லிகா": 3922,
    "லின் ": 3923,
    "லிய": 3924,
    "லிருந்து ": 3925,
    "லில் ": 3926,
    "லீ": 3927,
    "லு": 3928,
    "லு ": 3929,
    "லுக்கு ": 3930,
    "லும் ": 3931,
    "லுவலக": 3932,
    "லெ": 3933,
    "லே": 3934,
    "லே ": 3935,
    "லை": 3936,
    "லை ": 3937,
    "லை</w>": 3938,
    "லைக்க": 3939,
    "லைக்கு ": 3940,
    "லைஞ": 3941,
    "லைட் ": 3942,
    "லைன் ": 3943,
    "லைய": 3944,
    "லையில் ": 3945,
    "லையும் ": 3946,
    "லையை ": 3947,
    "லோ": 3948,
    "லோச": 3949,
    "ல்": 3950,
    "ல் ": 3951,
    "ல் அ": 3952,
    "ல் செய்ய": 3953,
    "ல்!</w>": 3954,
    "ல், ": 3955,
    "ல், அ": 3956,
    "ல்.": 3957,
    "ல். ": 3958,
    "ல்.<NEWLINE>": 3959,
    "ல்: ": 3960,
    "ல்</w>": 3961,
    "ல்க": 3962,
    "ல்கள": 3963,
    "ல்களை ": 3964,
    "ல்கள் ": 3965,
    "ல்ட": 3966,
    "ல்த": 3967,
    "ல்ப": 3968,
    "ல்ல": 3969,
    "ல்ல ": 3970,
    "ல்லது ": 3971,
    "ல்லர் ": 3972,
    "ல்லா": 3973,
    "ல்லா ": 3974,
    "ல்லாக ": 3975,
    "ல்லாத": 3976,
    "ல்லாமல் ": 3977,
    "ல்லாம் ": 3978,
    "ல்லூ": 3979,
    "ல்லூரி ": 3980,
    "ல்லை": 3981,
    "ல்லை ": 3982,
    "ல்வ": 3983,
    "ல்வி": 3984,
    "ல்ஹாச": 3985,
    "ள": 3986,
    "ளம் ": 3987,
    "ளர் ": 3988,
    "ளவிற்கு ": 3989,
    "ளவு ": 3990,
    "ளா": 3991,
    "ளாஷ்பே": 3992,
    "ளி": 3993,
    "ளி ": 3994,
    "ளிக்க": 3995,
    "ளித்த": 3996,
    "ளிப்ப": 3997,
    "ளிப்பதி": 3998,
    "ளிய": 3999,
    "ளிர": 4000,
    "ளில் ": 4001,
    "ளு": 4002,
    "ளை": 4003,
    "ளை ": 4004,
    "ளைக்கு ": 4005,
    "ளைஞ": 4006,
    "ளைமாக்": 4007,
    "ளைய": 4008,
    "ள்": 4009,
    "ள் ": 4010,
    "ள் ப": 4011,
    "ள்</w>": 4012,
    "ள்க": 4013,
    "ள்ள": 4014,
    "ள்ளி ": 4015,
    "ள்ளு": 4016,
    "ள்ளை ": 4017,
    "ள்வி": 4018,
    "ழ": 4019,
    "ழக": 4020,
    "ழகாக ": 4021,
    "ழகி ": 4022,
    "ழகிய": 4023,
    "ழந்த": 4024,
    "ழி": 4025,
    "ழி ": 4026,
    "ழிக்க": 4027,
    "ழிய": 4028,
    "ழில": 4029,
    "ழில்": 4030,
    "ழில்நுட்ப": 4031,
    "ழு": 4032,
    "ழு ": 4033,
    "ழுக்க": 4034,
    "ழுத்த": 4035,
    "ழை": 4036,
    "ழை ": 4037,
    "ழைய": 4038,
    "ழ்க": 4039,
    "வ": 4040,
    "வகு": 4041,
    "வகையில் ": 4042,
    "வங்க": 4043,
    "வங்கி ": 4044,
    "வச": 4045,
    "வசன": 4046,
    "வசனங்கள": 4047,
    "வசனங்கள் ": 4048,
    "வசனம் ": 4049,
    "வசீ": 4050,
    "வசூ": 4051,
    "வஞ்ச": 4052,
    "வட": 4053,
    "வடி": 4054,
    "வடிக்க": 4055,
    "வட்ட": 4056,
    "வண": 4057,
    "வண்ண": 4058,
    "வத": 4059,
    "வதற்க": 4060,
    "வதற்கு ": 4061,
    "வதாக ": 4062,
    "வதால் ": 4063,
    "வதி": 4064,
    "வதி ": 4065,
    "வதில் ": 4066,
    "வது": 4067,
    "வது ": 4068,
    "வது, ": 4069,
    "வதும் ": 4070,
    "வதே ": 4071,
    "வதை ": 4072,
    "வந்த": 4073,
    "வந்த ": 4074,
    "வந்தாலும் ": 4075,
    "வந்திருக்கும் ": 4076,
    "வந்திருக்கும் \"": 4077,
    "வந்திருக்கும் ப": 4078,
    "வந்திருக்கும் பட": 4079,
    "வந்து": 4080,
    "வந்து ": 4081,
    "வந்துள்ள": 4082,
    "வன": 4083,
    "வனாக ": 4084,
    "வனின் ": 4085,
    "வனுக்கு ": 4086,
    "வனுடைய": 4087,
    "வனை": 4088,
    "வனை ": 4089,
    "வன்": 4090,
    "வன் ": 4091,
    "வன், ": 4092,
    "வன்கொ": 4093,
    "வன்கொடு": 4094,
    "வம் ": 4095,
    "வய": 4096,
    "வயது ": 4097,
    "வர": 4098,
    "வரது ": 4099,
    "வரலா": 4100,
    "வரவே": 4101,
    "வரவேற்ப": 4102,
    "வரா": 4103,
    "வராக ": 4104,
    "வராத": 4105,
    "வரி": 4106,
    "வரி ": 4107,
    "வரிடம் ": 4108,
    "வரின் ": 4109,
    "வரு": 4110,
    "வருகின்ற": 4111,
    "வருகிற": 4112,
    "வருகிறது. ": 4113,
    "வருகிறது.<NEWLINE>": 4114,
    "வருகிறார்": 4115,
    "வருகிறார் ": 4116,
    "வருகிறார். ": 4117,
    "வருகிறார்.<NEWLINE>": 4118,
    "வருக்க": 4119,
    "வருக்கு ": 4120,
    "வருக்கும் ": 4121,
    "வருடன் ": 4122,
    "வருடைய": 4123,
    "வருத்த": 4124,
    "வருமே ": 4125,
    "வரும்": 4126,
    "வரும் ": 4127,
    "வரும் அ": 4128,
    "வரும் இ": 4129,
    "வரும் ப": 4130,
    "வருவது ": 4131,
    "வரே": 4132,
    "வரே ": 4133,
    "வரை": 4134,
    "வரை ": 4135,
    "வரை அ": 4136,
    "வரையும் ": 4137,
    "வர்": 4138,
    "வர் ": 4139,
    "வர் அ": 4140,
    "வர் ப": 4141,
    "வர், ": 4142,
    "வர். ": 4143,
    "வர்.</w>": 4144,
    "வர்</w>": 4145,
    "வர்கள": 4146,
    "வர்களது ": 4147,
    "வர்களிடம் ": 4148,
    "வர்களின் ": 4149,
    "வர்களுக்கு ": 4150,
    "வர்களை ": 4151,
    "வர்கள்": 4152,
    "வர்கள் ": 4153,
    "வர்கள், ": 4154,
    "வர்க்க": 4155,
    "வர்க்கு": 4156,
    "வர்க்கு ": 4157,
    "வற": 4158,
    "வறு": 4159,
    "வற்ற": 4160,
    "வற்றை ": 4161,
    "வல": 4162,
    "வலி": 4163,
    "வலிய": 4164,
    "வலியுறுத்தல்</w>": 4165,
    "வலு": 4166,
    "வலு ": 4167,
    "வல் ": 4168,
    "வல்ல": 4169,
    "வள": 4170,
    "வளி ": 4171,
    "வள் ": 4172,
    "வழ": 4173,
    "வழக்க": 4174,
    "வழக்கமான": 4175,
    "வழக்கம் ": 4176,
    "வழக்கில் ": 4177,
    "வழக்கு": 4178,
    "வழக்கு ": 4179,
    "வழக்கு: ": 4180,
    "வழங்க": 4181,
    "வழங்கிய": 4182,
    "வழி": 4183,
    "வழி ": 4184,
    "வழிய": 4185,
    "வழியில் ": 4186,
    "வா": 4187,
    "வா ": 4188,
    "வாக": 4189,
    "வாக ": 4190,
    "வாக வரும் ": 4191,
    "வாக்கு": 4192,
    "வாங்க": 4193,
    "வாங்கி ": 4194,
    "வாங்கிய": 4195,
    "வாங்கு": 4196,
    "வாச": 4197,
    "வாட்": 4198,
    "வாத": 4199,
    "வாதி": 4200,
    "வாதி ": 4201,
    "வான": 4202,
    "வானிலை ": 4203,
    "வான்": 4204,
    "வான் ": 4205,
    "வாய": 4206,
    "வாயில": 4207,
    "வாய்": 4208,
    "வாய் ": 4209,
    "வாய்ப்ப": 4210,
    "வாய்ப்பு": 4211,
    "வாய்ப்பு ": 4212,
    "வாய்ப்பு</w>": 4213,
    "வார": 4214,
    "வாரண": 4215,
    "வாரி": 4216,
    "வார் ": 4217,
    "வார்கள்": 4218,
    "வார்கள் ": 4219,
    "வார்த்த": 4220,
    "வாறு ": 4221,
    "வால் ": 4222,
    "வாள": 4223,
    "வாளர் ": 4224,
    "வாழ": 4225,
    "வாழும் ": 4226,
    "வாழ்": 4227,
    "வாழ்க": 4228,
    "வாழ்கின்ற": 4229,
    "வாழ்க்க": 4230,
    "வாழ்க்கை ": 4231,
    "வாழ்க்கையில் ": 4232,
    "வாழ்க்கையை ": 4233,
    "வாழ்த்த": 4234,
    "வாழ்த்து</w>": 4235,
    "வாழ்ந்த": 4236,
    "வாழ்ந்து ": 4237,
    "வாழ்ப": 4238,
    "வாழ்வ": 4239,
    "வாவ்": 4240,
    "வாவ்!<NEWLINE>": 4241,
    "வி": 4242,
    "வி ": 4243,
    "வி.": 4244,
    "விக்": 4245,
    "விக்க": 4246,
    "விக்ர": 4247,
    "விக்ரம் ": 4248,
    "விசய": 4249,
    "விசார": 4250,
    "விசாரண": 4251,
    "விசாரணை ": 4252,
    "விசாரணை</w>": 4253,
    "விசாரிக்க": 4254,
    "விஜ": 4255,
    "விஜய": 4256,
    "விஜயபாஸ்க": 4257,
    "விஜய்": 4258,
    "விஜய் ": 4259,
    "விஜய் ஆண்ட": 4260,
    "விஜய் ஆண்டனி ": 4261,
    "விஜய் சேது": 4262,
    "விஜய் சேதுபதி": 4263,
    "விஜய் சேதுபதி ": 4264,
    "விஜய் சேதுபதிய": 4265,
    "விஜய்ய": 4266,
    "விட": 4267,
    "விடம் ": 4268,
    "விடாமல் ": 4269,
    "விடு": 4270,
    "விடுகிற": 4271,
    "விடும் ": 4272,
    "விடும். ": 4273,
    "விட்ட": 4274,
    "விட்டால் ": 4275,
    "விட்டு": 4276,
    "விட்டு ": 4277,
    "விண்ண": 4278,
    "வித": 4279,
    "விதம் ": 4280,
    "விதி": 4281,
    "வித்த": 4282,
    "வித்தியாச": 4283,
    "வித்தியாசமான": 4284,
    "விந்த": 4285,
    "வின": 4286,
    "வினோ": 4287,
    "வின் ": 4288,
    "விப": 4289,
    "விபத்தில் ": 4290,
    "விபத்து: ": 4291,
    "விப்பு</w>": 4292,
    "விமர்ச": 4293,
    "விமான": 4294,
    "விய": 4295,
    "வியா": 4296,
    "வியின் ": 4297,
    "வியை ": 4298,
    "விர": 4299,
    "விரா": 4300,
    "விராட் ": 4301,
    "விராத் ": 4302,
    "விரி": 4303,
    "விரி ": 4304,
    "விரு": 4305,
    "விருந்த": 4306,
    "விருப்ப": 4307,
    "விரும்ப": 4308,
    "விரும்பு": 4309,
    "விரும்பும் ": 4310,
    "விரை": 4311,
    "விரைவில் ": 4312,
    "விறு": 4313,
    "விறுவிறு": 4314,
    "விறுவிறுப்ப": 4315,
    "விற்க": 4316,
    "விற்கு ": 4317,
    "விற்ப": 4318,
    "வில": 4319,
    "விலக": 4320,
    "விலும் ": 4321,
    "விலை ": 4322,
    "வில் ": 4323,
    "வில்ல": 4324,
    "வில்லனாக ": 4325,
    "வில்லன் ": 4326,
    "வில்லாத": 4327,
    "வில்லை": 4328,
    "வில்லை ": 4329,
    "வில்லை, ": 4330,
    "வில்லை. ": 4331,
    "வில்லை.<NEWLINE>": 4332,
    "விள": 4333,
    "விளக்கம்</w>": 4334,
    "விளை": 4335,
    "விளையா": 4336,
    "விழ": 4337,
    "விழா": 4338,
    "விழு": 4339,
    "விழுந்த": 4340,
    "விழுந்து ": 4341,
    "விவ": 4342,
    "விவகார": 4343,
    "விவகாரத்தில் ": 4344,
    "விவகாரம்: ": 4345,
    "விவசாய": 4346,
    "விவர": 4347,
    "விவே": 4348,
    "விவேக் ": 4349,
    "விஷ": 4350,
    "விஷய": 4351,
    "விஷால": 4352,
    "விஷால் ": 4353,
    "விஷ்ண": 4354,
    "விஷ்ணு ": 4355,
    "விஸ்": 4356,
    "வீ": 4357,
    "வீடியோ": 4358,
    "வீடியோ</w>": 4359,
    "வீடு ": 4360,
    "வீட்ட": 4361,
    "வீட்டிற்கு ": 4362,
    "வீட்டில் ": 4363,
    "வீட்டு ": 4364,
    "வீன": 4365,
    "வீனம்.<NEWLINE>": 4366,
    "வீர": 4367,
    "வீரர் ": 4368,
    "வீழ": 4369,
    "வீழ்த்த": 4370,
    "வு": 4371,
    "வு ": 4372,
    "வு செய்ய": 4373,
    "வு!</w>": 4374,
    "வு, ": 4375,
    "வு. ": 4376,
    "வு: ": 4377,
    "வு</w>": 4378,
    "வுகளை ": 4379,
    "வுகள் ": 4380,
    "வுக்க": 4381,
    "வுக்கு": 4382,
    "வுக்கு ": 4383,
    "வுடன் ": 4384,
    "வுடைய": 4385,
    "வுட் ": 4386,
    "வும் ": 4387,
    "வும் அ": 4388,
    "வும் ப": 4389,
    "வும், ": 4390,
    "வெ": 4391,
    "வெங்க": 4392,
    "வெங்கடே": 4393,
    "வெடி": 4394,
    "வெட்க": 4395,
    "வென்ற": 4396,
    "வெறு": 4397,
    "வெற்ற": 4398,
    "வெற்றி": 4399,
    "வெற்றி ": 4400,
    "வெற்றிய": 4401,
    "வெற்றியை ": 4402,
    "வெல்ல": 4403,
    "வெளி": 4404,
    "வெளி ": 4405,
    "வெளிப்ப": 4406,
    "வெளிய": 4407,
    "வெளியே": 4408,
    "வெளியே ": 4409,
    "வெளிவந்துள்ள": 4410,
    "வெள்ள": 4411,
    "வே": 4412,
    "வே ": 4413,
    "வேக": 4414,
    "வேண்ட": 4415,
    "வேண்டா": 4416,
    "வேண்டிய": 4417,
    "வேண்டு": 4418,
    "வேண்டுகோள்</w>": 4419,
    "வேண்டும் ": 4420,
    "வேண்டும் என்று ": 4421,
    "வேதா": 4422,
    "வேந்த": 4423,
    "வேன் ": 4424,
    "வேற": 4425,
    "வேறு": 4426,
    "வேறு ": 4427,
    "வேல": 4428,
    "வேலை": 4429,
    "வேலை ": 4430,
    "வேலைக்கு ": 4431,
    "வேல் ": 4432,
    "வை": 4433,
    "வை ": 4434,
    "வை அ": 4435,
    "வைக்க": 4436,
    "வைக்கும் ": 4437,
    "வைத்த": 4438,
    "வைத்து": 4439,
    "வைத்து ": 4440,
    "வைப்பு</w>": 4441,
    "வைய": 4442,
    "வையில் ": 4443,
    "வையும் ": 4444,
    "வைர": 4445,
    "வோ": 4446,
    "வோடு ": 4447,
    "வ்": 4448,
    "வ் ": 4449,
    "வ்வ": 4450,
    "வ்வள": 4451,
    "வ்வளவு ": 4452,
    "வ்வாறு ": 4453,
    "ஷ": 4454,
    "ஷங்க": 4455,
    "ஷங்கர் ": 4456,
    "ஷன் ": 4457,
    "ஷம் ": 4458,
    "ஷா": 4459,
    "ஷா ": 4460,
    "ஷி": 4461,
    "ஷிகா": 4462,
    "ஷின் ": 4463,
    "ஷெ": 4464,
    "ஷே": 4465,
    "ஷோ": 4466,
    "ஷ்": 4467,
    "ஷ் ": 4468,
    "ஷ், ": 4469,
    "ஷ்க": 4470,
    "ஷ்கா": 4471,
    "ஷ்ட": 4472,
    "ஷ்டி ": 4473,
    "ஷ்ண": 4474,
    "ஷ்ப": 4475,
    "ஷ்பே": 4476,
    "ஷ்மி ": 4477,
    "ஷ்ய": 4478,
    "ஸ": 4479,
    "ஸாக ": 4480,
    "ஸி": 4481,
    "ஸி ": 4482,
    "ஸின் ": 4483,
    "ஸில் ": 4484,
    "ஸை ": 4485,
    "ஸ்": 4486,
    "ஸ் ": 4487,
    "ஸ் அ": 4488,
    "ஸ் ஆ": 4489,
    "ஸ் ப": 4490,
    "ஸ் பே": 4491,
    "ஸ்!</w>": 4492,
    "ஸ், ": 4493,
    "ஸ்.": 4494,
    "ஸ்.<NEWLINE>": 4495,
    "ஸ்</w>": 4496,
    "ஸ்க": 4497,
    "ஸ்கூ": 4498,
    "ஸ்கெ": 4499,
    "ஸ்கெட்ச": 4500,
    "ஸ்கோர் ": 4501,
    "ஸ்ட": 4502,
    "ஸ்டர் ": 4503,
    "ஸ்டார் ": 4504,
    "ஸ்டால": 4505,
    "ஸ்டாலி": 4506,
    "ஸ்டாலின் ": 4507,
    "ஸ்டாலின்</w>": 4508,
    "ஸ்டு": 4509,
    "ஸ்டெ": 4510,
    "ஸ்டெர்": 4511,
    "ஸ்டெர்லைட் ": 4512,
    "ஸ்டை": 4513,
    "ஸ்டைலில் ": 4514,
    "ஸ்டோ": 4515,
    "ஸ்ட்": 4516,
    "ஸ்ட் ": 4517,
    "ஸ்த": 4518,
    "ஸ்திர": 4519,
    "ஸ்திரே": 4520,
    "ஸ்ப": 4521,
    "ஸ்பு": 4522,
    "ஸ்பெ": 4523,
    "ஸ்பெஷ": 4524,
    "ஸ்ய": 4525,
    "ஸ்ர": 4526,
    "ஸ்ரீ": 4527,
    "ஸ்ரு": 4528,
    "ஸ்வர": 4529,
    "ஸ்வி": 4530,
    "ஸ்வின் ": 4531,
    "ஹ": 4532,
    "ஹரி": 4533,
    "ஹா": 4534,
    "ஹாச": 4535,
    "ஹார": 4536,
    "ஹாலி": 4537,
    "ஹாலிவு": 4538,
    "ஹி": 4539,
    "ஹிட் ": 4540,
    "ஹீரோ": 4541,
    "ஹீரோ ": 4542,
    "ஹீரோயின": 4543,
    "ஹீரோயின் ": 4544,
    "ஹீரோவாக ": 4545,
    "ஹெ": 4546,
    "ஹெச்.": 4547,
    "ஹே": 4548,
    "ஹை": 4549,
    "ஹோ": 4550,
    "ா": 4551,
    "ா ": 4552,
    "ா , ": 4553,
    "ா அ": 4554,
    "ா, ": 4555,
    "ாக": 4556,
    "ாக ": 4557,
    "ாக அ": 4558,
    "ாக ப": 4559,
    "ாக பே": 4560,
    "ாக போரா": 4561,
    "ாக வரும் ": 4562,
    "ாக, ": 4563,
    "ாகவும் ": 4564,
    "ாகவும், ": 4565,
    "ாகவே": 4566,
    "ாகவே ": 4567,
    "ாகி ": 4568,
    "ாகிய": 4569,
    "ாகு": 4570,
    "ாகும் ": 4571,
    "ாக்": 4572,
    "ாக் ": 4573,
    "ாட": 4574,
    "ாடி ": 4575,
    "ாடு": 4576,
    "ாட்ச": 4577,
    "ாத": 4578,
    "ாத ": 4579,
    "ாதி ": 4580,
    "ாது": 4581,
    "ாது ": 4582,
    "ாதே": 4583,
    "ான": 4584,
    "ான ": 4585,
    "ான அ": 4586,
    "ானது ": 4587,
    "ானா ": 4588,
    "ான்": 4589,
    "ான் ": 4590,
    "ாம": 4591,
    "ாமல": 4592,
    "ாமல் ": 4593,
    "ாமல் அ": 4594,
    "ாமல், ": 4595,
    "ாமி ": 4596,
    "ாமை ": 4597,
    "ாம் ": 4598,
    "ாய": 4599,
    "ாய் ": 4600,
    "ார": 4601,
    "ாரண": 4602,
    "ாரா": 4603,
    "ாரா ": 4604,
    "ாரா?": 4605,
    "ாரா? ": 4606,
    "ாராட்டு": 4607,
    "ாராயண": 4608,
    "ாரின் ": 4609,
    "ாரு": 4610,
    "ார்": 4611,
    "ார் ": 4612,
    "ார் ப": 4613,
    "ார்!</w>": 4614,
    "ார், ": 4615,
    "ார், அ": 4616,
    "ார். ": 4617,
    "ார். அ": 4618,
    "ார். இ": 4619,
    "ார். ப": 4620,
    "ார்.</w>": 4621,
    "ார்.<NEWLINE>": 4622,
    "ார்: ": 4623,
    "ார்</w>": 4624,
    "ார்கள": 4625,
    "ார்களா": 4626,
    "ார்களா ": 4627,
    "ார்கள்": 4628,
    "ார்கள் ": 4629,
    "ார்கள். ": 4630,
    "ார்கள்.<NEWLINE>": 4631,
    "ார்க்க": 4632,
    "ார்க்கு ": 4633,
    "ார்த் ": 4634,
    "ார்த்த": 4635,
    "ார்த்து ": 4636,
    "ார்ப": 4637,
    "ார்ப்ப": 4638,
    "ால": 4639,
    "ாலா": 4640,
    "ாலி": 4641,
    "ாலும் ": 4642,
    "ாலும் அ": 4643,
    "ாலும், ": 4644,
    "ாலும், அ": 4645,
    "ாலே ": 4646,
    "ாலை ": 4647,
    "ால்": 4648,
    "ால் ": 4649,
    "ால் அ": 4650,
    "ால், ": 4651,
    "ால், அ": 4652,
    "ாள": 4653,
    "ாளம் ": 4654,
    "ாளர் ": 4655,
    "ாளர்கள் ": 4656,
    "ாளி ": 4657,
    "ாளு": 4658,
    "ாளுமன்ற": 4659,
    "ாள்": 4660,
    "ாள் ": 4661,
    "ாவது ": 4662,
    "ாவின் ": 4663,
    "ாவில் ": 4664,
    "ி": 4665,
    "ி ": 4666,
    "ி அ": 4667,
    "ி சுரே": 4668,
    "ி!</w>": 4669,
    "ி, ": 4670,
    "ி: ": 4671,
    "ி</w>": 4672,
    "ிகள": 4673,
    "ிகளின் ": 4674,
    "ிகளில் ": 4675,
    "ிகளுக்கு ": 4676,
    "ிகளை ": 4677,
    "ிகள் ": 4678,
    "ிகா": 4679,
    "ிகாந்த": 4680,
    "ிக் ": 4681,
    "ிக்க": 4682,
    "ிக்கின்ற": 4683,
    "ிக்கு ": 4684,
    "ிக்கும் ": 4685,
    "ிக்கை ": 4686,
    "ிக்கொ": 4687,
    "ிசை ": 4688,
    "ிட": 4689,
    "ிடம் ": 4690,
    "ிடும் ": 4691,
    "ிடையில் ": 4692,
    "ிட்ட": 4693,
    "ிட்டு ": 4694,
    "ித் ": 4695,
    "ித்த": 4696,
    "ித்து ": 4697,
    "ின": 4698,
    "ினா": 4699,
    "ினார் ": 4700,
    "ினாலும் ": 4701,
    "ினால் ": 4702,
    "ினி ": 4703,
    "ினும் ": 4704,
    "ினை": 4705,
    "ினை ": 4706,
    "ினைக்க": 4707,
    "ின் ": 4708,
    "ின் அ": 4709,
    "ின்ன": 4710,
    "ின்னணி இச": 4711,
    "ின்ப": 4712,
    "ின்ற": 4713,
    "ின்றது.<NEWLINE>": 4714,
    "ின்றார்.<NEWLINE>": 4715,
    "ிப": 4716,
    "ிப்ப": 4717,
    "ிப்படுத்த": 4718,
    "ிப்பு": 4719,
    "ிப்பு ": 4720,
    "ிப்பு</w>": 4721,
    "ிப்போ": 4722,
    "ிய": 4723,
    "ிய ": 4724,
    "ியது ": 4725,
    "ியம் ": 4726,
    "ியர் ": 4727,
    "ியல்": 4728,
    "ியல் ": 4729,
    "ியா": 4730,
    "ியா ": 4731,
    "ியாக": 4732,
    "ியாக ": 4733,
    "ியாச": 4734,
    "ியான": 4735,
    "ியாள": 4736,
    "ியாளர் ": 4737,
    "ியாவில் ": 4738,
    "ியிடம் ": 4739,
    "ியின் ": 4740,
    "ியில் ": 4741,
    "ியுடன் ": 4742,
    "ியும் ": 4743,
    "ியூ": 4744,
    "ியை ": 4745,
    "ிர": 4746,
    "ிரா": 4747,
    "ிரி": 4748,
    "ிரு": 4749,
    "ிருக்க": 4750,
    "ிருக்கலாம்.<NEWLINE>": 4751,
    "ிருக்கின்ற": 4752,
    "ிருக்கின்றனர்.<NEWLINE>": 4753,
    "ிருக்கிற": 4754,
    "ிருக்கிறது ": 4755,
    "ிருக்கிறது. ": 4756,
    "ிருக்கிறது.<NEWLINE>": 4757,
    "ிருக்கிறார்": 4758,
    "ிருக்கிறார் ": 4759,
    "ிருக்கிறார் இயக்குனர் ": 4760,
    "ிருக்கிறார். ": 4761,
    "ிருக்கிறார். அ": 4762,
    "ிருக்கிறார். ப": 4763,
    "ிருக்கிறார்.<NEWLINE>": 4764,
    "ிருக்கும் ": 4765,
    "ிருக்கும் ப": 4766,
    "ிருந்த": 4767,
    "ிருந்தால் ": 4768,
    "ிருந்து ": 4769,
    "ிருப்ப": 4770,
    "ிருப்பது ": 4771,
    "ிருஷ்ண": 4772,
    "ிர் ": 4773,
    "ிற": 4774,
    "ிறது": 4775,
    "ிறது ": 4776,
    "ிறது. ": 4777,
    "ிறது. அ": 4778,
    "ிறது.<NEWLINE>": 4779,
    "ிறார்": 4780,
    "ிறார் ": 4781,
    "ிறார். ": 4782,
    "ிறார். அ": 4783,
    "ிறார். இ": 4784,
    "ிறார்.<NEWLINE>": 4785,
    "ிறார்.<NEWLINE>அ": 4786,
    "ிறார்கள்": 4787,
    "ிறு": 4788,
    "ிற்க": 4789,
    "ிற்காக ": 4790,
    "ிற்கு": 4791,
    "ிற்கு ": 4792,
    "ிற்ச": 4793,
    "ிற்ற": 4794,
    "ில": 4795,
    "ிலி": 4796,
    "ிலிருந்து ": 4797,
    "ிலும் ": 4798,
    "ிலும் அ": 4799,
    "ிலேயே ": 4800,
    "ிலை ": 4801,
    "ிலோ": 4802,
    "ில்": 4803,
    "ில் ": 4804,
    "ில், ": 4805,
    "ில்லாத": 4806,
    "ில்லை": 4807,
    "ிழ": 4808,
    "ிவிட்ட": 4809,
    "ிஸ்த": 4810,
    "ீ": 4811,
    "ீங்க": 4812,
    "ீடு": 4813,
    "ீடு ": 4814,
    "ீடு</w>": 4815,
    "ீன் ": 4816,
    "ீப் ": 4817,
    "ீர": 4818,
    "ீரோ": 4819,
    "ீர் ": 4820,
    "ீர்கள்": 4821,
    "ீர்த்த": 4822,
    "ீஸ் ": 4823,
    "ு": 4824,
    "ு ": 4825,
    "ு, ": 4826,
    "ு. ": 4827,
    "ு: ": 4828,
    "ு</w>": 4829,
    "ுக்க": 4830,
    "ுக்காக ": 4831,
    "ுக்கான": 4832,
    "ுக்கு": 4833,
    "ுக்கு ": 4834,
    "ுக்கும் ": 4835,
    "ுக்குள் ": 4836,
    "ுக்கே ": 4837,
    "ுட": 4838,
    "ுடன் ": 4839,
    "ுடைய": 4840,
    "ுபல": 4841,
    "ும": 4842,
    "ுமா": 4843,
    "ுமி": 4844,
    "ுமி ": 4845,
    "ுமே ": 4846,
    "ும்": 4847,
    "ும் ": 4848,
    "ும் , ": 4849,
    "ும் அ": 4850,
    "ும் அந்த": 4851,
    "ும் அறி": 4852,
    "ும் அளவிற்கு ": 4853,
    "ும் அவரது ": 4854,
    "ும் இ": 4855,
    "ும் இடத்தில் ": 4856,
    "ும் இந்த": 4857,
    "ும் இப்ப": 4858,
    "ும் இய": 4859,
    "ும் இயக்குன": 4860,
    "ும் இயக்குனர் ": 4861,
    "ும் இயல்ப": 4862,
    "ும் இர": 4863,
    "ும் இருக்க": 4864,
    "ும் இல்ல": 4865,
    "ும் இல்லை": 4866,
    "ும் இளைஞ": 4867,
    "ும் ஒரு ": 4868,
    "ும் ப": 4869,
    "ும் படத்திற்கு ": 4870,
    "ும் படி ": 4871,
    "ும் பண்ப": 4872,
    "ும் பய": 4873,
    "ும் பல": 4874,
    "ும் பலம் ": 4875,
    "ும் பி": 4876,
    "ும் பின்னணி இச": 4877,
    "ும் பிர": 4878,
    "ும் பிற": 4879,
    "ும் பு": 4880,
    "ும் பெ": 4881,
    "ும் பெரிய": 4882,
    "ும் பெரு": 4883,
    "ும் பெரும் பல": 4884,
    "ும் பே": 4885,
    "ும் பொ": 4886,
    "ும் பொரு": 4887,
    "ும், ": 4888,
    "ும், அ": 4889,
    "ும். ": 4890,
    "ும். அ": 4891,
    "ும்.</w>": 4892,
    "ும்.<NEWLINE>": 4893,
    "ும்: ": 4894,
    "ும்ப": 4895,
    "ும்படி ": 4896,
    "ும்போது ": 4897,
    "ுற": 4898,
    "ுறுத்த": 4899,
    "ுறுத்தல்</w>": 4900,
    "ுள் ": 4901,
    "ுள்ள": 4902,
    "ுள்ளது. ": 4903,
    "ுள்ளார் ": 4904,
    "ுள்ளார். ": 4905,
    "ுள்ளார்.<NEWLINE>": 4906,
    "ுவ": 4907,
    "ூ": 4908,
    "ூட": 4909,
    "ூபி": 4910,
    "ூரில் ": 4911,
    "ூர் ": 4912,
    "ெ": 4913,
    "ெட் ": 4914,
    "ென": 4915,
    "ென்ற": 4916,
    "ென்று ": 4917,
    "ெல்லாம் ": 4918,
    "ொ": 4919,
    "ே": 4920,
    "ே ": 4921,
    "ே அ": 4922,
    "ே க": 4923,
    "ே போ": 4924,
    "ே!": 4925,
    "ேக": 4926,
    "ேச": 4927,
    "ேஜ": 4928,
    "ேட்ட": 4929,
    "ேன்": 4930,
    "ேன் ": 4931,
    "ேன்: ": 4932,
    "ேன்” -": 4933,
    "ேய": 4934,
    "ேயே": 4935,
    "ேயே ": 4936,
    "ேர": 4937,
    "ேர்த": 4938,
    "ேற்ப": 4939,
    "ேற்ற": 4940,
    "ேஷ": 4941,
    "ேஷ் ": 4942,
    "ை": 4943,
    "ை ": 4944,
    "ை அ": 4945,
    "ை அதிகார": 4946,
    "ை அனு": 4947,
    "ை அறி": 4948,
    "ை!</w>": 4949,
    "ை, ": 4950,
    "ை: ": 4951,
    "ை</w>": 4952,
    "ைகள": 4953,
    "ைகளை ": 4954,
    "ைகள் ": 4955,
    "ைக் ": 4956,
    "ைக் க": 4957,
    "ைக் கா": 4958,
    "ைக் காட்டிலும் ": 4959,
    "ைக் கொ": 4960,
    "ைக்க": 4961,
    "ைக்காக ": 4962,
    "ைக்கார": 4963,
    "ைக்கு": 4964,
    "ைக்கு ": 4965,
    "ைக்கும் ": 4966,
    "ைச் ": 4967,
    "ைச் செய்ய": 4968,
    "ைத் ": 4969,
    "ைத் த": 4970,
    "ைப் ப": 4971,
    "ைப் பெ": 4972,
    "ைப் போ": 4973,
    "ைய": 4974,
    "ையா": 4975,
    "ையா ": 4976,
    "ையாக ": 4977,
    "ையான": 4978,
    "ையால் ": 4979,
    "ையாள": 4980,
    "ையி": 4981,
    "ையின் ": 4982,
    "ையில": 4983,
    "ையில் ": 4984,
    "ையில், ": 4985,
    "ையுடன் ": 4986,
    "ையும் ": 4987,
    "ையும் , ": 4988,
    "ையும் அ": 4989,
    "ையும் இ": 4990,
    "ையும் ப": 4991,
    "ையும், ": 4992,
    "ையே": 4993,
    "ையே ": 4994,
    "ையை ": 4995,
    "ைவிட": 4996,
    "ொ": 4997,
    "ொகு": 4998,
    "ொண்ட": 4999,
    "ொன்ற": 5000,
    "ொரு": 5001,
    "ொரு ": 5002,
    "ொருள் ": 5003,
    "ொறு": 5004,
    "ொழு": 5005,
    "ோ": 5006,
    "ோ ": 5007,
    "ோ அ": 5008,
    "ோடு ": 5009,
    "ோது ": 5010,
    "ோது அ": 5011,
    "ோம் ": 5012,
    "ோம்.<NEWLINE>": 5013,
    "ோம்: ": 5014,
    "ோர": 5015,
    "ோரின் ": 5016,
    "ோரும் ": 5017,
    "ோர் ": 5018,
    "ௌ": 5019,
    "்": 5020,
    "் ": 5021,
    "் ப": 5022,
    "் படம் ": 5023,
    "் பல": 5024,
    "் பல்ல": 5025,
    "் பா": 5026,
    "் பி": 5027,
    "் பிர": 5028,
    "் பு": 5029,
    "் பெ": 5030,
    "் பே": 5031,
    "் போ": 5032,
    "் போன்ற": 5033,
    "் போரா": 5034,
    "் போல": 5035,
    "் போல் ": 5036,
    "், ": 5037,
    "்</w>": 5038,
    "்க": 5039,
    "்கள": 5040,
    "்களில் ": 5041,
    "்களுக்கு ": 5042,
    "்களை ": 5043,
    "்கள்": 5044,
    "்கள் ": 5045,
    "்கள், ": 5046,
    "்கள்</w>": 5047,
    "்கா": 5048,
    "்கின்ற": 5049,
    "்கின்றது.<NEWLINE>": 5050,
    "்கிற": 5051,
    "்கிறது. ": 5052,
    "்கிறது.<NEWLINE>": 5053,
    "்கு": 5054,
    "்கு ": 5055,
    "்கும": 5056,
    "்குமார் ": 5057,
    "்கூட": 5058,
    "்கொ": 5059,
    "்க் ": 5060,
    "்க்க": 5061,
    "்க்கு ": 5062,
    "்க்கும் ": 5063,
    "்ச": 5064,
    "்சாமி ": 5065,
    "்சி": 5066,
    "்செ": 5067,
    "்செல்வ": 5068,
    "்சே": 5069,
    "்சேது": 5070,
    "்ச் ": 5071,
    "்ச்ச": 5072,
    "்ச்சி": 5073,
    "்ச்சி ": 5074,
    "்ச்சி</w>": 5075,
    "்ச்சிய": 5076,
    "்ச்சியில் ": 5077,
    "்ட": 5078,
    "்டி": 5079,
    "்டில் ": 5080,
    "்ட்": 5081,
    "்ட் ": 5082,
    "்ட்ட": 5083,
    "்த": 5084,
    "்தா": 5085,
    "்தான் ": 5086,
    "்து": 5087,
    "்த் ": 5088,
    "்த்த": 5089,
    "்த்து": 5090,
    "்த்து ": 5091,
    "்நில": 5092,
    "்ந்த": 5093,
    "்ந்து ": 5094,
    "்ப": 5095,
    "்பா": 5096,
    "்போ": 5097,
    "்ப்ப": 5098,
    "்ய": 5099,
    "்யா": 5100,
    "்யா ": 5101,
    "்ற": 5102,
    "்வ": 5103,
    "்வாக": 5104,
    "ௗ": 5105,
    "​": 5106,
    "‌": 5107,
    "‌ஷ": 5108,
    "‌ஷன் ": 5109,
    "‌‌": 5110,
    "–": 5111,
    "‘": 5112,
    "’": 5113,
    "’ ": 5114,
    "’ -": 5115,
    "’: ": 5116,
    "’</w>": 5117,
    "“": 5118,
    "”": 5119,
    "” -": 5120,
    "” - ": 5121,
    "”-": 5122,
    "…": 5123,
    "⁠": 5124,
    "▪": 5125
}